{
  "vocab": {
    "<pad>": 0,
    "<unk>": 1,
    "<bos>": 2,
    "<eos>": 3,
    "#": 4,
    "'": 5,
    ",": 6,
    "-": 7,
    ".": 8,
    "A": 9,
    "B": 10,
    "D": 11,
    "E": 12,
    "F": 13,
    "G": 14,
    "I": 15,
    "L": 16,
    "M": 17,
    "N": 18,
    "P": 19,
    "R": 20,
    "T": 21,
    "a": 22,
    "b": 23,
    "c": 24,
    "d": 25,
    "e": 26,
    "f": 27,
    "g": 28,
    "h": 29,
    "i": 30,
    "j": 31,
    "k": 32,
    "l": 33,
    "m": 34,
    "n": 35,
    "o": 36,
    "p": 37,
    "q": 38,
    "r": 39,
    "s": 40,
    "t": 41,
    "u": 42,
    "v": 43,
    "w": 44,
    "x": 45,
    "y": 46,
    "z": 47,
    "Ġ": 48,
    "in": 49,
    "Ġa": 50,
    "es": 51,
    "Ġt": 52,
    "at": 53,
    "Ġc": 54,
    "ar": 55,
    "le": 56,
    "ro": 57,
    "er": 58,
    "an": 59,
    "on": 60,
    "ing": 61,
    "ge": 62,
    "Ġp": 63,
    "mo": 64,
    "al": 65,
    "Ġf": 66,
    "he": 67,
    "re": 68,
    "Ġd": 69,
    "ti": 70,
    "nd": 71,
    "Ġo": 72,
    "Ġl": 73,
    "en": 74,
    "el": 75,
    "mod": 76,
    "Ġs": 77,
    "or": 78,
    "is": 79,
    "Ġmod": 80,
    "Ġto": 81,
    "Ġof": 82,
    "ning": 83,
    "lear": 84,
    "Ġlear": 85,
    "Ġand": 86,
    "om": 87,
    "ur": 88,
    "ap": 89,
    "ac": 90,
    "th": 91,
    "Ġmodel": 92,
    "Ġin": 93,
    "Ġthe": 94,
    "Ġb": 95,
    "Ġlearning": 96,
    "qu": 97,
    "Ġdat": 98,
    "Ġdata": 99,
    "Ġcom": 100,
    "ces": 101,
    "The": 102,
    "ic": 103,
    "li": 104,
    "Ġn": 105,
    "ang": 106,
    "angu": 107,
    "age": 108,
    "anguage": 109,
    "tu": 110,
    "Ġmodels": 111,
    "Ġpro": 112,
    "em": 113,
    "ed": 114,
    "ol": 115,
    "ch": 116,
    "AI": 117,
    "ĠAI": 118,
    "Ġcon": 119,
    "us": 120,
    "Ġw": 121,
    "res": 122,
    "Ġre": 123,
    "arge": 124,
    "ion": 125,
    "ation": 126,
    "Ġcomp": 127,
    "ain": 128,
    "ab": 129,
    "ties": 130,
    "ine": 131,
    "Ġne": 132,
    "Ġy": 133,
    "ural": 134,
    "Ġlanguage": 135,
    "st": 136,
    "Ġis": 137,
    "Ġtr": 138,
    "for": 139,
    "tion": 140,
    "ent": 141,
    "Ġh": 142,
    "ear": 143,
    "tin": 144,
    "Ġcontin": 145,
    "Ġcontinu": 146,
    "Ġcontinues": 147,
    "ou": 148,
    "si": 149,
    "ble": 150,
    "ep": 151,
    "qui": 152,
    "Ġrequi": 153,
    "Ġrequires": 154,
    "Ġlarge": 155,
    "nt": 156,
    "our": 157,
    "um": 158,
    "ver": 159,
    "aining": 160,
    "xt": 161,
    "ext": 162,
    "Ġtext": 163,
    "Ġfe": 164,
    "abi": 165,
    "lities": 166,
    "abilities": 167,
    "Ġcap": 168,
    "Ġcapabilities": 169,
    "Ġad": 170,
    "ce": 171,
    "ith": 172,
    "Ġwith": 173,
    "rou": 174,
    "gh": 175,
    "rough": 176,
    "Ġe": 177,
    "atural": 178,
    "Ġu": 179,
    "ke": 180,
    "fic": 181,
    "Ġar": 182,
    "ll": 183,
    "Ġall": 184,
    "ec": 185,
    "ks": 186,
    "ul": 187,
    "im": 188,
    "Ġim": 189,
    "ag": 190,
    "sfor": 191,
    "mer": 192,
    "ansfor": 193,
    "Ġtransfor": 194,
    "Ġtransformer": 195,
    "ture": 196,
    "ention": 197,
    "tention": 198,
    "ttention": 199,
    "ms": 200,
    "cess": 201,
    "Ġprocess": 202,
    "Ġas": 203,
    "ment": 204,
    "der": 205,
    "Ġcomple": 206,
    "Ġcomplex": 207,
    "Ġfro": 208,
    "Ġfrom": 209,
    "pro": 210,
    "ack": 211,
    "ace": 212,
    "lace": 213,
    "earch": 214,
    "Res": 215,
    "Research": 216,
    "Ġpus": 217,
    "Ġpush": 218,
    "ari": 219,
    "Ġbou": 220,
    "Ġbound": 221,
    "aries": 222,
    "Ġboundaries": 223,
    "hat": 224,
    "Ġwhat": 225,
    "'s": 226,
    "sible": 227,
    "os": 228,
    "ossible": 229,
    "Ġpossible": 230,
    "De": 231,
    "Deep": 232,
    "mou": 233,
    "mount": 234,
    "mounts": 235,
    "Ġamounts": 236,
    "ational": 237,
    "tational": 238,
    "utational": 239,
    "Ġcomputational": 240,
    "Ġres": 241,
    "ources": 242,
    "Ġresources": 243,
    "Ġqu": 244,
    "Ġquic": 245,
    "Ġquick": 246,
    "wn": 247,
    "Ġbro": 248,
    "Ġbrown": 249,
    "ox": 250,
    "Ġfox": 251,
    "ump": 252,
    "umps": 253,
    "Ġj": 254,
    "Ġjumps": 255,
    "Ġover": 256,
    "az": 257,
    "Ġlaz": 258,
    "Ġlazy": 259,
    "og": 260,
    "Ġdog": 261,
    "Pre": 262,
    "tr": 263,
    "training": 264,
    "Ġon": 265,
    "Ġcor": 266,
    "por": 267,
    "Ġcorpor": 268,
    "Ġcorpora": 269,
    "Ġen": 270,
    "Ġenab": 271,
    "Ġenabl": 272,
    "Ġenables": 273,
    "Ġfew": 274,
    "ho": 275,
    "sho": 276,
    "shot": 277,
    "ach": 278,
    "achine": 279,
    "Machine": 280,
    "ance": 281,
    "Ġadv": 282,
    "Ġadvance": 283,
    "id": 284,
    "idl": 285,
    "idly": 286,
    "apidly": 287,
    "rapidly": 288,
    "Ġrapidly": 289,
    "Ġnew": 290,
    "roughs": 291,
    "throughs": 292,
    "kthroughs": 293,
    "akthroughs": 294,
    "reakthroughs": 295,
    "Ġbreakthroughs": 296,
    "very": 297,
    "Ġevery": 298,
    "Ġyear": 299,
    "Natural": 300,
    "and": 301,
    "anding": 302,
    "erst": 303,
    "erstanding": 304,
    "nderstanding": 305,
    "Ġunderstanding": 306,
    "key": 307,
    "Ġkey": 308,
    "nge": 309,
    "Ġch": 310,
    "lenge": 311,
    "allenge": 312,
    "Ġchallenge": 313,
    "Ġarti": 314,
    "fici": 315,
    "ficial": 316,
    "Ġartificial": 317,
    "elli": 318,
    "gen": 319,
    "telli": 320,
    "gence": 321,
    "Ġintelli": 322,
    "Ġintelligence": 323,
    "Fine": 324,
    "tuning": 325,
    "Ġallo": 326,
    "Ġallow": 327,
    "Ġallows": 328,
    "apt": 329,
    "Ġadapt": 330,
    "ific": 331,
    "pec": 332,
    "pecific": 333,
    "Ġspecific": 334,
    "Ġta": 335,
    "sks": 336,
    "Ġtasks": 337,
    "Ġdom": 338,
    "Ġdomain": 339,
    "Ġdomains": 340,
    "ulti": 341,
    "ultimod": 342,
    "Multimod": 343,
    "Multimodal": 344,
    "Ġcomb": 345,
    "Ġcombine": 346,
    "ages": 347,
    "Ġimages": 348,
    "Ġoth": 349,
    "Ġother": 350,
    "ali": 351,
    "Ġmodali": 352,
    "Ġmodalities": 353,
    "chi": 354,
    "Ġarchi": 355,
    "ecture": 356,
    "Ġarchit": 357,
    "Ġarchitecture": 358,
    "Ġus": 359,
    "Ġuses": 360,
    "Ġattention": 361,
    "anis": 362,
    "chanis": 363,
    "Ġm": 364,
    "Ġme": 365,
    "chanisms": 366,
    "Ġmechanisms": 367,
    "ences": 368,
    "quences": 369,
    "equences": 370,
    "Ġsequences": 371,
    "Large": 372,
    "Ġdem": 373,
    "ate": 374,
    "str": 375,
    "strate": 376,
    "onstrate": 377,
    "Ġdemonstrate": 378,
    "emer": 379,
    "Ġemer": 380,
    "Ġemerge": 381,
    "Ġemergent": 382,
    "Ġthey": 383,
    "ale": 384,
    "Ġsc": 385,
    "Ġscale": 386,
    "Ġup": 387,
    "Ġde": 388,
    "pment": 389,
    "elo": 390,
    "elopment": 391,
    "velopment": 392,
    "Ġdevelopment": 393,
    "yst": 394,
    "Ġsyst": 395,
    "ems": 396,
    "Ġsystems": 397,
    "are": 398,
    "aref": 399,
    "Ġcaref": 400,
    "Ġcareful": 401,
    "deration": 402,
    "sideration": 403,
    "Ġconsideration": 404,
    "et": 405,
    "af": 406,
    "afet": 407,
    "Ġsafet": 408,
    "Ġsafety": 409,
    "Ġeth": 410,
    "Ġethic": 411,
    "Ġethics": 412,
    "Attention": 413,
    "Ġyou": 414,
    "Ġneed": 415,
    "ated": 416,
    "tated": 417,
    "Ġstated": 418,
    "Ġfa": 419,
    "Ġfamo": 420,
    "Ġfamous": 421,
    "Ġpap": 422,
    "Ġpaper": 423,
    "Ne": 424,
    "Neural": 425,
    "Ġnet": 426,
    "orks": 427,
    "works": 428,
    "Ġnetworks": 429,
    "Ġcan": 430,
    "Ġlearn": 431,
    "ter": 432,
    "ns": 433,
    "terns": 434,
    "atterns": 435,
    "Ġpatterns": 436,
    "hrough": 437,
    "Ġthrough": 438,
    "ackpro": 439,
    "agation": 440,
    "Ġbackpro": 441,
    "Ġbackprop": 442,
    "Ġbackpropagation": 443,
    "ĠT": 444,
    "his": 445,
    "ĠThis": 446,
    "Ġplace": 447,
    "hol": 448,
    "Ġplacehol": 449,
    "Ġplaceholder": 450,
    "ile": 451,
    "Ġfile": 452,
    "ĠR": 453,
    "ĠRep": 454,
    "ĠReplace": 455,
    "Ġyour": 456,
    "Ġac": 457,
    "Ġactu": 458,
    "Ġactual": 459,
    "Ġtraining": 460,
    "uture": 461,
    "Ġfuture": 462,
    "old": 463,
    "olds": 464,
    "Ġholds": 465,
    "reat": 466,
    "great": 467,
    "Ġgreat": 468,
    "mis": 469,
    "Ġpromis": 470,
    "Ġpromise": 471,
    "Ġfor": 472,
    "Ġsol": 473,
    "Ġsolv": 474,
    "Ġsolving": 475,
    "Ġproble": 476,
    "Ġproblems": 477,
    "Language": 478,
    "Ġli": 479,
    "Ġlike": 480,
    "PT": 481,
    "GPT": 482,
    "ĠGPT": 483,
    "BE": 484,
    "RT": 485,
    "BERT": 486,
    "ĠBERT": 487,
    "Ġha": 488,
    "Ġhav": 489,
    "Ġhave": 490,
    "vol": 491,
    "volu": 492,
    "Ġrevolu": 493,
    "tioni": 494,
    "zed": 495,
    "Ġrevolutioni": 496,
    "Ġrevolutionized": 497,
    "Ġnatural": 498,
    "Ġprocessing": 499,
    "cem": 500,
    "forcem": 501,
    "forcement": 502,
    "inforcement": 503,
    "Re": 504,
    "Reinforcement": 505,
    "Ġhum": 506,
    "Ġhuman": 507,
    "edb": 508,
    "Ġfeedb": 509,
    "Ġfeedback": 510,
    "ves": 511,
    "Ġimpro": 512,
    "Ġimproves": 513,
    "gn": 514,
    "gnment": 515,
    "Ġali": 516,
    "Ġalignment": 517
  },
  "merges": {
    "i n": 49,
    "Ġ a": 50,
    "e s": 51,
    "Ġ t": 52,
    "a t": 53,
    "Ġ c": 54,
    "a r": 55,
    "l e": 56,
    "r o": 57,
    "e r": 58,
    "a n": 59,
    "o n": 60,
    "in g": 61,
    "g e": 62,
    "Ġ p": 63,
    "m o": 64,
    "a l": 65,
    "Ġ f": 66,
    "h e": 67,
    "r e": 68,
    "Ġ d": 69,
    "t i": 70,
    "n d": 71,
    "Ġ o": 72,
    "Ġ l": 73,
    "e n": 74,
    "e l": 75,
    "mo d": 76,
    "Ġ s": 77,
    "o r": 78,
    "i s": 79,
    "Ġ mod": 80,
    "Ġt o": 81,
    "Ġo f": 82,
    "n ing": 83,
    "le ar": 84,
    "Ġ lear": 85,
    "Ġa nd": 86,
    "o m": 87,
    "u r": 88,
    "a p": 89,
    "a c": 90,
    "t h": 91,
    "Ġmod el": 92,
    "Ġ in": 93,
    "Ġt he": 94,
    "Ġ b": 95,
    "Ġlear ning": 96,
    "q u": 97,
    "Ġd at": 98,
    "Ġdat a": 99,
    "Ġc om": 100,
    "c es": 101,
    "T he": 102,
    "i c": 103,
    "l i": 104,
    "Ġ n": 105,
    "an g": 106,
    "ang u": 107,
    "a ge": 108,
    "angu age": 109,
    "t u": 110,
    "Ġmodel s": 111,
    "Ġp ro": 112,
    "e m": 113,
    "e d": 114,
    "o l": 115,
    "c h": 116,
    "A I": 117,
    "Ġ AI": 118,
    "Ġc on": 119,
    "u s": 120,
    "Ġ w": 121,
    "r es": 122,
    "Ġ re": 123,
    "ar ge": 124,
    "i on": 125,
    "at ion": 126,
    "Ġcom p": 127,
    "a in": 128,
    "a b": 129,
    "ti es": 130,
    "in e": 131,
    "Ġn e": 132,
    "Ġ y": 133,
    "ur al": 134,
    "Ġl anguage": 135,
    "s t": 136,
    "Ġ is": 137,
    "Ġt r": 138,
    "f or": 139,
    "ti on": 140,
    "en t": 141,
    "Ġ h": 142,
    "e ar": 143,
    "t in": 144,
    "Ġcon tin": 145,
    "Ġcontin u": 146,
    "Ġcontinu es": 147,
    "o u": 148,
    "s i": 149,
    "b le": 150,
    "e p": 151,
    "qu i": 152,
    "Ġre qui": 153,
    "Ġrequi res": 154,
    "Ġl arge": 155,
    "n t": 156,
    "o ur": 157,
    "u m": 158,
    "v er": 159,
    "ain ing": 160,
    "x t": 161,
    "e xt": 162,
    "Ġt ext": 163,
    "Ġf e": 164,
    "ab i": 165,
    "li ties": 166,
    "abi lities": 167,
    "Ġc ap": 168,
    "Ġcap abilities": 169,
    "Ġa d": 170,
    "c e": 171,
    "i th": 172,
    "Ġw ith": 173,
    "ro u": 174,
    "g h": 175,
    "rou gh": 176,
    "Ġ e": 177,
    "at ural": 178,
    "Ġ u": 179,
    "k e": 180,
    "f ic": 181,
    "Ġa r": 182,
    "l l": 183,
    "Ġa ll": 184,
    "e c": 185,
    "k s": 186,
    "u l": 187,
    "i m": 188,
    "Ġ im": 189,
    "a g": 190,
    "s for": 191,
    "m er": 192,
    "an sfor": 193,
    "Ġtr ansfor": 194,
    "Ġtransfor mer": 195,
    "tu re": 196,
    "en tion": 197,
    "t ention": 198,
    "t tention": 199,
    "m s": 200,
    "ces s": 201,
    "Ġpro cess": 202,
    "Ġa s": 203,
    "m ent": 204,
    "d er": 205,
    "Ġcomp le": 206,
    "Ġcomple x": 207,
    "Ġf ro": 208,
    "Ġfro m": 209,
    "p ro": 210,
    "ac k": 211,
    "ac e": 212,
    "l ace": 213,
    "ear ch": 214,
    "R es": 215,
    "Res earch": 216,
    "Ġp us": 217,
    "Ġpus h": 218,
    "ar i": 219,
    "Ġb ou": 220,
    "Ġbou nd": 221,
    "ari es": 222,
    "Ġbound aries": 223,
    "h at": 224,
    "Ġw hat": 225,
    "' s": 226,
    "si ble": 227,
    "o s": 228,
    "os sible": 229,
    "Ġp ossible": 230,
    "D e": 231,
    "De ep": 232,
    "mo u": 233,
    "mou nt": 234,
    "mount s": 235,
    "Ġa mounts": 236,
    "ation al": 237,
    "t ational": 238,
    "u tational": 239,
    "Ġcomp utational": 240,
    "Ġ res": 241,
    "our ces": 242,
    "Ġres ources": 243,
    "Ġ qu": 244,
    "Ġqu ic": 245,
    "Ġquic k": 246,
    "w n": 247,
    "Ġb ro": 248,
    "Ġbro wn": 249,
    "o x": 250,
    "Ġf ox": 251,
    "um p": 252,
    "ump s": 253,
    "Ġ j": 254,
    "Ġj umps": 255,
    "Ġo ver": 256,
    "a z": 257,
    "Ġl az": 258,
    "Ġlaz y": 259,
    "o g": 260,
    "Ġd og": 261,
    "P re": 262,
    "t r": 263,
    "tr aining": 264,
    "Ġ on": 265,
    "Ġc or": 266,
    "p or": 267,
    "Ġcor por": 268,
    "Ġcorpor a": 269,
    "Ġ en": 270,
    "Ġen ab": 271,
    "Ġenab l": 272,
    "Ġenabl es": 273,
    "Ġfe w": 274,
    "h o": 275,
    "s ho": 276,
    "sho t": 277,
    "ac h": 278,
    "ach ine": 279,
    "M achine": 280,
    "an ce": 281,
    "Ġad v": 282,
    "Ġadv ance": 283,
    "i d": 284,
    "id l": 285,
    "idl y": 286,
    "ap idly": 287,
    "r apidly": 288,
    "Ġ rapidly": 289,
    "Ġne w": 290,
    "rough s": 291,
    "th roughs": 292,
    "k throughs": 293,
    "a kthroughs": 294,
    "re akthroughs": 295,
    "Ġb reakthroughs": 296,
    "ver y": 297,
    "Ġe very": 298,
    "Ġy ear": 299,
    "N atural": 300,
    "an d": 301,
    "and ing": 302,
    "er st": 303,
    "erst anding": 304,
    "nd erstanding": 305,
    "Ġu nderstanding": 306,
    "ke y": 307,
    "Ġ key": 308,
    "n ge": 309,
    "Ġc h": 310,
    "le nge": 311,
    "al lenge": 312,
    "Ġch allenge": 313,
    "Ġar ti": 314,
    "fic i": 315,
    "fici al": 316,
    "Ġarti ficial": 317,
    "el li": 318,
    "ge n": 319,
    "t elli": 320,
    "gen ce": 321,
    "Ġin telli": 322,
    "Ġintelli gence": 323,
    "F ine": 324,
    "tu ning": 325,
    "Ġall o": 326,
    "Ġallo w": 327,
    "Ġallow s": 328,
    "ap t": 329,
    "Ġad apt": 330,
    "i fic": 331,
    "p ec": 332,
    "pec ific": 333,
    "Ġs pecific": 334,
    "Ġt a": 335,
    "s ks": 336,
    "Ġta sks": 337,
    "Ġd om": 338,
    "Ġdom ain": 339,
    "Ġdomain s": 340,
    "ul ti": 341,
    "ulti mod": 342,
    "M ultimod": 343,
    "Multimod al": 344,
    "Ġcom b": 345,
    "Ġcomb ine": 346,
    "ag es": 347,
    "Ġim ages": 348,
    "Ġo th": 349,
    "Ġoth er": 350,
    "al i": 351,
    "Ġmod ali": 352,
    "Ġmodali ties": 353,
    "ch i": 354,
    "Ġar chi": 355,
    "ec ture": 356,
    "Ġarchi t": 357,
    "Ġarchit ecture": 358,
    "Ġ us": 359,
    "Ġus es": 360,
    "Ġa ttention": 361,
    "an is": 362,
    "ch anis": 363,
    "Ġ m": 364,
    "Ġm e": 365,
    "chanis ms": 366,
    "Ġme chanisms": 367,
    "en ces": 368,
    "qu ences": 369,
    "e quences": 370,
    "Ġs equences": 371,
    "L arge": 372,
    "Ġd em": 373,
    "at e": 374,
    "st r": 375,
    "str ate": 376,
    "on strate": 377,
    "Ġdem onstrate": 378,
    "em er": 379,
    "Ġ emer": 380,
    "Ġemer ge": 381,
    "Ġemerge nt": 382,
    "Ġthe y": 383,
    "a le": 384,
    "Ġs c": 385,
    "Ġsc ale": 386,
    "Ġu p": 387,
    "Ġd e": 388,
    "p ment": 389,
    "el o": 390,
    "elo pment": 391,
    "v elopment": 392,
    "Ġde velopment": 393,
    "y st": 394,
    "Ġs yst": 395,
    "em s": 396,
    "Ġsyst ems": 397,
    "ar e": 398,
    "are f": 399,
    "Ġc aref": 400,
    "Ġcaref ul": 401,
    "der ation": 402,
    "si deration": 403,
    "Ġcon sideration": 404,
    "e t": 405,
    "a f": 406,
    "af et": 407,
    "Ġs afet": 408,
    "Ġsafet y": 409,
    "Ġe th": 410,
    "Ġeth ic": 411,
    "Ġethic s": 412,
    "A ttention": 413,
    "Ġy ou": 414,
    "Ġne ed": 415,
    "at ed": 416,
    "t ated": 417,
    "Ġs tated": 418,
    "Ġf a": 419,
    "Ġfa mo": 420,
    "Ġfamo us": 421,
    "Ġp ap": 422,
    "Ġpap er": 423,
    "N e": 424,
    "Ne ural": 425,
    "Ġne t": 426,
    "or ks": 427,
    "w orks": 428,
    "Ġnet works": 429,
    "Ġc an": 430,
    "Ġlear n": 431,
    "t er": 432,
    "n s": 433,
    "ter ns": 434,
    "at terns": 435,
    "Ġp atterns": 436,
    "h rough": 437,
    "Ġt hrough": 438,
    "ack pro": 439,
    "ag ation": 440,
    "Ġb ackpro": 441,
    "Ġbackpro p": 442,
    "Ġbackprop agation": 443,
    "Ġ T": 444,
    "h is": 445,
    "ĠT his": 446,
    "Ġp lace": 447,
    "h ol": 448,
    "Ġplace hol": 449,
    "Ġplacehol der": 450,
    "i le": 451,
    "Ġf ile": 452,
    "Ġ R": 453,
    "ĠR ep": 454,
    "ĠRep lace": 455,
    "Ġy our": 456,
    "Ġa c": 457,
    "Ġac tu": 458,
    "Ġactu al": 459,
    "Ġtr aining": 460,
    "u ture": 461,
    "Ġf uture": 462,
    "ol d": 463,
    "old s": 464,
    "Ġh olds": 465,
    "re at": 466,
    "g reat": 467,
    "Ġ great": 468,
    "m is": 469,
    "Ġpro mis": 470,
    "Ġpromis e": 471,
    "Ġf or": 472,
    "Ġs ol": 473,
    "Ġsol v": 474,
    "Ġsolv ing": 475,
    "Ġpro ble": 476,
    "Ġproble ms": 477,
    "L anguage": 478,
    "Ġl i": 479,
    "Ġli ke": 480,
    "P T": 481,
    "G PT": 482,
    "Ġ GPT": 483,
    "B E": 484,
    "R T": 485,
    "BE RT": 486,
    "Ġ BERT": 487,
    "Ġh a": 488,
    "Ġha v": 489,
    "Ġhav e": 490,
    "v ol": 491,
    "vol u": 492,
    "Ġre volu": 493,
    "tion i": 494,
    "z ed": 495,
    "Ġrevolu tioni": 496,
    "Ġrevolutioni zed": 497,
    "Ġn atural": 498,
    "Ġprocess ing": 499,
    "c em": 500,
    "for cem": 501,
    "forcem ent": 502,
    "in forcement": 503,
    "R e": 504,
    "Re inforcement": 505,
    "Ġh um": 506,
    "Ġhum an": 507,
    "ed b": 508,
    "Ġfe edb": 509,
    "Ġfeedb ack": 510,
    "v es": 511,
    "Ġim pro": 512,
    "Ġimpro ves": 513,
    "g n": 514,
    "gn ment": 515,
    "Ġa li": 516,
    "Ġali gnment": 517
  },
  "special_tokens": {
    "<pad>": 0,
    "<unk>": 1,
    "<bos>": 2,
    "<eos>": 3
  },
  "vocab_size": 1000
}