{
  "vocab": {
    "<pad>": 0,
    "<unk>": 1,
    "<bos>": 2,
    "<eos>": 3,
    "!": 4,
    "\"": 5,
    "#": 6,
    "$": 7,
    "%": 8,
    "&": 9,
    "'": 10,
    "(": 11,
    ")": 12,
    "*": 13,
    "+": 14,
    ",": 15,
    "-": 16,
    ".": 17,
    "/": 18,
    "0": 19,
    "1": 20,
    "2": 21,
    "3": 22,
    "4": 23,
    "5": 24,
    "6": 25,
    "7": 26,
    "8": 27,
    "9": 28,
    ":": 29,
    ";": 30,
    "<": 31,
    "=": 32,
    ">": 33,
    "?": 34,
    "@": 35,
    "A": 36,
    "B": 37,
    "C": 38,
    "D": 39,
    "E": 40,
    "F": 41,
    "G": 42,
    "H": 43,
    "I": 44,
    "J": 45,
    "K": 46,
    "L": 47,
    "M": 48,
    "N": 49,
    "O": 50,
    "P": 51,
    "Q": 52,
    "R": 53,
    "S": 54,
    "T": 55,
    "U": 56,
    "V": 57,
    "W": 58,
    "X": 59,
    "Y": 60,
    "Z": 61,
    "[": 62,
    "\\": 63,
    "]": 64,
    "^": 65,
    "_": 66,
    "`": 67,
    "a": 68,
    "b": 69,
    "c": 70,
    "d": 71,
    "e": 72,
    "f": 73,
    "g": 74,
    "h": 75,
    "i": 76,
    "j": 77,
    "k": 78,
    "l": 79,
    "m": 80,
    "n": 81,
    "o": 82,
    "p": 83,
    "q": 84,
    "r": 85,
    "s": 86,
    "t": 87,
    "u": 88,
    "v": 89,
    "w": 90,
    "x": 91,
    "y": 92,
    "z": 93,
    "{": 94,
    "|": 95,
    "}": 96,
    "~": 97,
    "¡": 98,
    "¢": 99,
    "£": 100,
    "¤": 101,
    "¥": 102,
    "¦": 103,
    "§": 104,
    "¨": 105,
    "©": 106,
    "ª": 107,
    "«": 108,
    "¬": 109,
    "®": 110,
    "¯": 111,
    "°": 112,
    "±": 113,
    "²": 114,
    "³": 115,
    "´": 116,
    "µ": 117,
    "¶": 118,
    "·": 119,
    "¸": 120,
    "¹": 121,
    "º": 122,
    "»": 123,
    "¼": 124,
    "½": 125,
    "¾": 126,
    "¿": 127,
    "À": 128,
    "Á": 129,
    "Â": 130,
    "Ã": 131,
    "Ä": 132,
    "Å": 133,
    "Æ": 134,
    "Ç": 135,
    "È": 136,
    "É": 137,
    "Ê": 138,
    "Ë": 139,
    "Ì": 140,
    "Í": 141,
    "Î": 142,
    "Ï": 143,
    "Ð": 144,
    "Ñ": 145,
    "Ò": 146,
    "Ó": 147,
    "Ô": 148,
    "Õ": 149,
    "Ö": 150,
    "×": 151,
    "Ø": 152,
    "Ù": 153,
    "Ú": 154,
    "Û": 155,
    "Ü": 156,
    "Ý": 157,
    "Þ": 158,
    "ß": 159,
    "à": 160,
    "á": 161,
    "â": 162,
    "ã": 163,
    "ä": 164,
    "å": 165,
    "æ": 166,
    "ç": 167,
    "è": 168,
    "é": 169,
    "ê": 170,
    "ë": 171,
    "ì": 172,
    "í": 173,
    "î": 174,
    "ï": 175,
    "ð": 176,
    "ñ": 177,
    "ò": 178,
    "ó": 179,
    "ô": 180,
    "õ": 181,
    "ö": 182,
    "÷": 183,
    "ø": 184,
    "ù": 185,
    "ú": 186,
    "û": 187,
    "ü": 188,
    "ý": 189,
    "þ": 190,
    "ÿ": 191,
    "Ā": 192,
    "ā": 193,
    "Ă": 194,
    "ă": 195,
    "Ą": 196,
    "ą": 197,
    "Ć": 198,
    "ć": 199,
    "Ĉ": 200,
    "ĉ": 201,
    "Ċ": 202,
    "ċ": 203,
    "Č": 204,
    "č": 205,
    "Ď": 206,
    "ď": 207,
    "Đ": 208,
    "đ": 209,
    "Ē": 210,
    "ē": 211,
    "Ĕ": 212,
    "ĕ": 213,
    "Ė": 214,
    "ė": 215,
    "Ę": 216,
    "ę": 217,
    "Ě": 218,
    "ě": 219,
    "Ĝ": 220,
    "ĝ": 221,
    "Ğ": 222,
    "ğ": 223,
    "Ġ": 224,
    "ġ": 225,
    "Ģ": 226,
    "ģ": 227,
    "Ĥ": 228,
    "ĥ": 229,
    "Ħ": 230,
    "ħ": 231,
    "Ĩ": 232,
    "ĩ": 233,
    "Ī": 234,
    "ī": 235,
    "Ĭ": 236,
    "ĭ": 237,
    "Į": 238,
    "į": 239,
    "İ": 240,
    "ı": 241,
    "Ĳ": 242,
    "ĳ": 243,
    "Ĵ": 244,
    "ĵ": 245,
    "Ķ": 246,
    "ķ": 247,
    "ĸ": 248,
    "Ĺ": 249,
    "ĺ": 250,
    "Ļ": 251,
    "ļ": 252,
    "Ľ": 253,
    "ľ": 254,
    "Ŀ": 255,
    "ŀ": 256,
    "Ł": 257,
    "ł": 258,
    "Ń": 259,
    "Ġt": 260,
    "he": 261,
    "Ġa": 262,
    "in": 263,
    "Ġthe": 264,
    "Ġo": 265,
    "er": 266,
    "re": 267,
    "Ġs": 268,
    "Ġw": 269,
    "an": 270,
    "is": 271,
    "Ġc": 272,
    "on": 273,
    "es": 274,
    "at": 275,
    "ed": 276,
    "Ġb": 277,
    "en": 278,
    "Ġan": 279,
    "or": 280,
    "Ġof": 281,
    "it": 282,
    "Ġm": 283,
    "Ġp": 284,
    "al": 285,
    "Ġf": 286,
    "ar": 287,
    "Ġin": 288,
    "Ġand": 289,
    "as": 290,
    "ou": 291,
    "ic": 292,
    "Ġto": 293,
    "Ġh": 294,
    "ing": 295,
    "le": 296,
    "om": 297,
    "Ġd": 298,
    "Ġis": 299,
    "ĠT": 300,
    "Ġl": 301,
    "Ġth": 302,
    "us": 303,
    "ion": 304,
    "Ġn": 305,
    "Ġbe": 306,
    "ent": 307,
    "il": 308,
    "am": 309,
    "Ġe": 310,
    "ĠS": 311,
    "ot": 312,
    "Ġg": 313,
    "ĠA": 314,
    "st": 315,
    "ĠThe": 316,
    "ve": 317,
    "ol": 318,
    "ĠI": 319,
    "op": 320,
    "ow": 321,
    "Ġare": 322,
    "ver": 323,
    "Ġ1": 324,
    "ad": 325,
    "Ġwas": 326,
    "ly": 327,
    "et": 328,
    "Ġre": 329,
    "ct": 330,
    "Ġon": 331,
    "im": 332,
    "id": 333,
    "Ġ\"": 334,
    "her": 335,
    "ur": 336,
    "ĠC": 337,
    "ay": 338,
    "Ġfor": 339,
    "ir": 340,
    "ce": 341,
    "ut": 342,
    "Ġst": 343,
    "ch": 344,
    "ĠM": 345,
    "ig": 346,
    "Ġal": 347,
    "Ġthat": 348,
    "Ġ(": 349,
    "el": 350,
    "oun": 351,
    "Ġas": 352,
    "Ġwh": 353,
    "ĠH": 354,
    "ro": 355,
    "un": 356,
    "Ġor": 357,
    "ter": 358,
    "th": 359,
    "Ġit": 360,
    "ĠB": 361,
    "Ġmo": 362,
    "ul": 363,
    "and": 364,
    "ĠE": 365,
    "ith": 366,
    "all": 367,
    "ation": 368,
    "ies": 369,
    "ers": 370,
    "ĠP": 371,
    "ra": 372,
    "se": 373,
    "Ġwith": 374,
    "Ġfr": 375,
    "Ġus": 376,
    "Ġby": 377,
    "Ġhe": 378,
    "if": 379,
    "ke": 380,
    "um": 381,
    "ld": 382,
    "ist": 383,
    "ĠG": 384,
    "ge": 385,
    "ĠW": 386,
    "est": 387,
    "Ġfrom": 388,
    "eop": 389,
    "Ġ19": 390,
    "art": 391,
    "Ġ2": 392,
    "eople": 393,
    "ĠR": 394,
    "od": 395,
    "ome": 396,
    "Ġha": 397,
    "em": 398,
    "ĠF": 399,
    "ain": 400,
    "Ġr": 401,
    "The": 402,
    "ther": 403,
    "ill": 404,
    "Ġcom": 405,
    "ĠN": 406,
    "'s": 407,
    "ĠIt": 408,
    "Ġnot": 409,
    "any": 410,
    "Ġpeople": 411,
    "ity": 412,
    "ĠL": 413,
    "ia": 414,
    "ant": 415,
    "ame": 416,
    "so": 417,
    "Ġwor": 418,
    "Ġse": 419,
    "ich": 420,
    "Ġat": 421,
    "Ġcan": 422,
    "ht": 423,
    "ac": 424,
    "Ġcon": 425,
    "iv": 426,
    "ĠD": 427,
    "ĠIn": 428,
    "Ġpl": 429,
    "res": 430,
    "ap": 431,
    "ĠJ": 432,
    "Ġhave": 433,
    "tr": 434,
    "ate": 435,
    "Ġde": 436,
    "os": 437,
    "Ġsu": 438,
    "ear": 439,
    "Ġex": 440,
    "Ġch": 441,
    "Ġk": 442,
    "Ġsp": 443,
    "Ġbec": 444,
    "Ġalso": 445,
    "Ġhas": 446,
    "ĠU": 447,
    "ere": 448,
    "ans": 449,
    "ud": 450,
    "00": 451,
    "Ġy": 452,
    "ĠO": 453,
    "Ġthey": 454,
    "ive": 455,
    "Ġwhich": 456,
    "Ġv": 457,
    "Ġwere": 458,
    "Ġcall": 459,
    "Ġother": 460,
    "Ġhis": 461,
    "ort": 462,
    "Ġsh": 463,
    "Ġle": 464,
    "ber": 465,
    "end": 466,
    "Ġma": 467,
    "ally": 468,
    "ci": 469,
    "Ġcalled": 470,
    "ew": 471,
    "ong": 472,
    "pp": 473,
    "qu": 474,
    "ight": 475,
    "ast": 476,
    "ound": 477,
    "Ġpro": 478,
    "ĠTh": 479,
    "out": 480,
    "ish": 481,
    "Ġun": 482,
    "Ġwhe": 483,
    "Ġab": 484,
    "oug": 485,
    "ian": 486,
    "Ġmany": 487,
    "aus": 488,
    "ag": 489,
    "ment": 490,
    "ĠHe": 491,
    "land": 492,
    "ess": 493,
    "ore": 494,
    "Ġtheir": 495,
    "ell": 496,
    "ab": 497,
    "ide": 498,
    "Ġcoun": 499,
    "ang": 500,
    "ard": 501,
    "Ġbut": 502,
    "very": 503,
    "ĠK": 504,
    "Ġpart": 505,
    "ect": 506,
    "Ġone": 507,
    "ure": 508,
    "ade": 509,
    "our": 510,
    "Ġtr": 511,
    "own": 512,
    "Ġgo": 513,
    "rit": 514,
    "Ġar": 515,
    "fer": 516,
    "Ġused": 517,
    "ous": 518,
    "der": 519,
    "Ġyear": 520,
    "ater": 521,
    "ok": 522,
    "ĠUn": 523,
    "Ġwho": 524,
    "Ġso": 525,
    "Ġdo": 526,
    "ary": 527,
    "ĠCh": 528,
    "Ġmost": 529,
    "Ġall": 530,
    ").": 531,
    "Ġpr": 532,
    "up": 533,
    "\".": 534,
    "ould": 535,
    "Ġcountr": 536,
    "Ġme": 537,
    "Ġli": 538,
    "ĠSt": 539,
    "ĠThis": 540,
    "Ġhad": 541,
    "ause": 542,
    "ie": 543,
    "cl": 544,
    "ine": 545,
    "ak": 546,
    "ions": 547,
    "irst": 548,
    "ical": 549,
    "ime": 550,
    "Ġcomp": 551,
    "Ġthis": 552,
    "mer": 553,
    "ree": 554,
    "ated": 555,
    "Ġgr": 556,
    "ep": 557,
    "to": 558,
    "ub": 559,
    "ĠThey": 560,
    "Ġabout": 561,
    "Ġcl": 562,
    "Ġmade": 563,
    "ip": 564,
    "oc": 565,
    "ings": 566,
    "one": 567,
    "Ġsome": 568,
    "Ġfirst": 569,
    "ates": 570,
    "Ġmore": 571,
    "fter": 572,
    "Ġdif": 573,
    "In": 574,
    "age": 575,
    "ough": 576,
    "ied": 577,
    "ten": 578,
    "ds": 579,
    "og": 580,
    "ost": 581,
    "ib": 582,
    "ng": 583,
    "are": 584,
    "Ġtw": 585,
    "ass": 586,
    "ks": 587,
    "Ġits": 588,
    "ire": 589,
    "Ġ20": 590,
    "Ġdiffer": 591,
    "per": 592,
    "Ġkn": 593,
    "Ġthem": 594,
    "iz": 595,
    "ec": 596,
    "\",": 597,
    "ited": 598,
    "amp": 599,
    "iver": 600,
    "âĢ": 601,
    "Ġthere": 602,
    "ace": 603,
    "Ġlike": 604,
    "ĠV": 605,
    "ue": 606,
    "Ġen": 607,
    "erm": 608,
    "),": 609,
    "ts": 610,
    "Ġim": 611,
    "Ġwhen": 612,
    "av": 613,
    "Ġthan": 614,
    "lect": 615,
    "Ġbecause": 616,
    "Ġinto": 617,
    "Ġvery": 618,
    "als": 619,
    "Ġtwo": 620,
    "clud": 621,
    "les": 622,
    "Ġtime": 623,
    "Ġj": 624,
    "Ġne": 625,
    "Ġdifferent": 626,
    "ays": 627,
    "Ġinclud": 628,
    "ind": 629,
    "act": 630,
    "Ġag": 631,
    "ric": 632,
    "ren": 633,
    "ach": 634,
    "Ġte": 635,
    "ack": 636,
    "Ġlar": 637,
    "ild": 638,
    "Ġwe": 639,
    "uc": 640,
    "Ġcity": 641,
    "ust": 642,
    "ice": 643,
    "Ġ200": 644,
    "ons": 645,
    "Ġform": 646,
    "tern": 647,
    "ĠEng": 648,
    "Ġad": 649,
    "ult": 650,
    "Ġyears": 651,
    "ance": 652,
    "Ġ18": 653,
    "omet": 654,
    "ond": 655,
    "ence": 656,
    "cc": 657,
    "ook": 658,
    "Ġcomm": 659,
    "ry": 660,
    "Ġcent": 661,
    "ood": 662,
    "ose": 663,
    "ope": 664,
    "ug": 665,
    "ial": 666,
    "ually": 667,
    "ory": 668,
    "Ġbeen": 669,
    "meric": 670,
    "Ġdis": 671,
    "ord": 672,
    "Ġmake": 673,
    "Ġsuch": 674,
    "ĠUnited": 675,
    "Ġuse": 676,
    "port": 677,
    "imes": 678,
    "vel": 679,
    "Ġsy": 680,
    "Ġup": 681,
    "Ġev": 682,
    "Ġbecame": 683,
    "Ġcol": 684,
    "Ġwork": 685,
    "Ġonly": 686,
    "orm": 687,
    "ations": 688,
    "een": 689,
    "Ġout": 690,
    "Ġworld": 691,
    "other": 692,
    "Ġbet": 693,
    "reat": 694,
    "ĠAmeric": 695,
    "orn": 696,
    "tain": 697,
    "wn": 698,
    "angu": 699,
    "Ġafter": 700,
    "pl": 701,
    "low": 702,
    "Ġpop": 703,
    "uring": 704,
    "Ġ3": 705,
    "Ġlangu": 706,
    "Ġsm": 707,
    "Ġmay": 708,
    "ph": 709,
    "aw": 710,
    "ors": 711,
    "ile": 712,
    "Ġover": 713,
    "Ġnum": 714,
    "Ġfam": 715,
    "Ġpopul": 716,
    "Ġro": 717,
    "Ġplay": 718,
    "Ġcountry": 719,
    "ĠAn": 720,
    "pt": 721,
    "Ġknown": 722,
    "ff": 723,
    "ite": 724,
    "vern": 725,
    "outh": 726,
    "Ġher": 727,
    "hen": 728,
    "ident": 729,
    "erson": 730,
    "ne": 731,
    "ces": 732,
    "Ġmov": 733,
    "Ġelect": 734,
    "lic": 735,
    "ĠAl": 736,
    "ign": 737,
    "Ġmus": 738,
    "Ġbu": 739,
    "Ġoften": 740,
    "Ġrel": 741,
    "Ġwould": 742,
    "Ġexamp": 743,
    "ens": 744,
    "Ġwrit": 745,
    "ism": 746,
    "old": 747,
    "Ġbr": 748,
    "ics": 749,
    "ath": 750,
    "Ġwill": 751,
    "hed": 752,
    "oup": 753,
    "Ġwhere": 754,
    "Ġperson": 755,
    "Ġcountries": 756,
    "Ġspe": 757,
    "Ġnew": 758,
    "Ġpres": 759,
    "gan": 760,
    "Ġco": 761,
    "gest": 762,
    "Ġper": 763,
    "Ġsmall": 764,
    "ury": 765,
    "Ġact": 766,
    "ween": 767,
    "Ġstart": 768,
    "ĠFr": 769,
    "ase": 770,
    "Ġ201": 771,
    "ft": 772,
    "ĠStates": 773,
    "oth": 774,
    "uct": 775,
    "Ġmet": 776,
    "Ġpre": 777,
    "Ġser": 778,
    "Ġsame": 779,
    "ĠThere": 780,
    "Ġgovern": 781,
    "Ġbl": 782,
    "fore": 783,
    "ower": 784,
    "Ġsa": 785,
    "lish": 786,
    "ov": 787,
    "pe": 788,
    "ents": 789,
    "Ġres": 790,
    "Ġexample": 791,
    "ition": 792,
    "orth": 793,
    "ĠEur": 794,
    "Ġoff": 795,
    "cial": 796,
    "ational": 797,
    "Ġbetween": 798,
    "ĠSome": 799,
    "Ġph": 800,
    "Ġno": 801,
    "Ġhim": 802,
    "ife": 803,
    "Ġra": 804,
    "Ġcap": 805,
    "Ġthese": 806,
    "ince": 807,
    "ars": 808,
    "Ġpo": 809,
    "ital": 810,
    "ased": 811,
    "ists": 812,
    "Ġlong": 813,
    "Ġthr": 814,
    "ark": 815,
    "Ġqu": 816,
    "ever": 817,
    "Ġget": 818,
    "uch": 819,
    "Ġusually": 820,
    "stem": 821,
    "hes": 822,
    "Ġfound": 823,
    "igh": 824,
    "ities": 825,
    "Ġpol": 826,
    "Ġapp": 827,
    "ob": 828,
    "Ġhow": 829,
    "ix": 830,
    "Ġsomet": 831,
    "Ġind": 832,
    "ĠEurope": 833,
    "io": 834,
    "Ġthings": 835,
    "Ġdr": 836,
    "Ġmak": 837,
    "Ġstr": 838,
    "ought": 839,
    "ather": 840,
    "ĠEnglish": 841,
    "Ġear": 842,
    "Ġliv": 843,
    "Ġgroup": 844,
    "Ġstate": 845,
    "Ġrec": 846,
    "Ġ199": 847,
    "Ġwater": 848,
    "000": 849,
    "Ġthen": 850,
    "Ġname": 851,
    "ĠGerm": 852,
    "Ġmusic": 853,
    "ublic": 854,
    "Ġend": 855,
    "Ġhel": 856,
    "ĠY": 857,
    "ows": 858,
    "ict": 859,
    "Ġgovernment": 860,
    "Ġsec": 861,
    "ines": 862,
    "Ġ4": 863,
    "Ġdes": 864,
    "ames": 865,
    "Ġbel": 866,
    "Ġimport": 867,
    "Ġstud": 868,
    "Ġcre": 869,
    "Ġunder": 870,
    "Ġnumber": 871,
    "Ġdid": 872,
    "ick": 873,
    "urn": 874,
    "Ġany": 875,
    "Ġty": 876,
    "ily": 877,
    "Ġagain": 878,
    "ĠMar": 879,
    "Ġtra": 880,
    "able": 881,
    "Ġprod": 882,
    "oman": 883,
    "ys": 884,
    "Ġmain": 885,
    "Ġlanguage": 886,
    "Ġgen": 887,
    "ĠAr": 888,
    "Ġcont": 889,
    "int": 890,
    "ress": 891,
    "Ġimportant": 892,
    "Âł": 893,
    "ject": 894,
    "iet": 895,
    "oh": 896,
    "ake": 897,
    "Ġsystem": 898,
    "olog": 899,
    "Ġcommon": 900,
    "ants": 901,
    "Ġthrough": 902,
    "Ġfl": 903,
    "ink": 904,
    "arr": 905,
    "ages": 906,
    "Ġhelp": 907,
    "Ġam": 908,
    "ange": 909,
    "get": 910,
    "ty": 911,
    "Ġown": 912,
    "Ġaround": 913,
    "ustr": 914,
    "hem": 915,
    "ĠSp": 916,
    "br": 917,
    "Ġold": 918,
    "Ġ5": 919,
    "Ġwell": 920,
    "Ġwar": 921,
    "ool": 922,
    "Ġbig": 923,
    "Ġinf": 924,
    "ĠFor": 925,
    "Ġinv": 926,
    "Ġword": 927,
    "Ġcould": 928,
    "ins": 929,
    "Ġshe": 930,
    "ĠThese": 931,
    "ove": 932,
    "Ġreg": 933,
    "str": 934,
    "Ġatt": 935,
    "ians": 936,
    "Ġmeans": 937,
    "ivers": 938,
    "Ġcentury": 939,
    "ote": 940,
    "ĠNew": 941,
    "ward": 942,
    "gr": 943,
    "Ġsur": 944,
    "ures": 945,
    "Ġwhat": 946,
    "illion": 947,
    "Ġduring": 948,
    "Ġway": 949,
    "li": 950,
    "ĠKing": 951,
    "Ġfe": 952,
    "Ġthree": 953,
    "gy": 954,
    "ĠBrit": 955,
    "cient": 956,
    "ious": 957,
    "Ġeach": 958,
    "Ġif": 959,
    "Ġob": 960,
    "til": 961,
    "Ġevery": 962,
    "Ġland": 963,
    "Ġmuch": 964,
    "ual": 965,
    "ved": 966,
    "Ġ197": 967,
    "Ġlive": 968,
    "ton": 969,
    "ĠAs": 970,
    "ution": 971,
    "uss": 972,
    "Ġlarge": 973,
    "Ġmon": 974,
    "ful": 975,
    "Ġhum": 976,
    "its": 977,
    "ative": 978,
    "Ġlater": 979,
    "Ġcapital": 980,
    "hing": 981,
    "ĠPr": 982,
    "rist": 983,
    "ĠAmerican": 984,
    "Ġ198": 985,
    "ble": 986,
    "ium": 987,
    "Ġsaid": 988,
    "mp": 989,
    "Ġcar": 990,
    "onom": 991,
    "te": 992,
    "Ġdec": 993,
    "Ġac": 994,
    "Ġchild": 995,
    "Ġsim": 996,
    "way": 997,
    "ature": 998,
    "Ġbelie": 999,
    "Ġsc": 1000,
    "âĢĵ": 1001,
    "Ġlife": 1002,
    "Ġpower": 1003,
    "Ġcons": 1004,
    "oy": 1005,
    "uary": 1006,
    "ĠWor": 1007,
    "ĠInd": 1008,
    "ĠIs": 1009,
    "ger": 1010,
    "Ġbefore": 1011,
    "Ġanim": 1012,
    "bers": 1013,
    "ail": 1014,
    "anc": 1015,
    "ĠWhen": 1016,
    "ting": 1017,
    "Ġsecond": 1018,
    "ĠWar": 1019,
    "Ġbeing": 1020,
    "Ġmem": 1021,
    "Ġlight": 1022,
    "day": 1023,
    "Ġpopular": 1024,
    "ific": 1025,
    "ave": 1026,
    "Ġchang": 1027,
    "tle": 1028,
    "amed": 1029,
    "Ġstarted": 1030,
    "Ġcr": 1031,
    "Ġsupp": 1032,
    "Ġstill": 1033,
    "Ġfamous": 1034,
    "ĠLe": 1035,
    "owever": 1036,
    "mber": 1037,
    "Ġbook": 1038,
    "ural": 1039,
    "Ġarea": 1040,
    "Ġfol": 1041,
    "ody": 1042,
    "eral": 1043,
    "ina": 1044,
    "Ġdied": 1045,
    "Ġ'": 1046,
    "Ġuntil": 1047,
    "Ġ196": 1048,
    "red": 1049,
    "the": 1050,
    "Ġrele": 1051,
    "arth": 1052,
    "Ġinclude": 1053,
    "dom": 1054,
    "thern": 1055,
    "Ġwant": 1056,
    "Ġ6": 1057,
    "ĠWorld": 1058,
    "Ġke": 1059,
    "ĠMany": 1060,
    "Ġsub": 1061,
    "Ġlaw": 1062,
    "Ġsch": 1063,
    "Ġchar": 1064,
    "ĠShe": 1065,
    "Ġman": 1066,
    "ĠDe": 1067,
    "ĠChrist": 1068,
    "ible": 1069,
    "iss": 1070,
    "Ġfour": 1071,
    "There": 1072,
    "ale": 1073,
    "ters": 1074,
    "Ġadd": 1075,
    "ĠAf": 1076,
    "Ġlargest": 1077,
    "Ġrem": 1078,
    "Ġboth": 1079,
    "Ġplan": 1080,
    "Ġ15": 1081,
    "Ġeven": 1082,
    "Ġdoes": 1083,
    "vers": 1084,
    "Ġmat": 1085,
    "ĠOn": 1086,
    "Ġshow": 1087,
    "Ġneed": 1088,
    "iel": 1089,
    "ĠAt": 1090,
    "Ġlead": 1091,
    "ision": 1092,
    "Ġanother": 1093,
    "ĠHowever": 1094,
    "ah": 1095,
    "Ġplace": 1096,
    "Ġback": 1097,
    "elf": 1098,
    "Ġdef": 1099,
    "led": 1100,
    "Ġair": 1101,
    "Ġ17": 1102,
    "Ġgood": 1103,
    "Ġday": 1104,
    "ork": 1105,
    "Ġnow": 1106,
    "ula": 1107,
    "Ġcontr": 1108,
    "hip": 1109,
    "ĠEngland": 1110,
    "ĠRe": 1111,
    "Ġhigh": 1112,
    "Ġsometimes": 1113,
    "gen": 1114,
    "Ġart": 1115,
    "Ġsing": 1116,
    "Ġide": 1117,
    "ĠNorth": 1118,
    "ĠEarth": 1119,
    "Ġhist": 1120,
    "Ġfollow": 1121,
    "Ġbuild": 1122,
    "ets": 1123,
    "Ġmean": 1124,
    "Ġbir": 1125,
    "cy": 1126,
    "Ġincluding": 1127,
    "Ġparts": 1128,
    "Ġmillion": 1129,
    "ract": 1130,
    "ves": 1131,
    "ted": 1132,
    "Ġpos": 1133,
    "Ġisland": 1134,
    "Ġnear": 1135,
    "ĠRoman": 1136,
    "ĠSouth": 1137,
    "ms": 1138,
    "ided": 1139,
    "ex": 1140,
    "ced": 1141,
    "pr": 1142,
    "side": 1143,
    "form": 1144,
    "ax": 1145,
    "gether": 1146,
    "amm": 1147,
    "Ġlot": 1148,
    "Ġcomput": 1149,
    "ck": 1150,
    "arch": 1151,
    "Ġnamed": 1152,
    "Ġgiv": 1153,
    "Ġspec": 1154,
    "Ġtrans": 1155,
    "Ġ7": 1156,
    "ĠCom": 1157,
    "ros": 1158,
    "Ġacc": 1159,
    "Ġkill": 1160,
    "Ġbecome": 1161,
    "ĠHis": 1162,
    "bum": 1163,
    "els": 1164,
    "Ġ-": 1165,
    "Ġbegan": 1166,
    "Ġmin": 1167,
    "Ġhapp": 1168,
    "Ġrelig": 1169,
    "Ġtogether": 1170,
    "Ġagainst": 1171,
    "Ġpresident": 1172,
    "Ġfood": 1173,
    "Ġdist": 1174,
    "Ġsever": 1175,
    "Ġwhile": 1176,
    "Ġinter": 1177,
    "ments": 1178,
    "Ġrep": 1179,
    "aces": 1180,
    "19": 1181,
    "Ġmed": 1182,
    "Ġsong": 1183,
    "Ġset": 1184,
    "ven": 1185,
    "Ġlook": 1186,
    "Ġalbum": 1187,
    "co": 1188,
    "Ġsee": 1189,
    "ĠGree": 1190,
    "velop": 1191,
    "Ġoffic": 1192,
    "ams": 1193,
    "oot": 1194,
    "ined": 1195,
    "Ġcame": 1196,
    "oney": 1197,
    "Ġdiv": 1198,
    "ergy": 1199,
    "ank": 1200,
    "Ġfew": 1201,
    "ilt": 1202,
    "Ġtak": 1203,
    "ning": 1204,
    "az": 1205,
    "Ġ10": 1206,
    "Ġschool": 1207,
    "Ġ194": 1208,
    "ouse": 1209,
    "Ġwr": 1210,
    "Ġrul": 1211,
    "Ġmil": 1212,
    "Ġlast": 1213,
    "Ġright": 1214,
    "ĠAfric": 1215,
    "Ġmakes": 1216,
    "Ġwords": 1217,
    "ĠMost": 1218,
    "Ġthought": 1219,
    "Ġpolit": 1220,
    "ating": 1221,
    "Ġexp": 1222,
    "ohn": 1223,
    "Ġseveral": 1224,
    "Ġdevelop": 1225,
    "une": 1226,
    "ular": 1227,
    "Ġborn": 1228,
    "ste": 1229,
    "ral": 1230,
    "apan": 1231,
    "Ġbody": 1232,
    "ĠJan": 1233,
    "Ġfamily": 1234,
    "ĠAfter": 1235,
    "ise": 1236,
    "igin": 1237,
    "ĠFrance": 1238,
    "Ġtimes": 1239,
    "Ġdown": 1240,
    "Ġpopulation": 1241,
    "cr": 1242,
    "Ġorgan": 1243,
    "Ġusing": 1244,
    "ĠRuss": 1245,
    "ished": 1246,
    "ĠBritish": 1247,
    "mb": 1248,
    "Ġeas": 1249,
    ".\"": 1250,
    "Ġcontrol": 1251,
    "ared": 1252,
    "ology": 1253,
    "ock": 1254,
    "Ġsay": 1255,
    "Ġtyp": 1256,
    "ize": 1257,
    "Ġwon": 1258,
    "Ġelectr": 1259,
    "Ġfar": 1260,
    "Ġmove": 1261,
    "Ġ9": 1262,
    "ier": 1263,
    "Ġcontin": 1264,
    "Ġec": 1265,
    "Ġinc": 1266,
    "ountain": 1267,
    "Ġwritten": 1268,
    "Ġenergy": 1269,
    "ues": 1270,
    "Ġchildren": 1271,
    "ffect": 1272,
    "ll": 1273,
    "Ġearly": 1274,
    "Ġdep": 1275,
    "ĠSe": 1276,
    "Ġprot": 1277,
    "Ġdeath": 1278,
    "urch": 1279,
    "ĠJapan": 1280,
    "ason": 1281,
    "Ġ8": 1282,
    "Ġsince": 1283,
    "ĠQ": 1284,
    "ĠUnion": 1285,
    "xt": 1286,
    "jor": 1287,
    "Ġmoney": 1288,
    "idd": 1289,
    "Ġlanguages": 1290,
    "Ġcell": 1291,
    "Ġvar": 1292,
    "cept": 1293,
    "Ġchange": 1294,
    "Ġrun": 1295,
    "ats": 1296,
    "Ġsl": 1297,
    "ĠRep": 1298,
    "Ġtown": 1299,
    "Ġcult": 1300,
    "ases": 1301,
    "Ġfin": 1302,
    "Ġele": 1303,
    "ĠII": 1304,
    "raph": 1305,
    "ĠGermany": 1306,
    "Ġbuilt": 1307,
    "Ġjust": 1308,
    "Ġcaus": 1309,
    "ĠAustr": 1310,
    "hest": 1311,
    "ai": 1312,
    "ands": 1313,
    "here": 1314,
    "ĠSc": 1315,
    "ered": 1316,
    "Ġlet": 1317,
    "Ġless": 1318,
    "Ġsupport": 1319,
    "irect": 1320,
    "alk": 1321,
    "Ġcreated": 1322,
    "rench": 1323,
    "Ġ16": 1324,
    "Ġtem": 1325,
    "Ġthink": 1326,
    "Ġhome": 1327,
    "Ġcommun": 1328,
    "Ġanimals": 1329,
    "Ġsouth": 1330,
    "enn": 1331,
    "ann": 1332,
    "Ġequ": 1333,
    "Ġterm": 1334,
    "ĠAmerica": 1335,
    "ĠJohn": 1336,
    "ĠBe": 1337,
    "mpire": 1338,
    "ount": 1339,
    "Ġput": 1340,
    "Ġfun": 1341,
    "ĠZ": 1342,
    "ĠCol": 1343,
    "Ġgrow": 1344,
    "Ġsign": 1345,
    "Ġmarr": 1346,
    "Ġreleased": 1347,
    "my": 1348,
    "Ġexpl": 1349,
    "ĠIf": 1350,
    "ories": 1351,
    "Ġleft": 1352,
    "Ġop": 1353,
    "Ġobject": 1354,
    "alth": 1355,
    "Ġprogr": 1356,
    "read": 1357,
    "atic": 1358,
    "Ġbo": 1359,
    "Ġaut": 1360,
    "Ġprov": 1361,
    "Ġ195": 1362,
    "Ġchem": 1363,
    "Ġtook": 1364,
    "iversity": 1365,
    "Ġpartic": 1366,
    "most": 1367,
    "Ġlit": 1368,
    "Ġwent": 1369,
    "Ġsk": 1370,
    "Ġproble": 1371,
    "Ġeconom": 1372,
    "oms": 1373,
    "Ġprop": 1374,
    "ball": 1375,
    "Ġliving": 1376,
    "ones": 1377,
    "ĠGerman": 1378,
    "epend": 1379,
    "ĠSh": 1380,
    "Ġmaking": 1381,
    "yd": 1382,
    "Ġcities": 1383,
    "Ġmajor": 1384,
    "ĠPeople": 1385,
    "Ġtrad": 1386,
    "ont": 1387,
    "Ġking": 1388,
    "Ġformula": 1389,
    "ober": 1390,
    "aug": 1391,
    "Ġgre": 1392,
    "Ġstudy": 1393,
    "ross": 1394,
    "Ġwrote": 1395,
    "not": 1396,
    "Ġtele": 1397,
    "Ġknow": 1398,
    "Ġspecial": 1399,
    "Ġent": 1400,
    "ĠRepublic": 1401,
    "Ġorigin": 1402,
    "Ġclass": 1403,
    "Ġmoder": 1404,
    "Ġcer": 1405,
    "Ġshould": 1406,
    "ways": 1407,
    "Ġloc": 1408,
    "ĠFrench": 1409,
    "20": 1410,
    "eng": 1411,
    "Ġhead": 1412,
    "Ġcur": 1413,
    "ized": 1414,
    "ĠPres": 1415,
    "Ġallow": 1416,
    "Ġleg": 1417,
    "Ġtake": 1418,
    "Ġsold": 1419,
    "ales": 1420,
    "Ġmovie": 1421,
    "air": 1422,
    "omen": 1423,
    "Ġthose": 1424,
    "estern": 1425,
    "olution": 1426,
    "iod": 1427,
    "ik": 1428,
    "Ġnorth": 1429,
    "Ġed": 1430,
    "Ġspecies": 1431,
    "Ġyou": 1432,
    "Ġrad": 1433,
    "Ġdirect": 1434,
    "Ġ(\"": 1435,
    "atin": 1436,
    "Ġwin": 1437,
    "arn": 1438,
    "Ġhig": 1439,
    "ember": 1440,
    "ĠBr": 1441,
    "Ġred": 1442,
    "Ġplaces": 1443,
    "Ġcal": 1444,
    "aves": 1445,
    "Ġgame": 1446,
    "Ġcomes": 1447,
    "Ġgreat": 1448,
    "iam": 1449,
    "vent": 1450,
    "Ġmodern": 1451,
    "ĠGod": 1452,
    "Ġbest": 1453,
    "oph": 1454,
    "Ġhuman": 1455,
    "ĠChina": 1456,
    "ĠCity": 1457,
    "ĠItal": 1458,
    "ield": 1459,
    "Ġsomething": 1460,
    "Ġtype": 1461,
    "ĠSo": 1462,
    "osp": 1463,
    "Ġcome": 1464,
    "cer": 1465,
    "ving": 1466,
    "Ġvi": 1467,
    "ple": 1468,
    "Ġjo": 1469,
    "cess": 1470,
    "ept": 1471,
    "ened": 1472,
    "Ġrecord": 1473,
    "An": 1474,
    "ison": 1475,
    "iddle": 1476,
    "oviet": 1477,
    "Ġhistory": 1478,
    "Ġothers": 1479,
    "ides": 1480,
    "ĠCan": 1481,
    "âĢĻ": 1482,
    "ĠCar": 1483,
    "ĠOne": 1484,
    "Ġcomputer": 1485,
    "Ġocc": 1486,
    "ondon": 1487,
    "eor": 1488,
    "vision": 1489,
    "ends": 1490,
    "Ġhard": 1491,
    "Ġpass": 1492,
    "Ġes": 1493,
    "ley": 1494,
    "rod": 1495,
    "Some": 1496,
    "orthern": 1497,
    "ĠOr": 1498,
    "ĠCal": 1499,
    "Ġshort": 1500,
    "ĠBut": 1501,
    "ony": 1502,
    "atural": 1503,
    "imate": 1504,
    "Ġtop": 1505,
    "ĠSoviet": 1506,
    "Ġproduct": 1507,
    "Ġtypes": 1508,
    "ices": 1509,
    "Ġspeak": 1510,
    "Ġmeas": 1511,
    "uit": 1512,
    "ĠJanuary": 1513,
    "ĠKingdom": 1514,
    "ccess": 1515,
    "Ġeat": 1516,
    "Ġem": 1517,
    "gin": 1518,
    "ush": 1519,
    "ĠEuropean": 1520,
    "ister": 1521,
    "Ġmust": 1522,
    "ĠOther": 1523,
    "Ġstrong": 1524,
    "Ġsuccess": 1525,
    "ĠCl": 1526,
    "par": 1527,
    "ĠEmpire": 1528,
    "bs": 1529,
    "ĠPresident": 1530,
    "ĠMay": 1531,
    "Ġmass": 1532,
    "Ġbased": 1533,
    "Ġtemper": 1534,
    "Ġfact": 1535,
    "Ġwanted": 1536,
    "Ġkeep": 1537,
    "Ġvers": 1538,
    "Ġtoo": 1539,
    "anish": 1540,
    "cember": 1541,
    "Ġ14": 1542,
    "ĠMus": 1543,
    "Ġreal": 1544,
    "ĠâĢ": 1545,
    "Ġseries": 1546,
    "Ġ12": 1547,
    "Ġpublic": 1548,
    "ilar": 1549,
    "ese": 1550,
    "Ġvis": 1551,
    "ĠLondon": 1552,
    "Ġwithout": 1553,
    "Ġrest": 1554,
    "ĠAll": 1555,
    "Ġgroups": 1556,
    "ament": 1557,
    "Ġfore": 1558,
    "Ġcop": 1559,
    "Ġsex": 1560,
    "Ġhun": 1561,
    "Ġsol": 1562,
    "Ġcomple": 1563,
    "vered": 1564,
    "Ġ193": 1565,
    "Ġmountain": 1566,
    "Ġstop": 1567,
    "ternational": 1568,
    "Ġfather": 1569,
    "Ġalways": 1570,
    "ĠPl": 1571,
    "Ġret": 1572,
    "Ġdescr": 1573,
    "Ġperiod": 1574,
    "Ġnext": 1575,
    "though": 1576,
    "ĠSw": 1577,
    "ĠCon": 1578,
    "Ġaway": 1579,
    "gn": 1580,
    "Ġproduc": 1581,
    "Ġfind": 1582,
    "Ġband": 1583,
    "\")": 1584,
    "Ġmonth": 1585,
    "ĠSun": 1586,
    "ecause": 1587,
    "Ġphys": 1588,
    "Ġexper": 1589,
    "Ġmen": 1590,
    "Ġchemical": 1591,
    "ĠDecember": 1592,
    "Ġfree": 1593,
    "ĠKore": 1594,
    "Ġbre": 1595,
    "Ġconsid": 1596,
    "lear": 1597,
    "Ġplayed": 1598,
    "Ġsent": 1599,
    "Ġspace": 1600,
    "Ġsw": 1601,
    "Ġage": 1602,
    "Ġtelevision": 1603,
    "ĠWh": 1604,
    "Ġlived": 1605,
    "lands": 1606,
    "ebr": 1607,
    "Ġgl": 1608,
    "ĠAfrica": 1609,
    "ret": 1610,
    "cean": 1611,
    "alf": 1612,
    "man": 1613,
    "ĠPol": 1614,
    "Ġeng": 1615,
    "Ġext": 1616,
    "ĠUS": 1617,
    "stit": 1618,
    "Ġpoint": 1619,
    "acks": 1620,
    "cially": 1621,
    "Ġyoun": 1622,
    "Ġareas": 1623,
    "ĠYork": 1624,
    "stead": 1625,
    "Ġdays": 1626,
    "Ġcharact": 1627,
    "Ġthir": 1628,
    "ĠScot": 1629,
    "ness": 1630,
    "Ġrock": 1631,
    "ges": 1632,
    "Ġread": 1633,
    "Ġmeaning": 1634,
    "ences": 1635,
    "Ġgiven": 1636,
    "Ġorder": 1637,
    "Ġindepend": 1638,
    "Ġfight": 1639,
    "Ġ11": 1640,
    "osed": 1641,
    "Ġoper": 1642,
    "Ġtoday": 1643,
    "ĠComm": 1644,
    "erv": 1645,
    "ĠEx": 1646,
    "Ġbas": 1647,
    "Ġchanged": 1648,
    "Ġcontain": 1649,
    "Ġsimilar": 1650,
    "Ġgive": 1651,
    "Ġstates": 1652,
    "ĠAb": 1653,
    "ived": 1654,
    "ĠAustral": 1655,
    "ull": 1656,
    "Ġbus": 1657,
    "ĠPh": 1658,
    "Ġcannot": 1659,
    "Ġdem": 1660,
    "Ġside": 1661,
    "ĠTr": 1662,
    "Ġpain": 1663,
    "ids": 1664,
    "ches": 1665,
    "Ġbooks": 1666,
    "ĠLatin": 1667,
    "Ġmarried": 1668,
    "Ġpolitical": 1669,
    "uly": 1670,
    "ense": 1671,
    "Ġturn": 1672,
    "gs": 1673,
    "Ġregion": 1674,
    "Ġcurren": 1675,
    "Ġdescrib": 1676,
    "pril": 1677,
    "Ġalmost": 1678,
    "Ġmostly": 1679,
    "ired": 1680,
    "Ġox": 1681,
    "rain": 1682,
    "Ġplants": 1683,
    "Ġfil": 1684,
    "ĠGreek": 1685,
    "ĠGr": 1686,
    "Ġsepar": 1687,
    "ĠMarch": 1688,
    "ĠWill": 1689,
    "uce": 1690,
    "Ġve": 1691,
    "ĠRiver": 1692,
    "iverse": 1693,
    "ĠEd": 1694,
    "Ġdise": 1695,
    "Ġlearn": 1696,
    "Ġmight": 1697,
    "Ġgot": 1698,
    "Ġblack": 1699,
    "ised": 1700,
    "ivil": 1701,
    "ĠâĢĵ": 1702,
    "Ġbelieve": 1703,
    "Th": 1704,
    "inds": 1705,
    "Ġ.": 1706,
    "Ġeffect": 1707,
    "ĠPar": 1708,
    "ape": 1709,
    "Ġthough": 1710,
    "Ġbetter": 1711,
    "enry": 1712,
    "Ġz": 1713,
    "itary": 1714,
    "Ġtheory": 1715,
    "ole": 1716,
    "agan": 1717,
    "Ġsound": 1718,
    "bon": 1719,
    "Ġmembers": 1720,
    "ugust": 1721,
    "Ġways": 1722,
    "ler": 1723,
    "aced": 1724,
    "Ġpar": 1725,
    "Ġwomen": 1726,
    "ĠAra": 1727,
    "Ġflow": 1728,
    "Ġ13": 1729,
    "Ġscient": 1730,
    "Ġnumbers": 1731,
    "Ġalong": 1732,
    "ĠAd": 1733,
    "itions": 1734,
    "let": 1735,
    "aper": 1736,
    "ĠGeor": 1737,
    "ague": 1738,
    "ica": 1739,
    "Ġnatural": 1740,
    "alt": 1741,
    "Ġlist": 1742,
    "ĠApril": 1743,
    "It": 1744,
    "like": 1745,
    "ovember": 1746,
    "ebruary": 1747,
    "Ġsocial": 1748,
    "ada": 1749,
    "aren": 1750,
    "Ġtre": 1751,
    "Ġwee": 1752,
    "Ġgener": 1753,
    "Ġseen": 1754,
    "wards": 1755,
    "Ġmeasure": 1756,
    "ives": 1757,
    "Ġter": 1758,
    "Ġdisco": 1759,
    "Ġidea": 1760,
    "Ġval": 1761,
    "bo": 1762,
    "yl": 1763,
    "Ġvol": 1764,
    "lished": 1765,
    "Ġfive": 1766,
    "eth": 1767,
    "Ġtell": 1768,
    "Ġnational": 1769,
    "Ġled": 1770,
    "ĠSpanish": 1771,
    "Ġresp": 1772,
    "Ġmater": 1773,
    "Ġsea": 1774,
    "cent": 1775,
    "Ġcond": 1776,
    "Ġgames": 1777,
    "cul": 1778,
    "Ġserv": 1779,
    "be": 1780,
    "Ġuses": 1781,
    "Ġbro": 1782,
    "Ġint": 1783,
    "Ġteam": 1784,
    "Many": 1785,
    "Ġmoved": 1786,
    "ĠGreat": 1787,
    "pecially": 1788,
    "Ġposs": 1789,
    "ols": 1790,
    "Ġtravel": 1791,
    "Ġbiggest": 1792,
    "ards": 1793,
    "Ġmother": 1794,
    "ran": 1795,
    "ĠUniversity": 1796,
    "iron": 1797,
    "Ġenough": 1798,
    "On": 1799,
    "ocr": 1800,
    "oll": 1801,
    "ootball": 1802,
    "ĠJuly": 1803,
    "Ġindustr": 1804,
    "Ġpie": 1805,
    "order": 1806,
    "ctober": 1807,
    "Ġimp": 1808,
    "lu": 1809,
    "Ġnever": 1810,
    "Ġship": 1811,
    "Ġinstr": 1812,
    "ĠAugust": 1813,
    "Ġcertain": 1814,
    "ented": 1815,
    "Ġhol": 1816,
    "Ġopp": 1817,
    "eptember": 1818,
    "Ġsix": 1819,
    "ected": 1820,
    "ĠMin": 1821,
    "Ġplant": 1822,
    "Ġcare": 1823,
    "Ġprocess": 1824,
    "sel": 1825,
    "yn": 1826,
    "ipp": 1827,
    "Ġkinds": 1828,
    "Ġriver": 1829,
    "Ġpen": 1830,
    "Ġkilled": 1831,
    "ilos": 1832,
    "Ġdesign": 1833,
    "inese": 1834,
    "Ġincre": 1835,
    "Ġexist": 1836,
    "Ġcoast": 1837,
    "Ġdone": 1838,
    "ĠDuring": 1839,
    "olic": 1840,
    "ĠChristian": 1841,
    "ording": 1842,
    "ĠFebruary": 1843,
    "now": 1844,
    "oss": 1845,
    "ĠEast": 1846,
    "Ġimm": 1847,
    "ĠCent": 1848,
    "ash": 1849,
    "aster": 1850,
    "ĠIndia": 1851,
    "me": 1852,
    "Ġrain": 1853,
    "Ġest": 1854,
    "Ġcat": 1855,
    "Ġste": 1856,
    "ule": 1857,
    "ĠBl": 1858,
    "ĠCath": 1859,
    "Ġhand": 1860,
    "ĠJune": 1861,
    "outhern": 1862,
    "Ġref": 1863,
    "ĠGre": 1864,
    "ĠNovember": 1865,
    "ither": 1866,
    "Ġline": 1867,
    "ically": 1868,
    "Ġcause": 1869,
    "ney": 1870,
    "Ġtour": 1871,
    "que": 1872,
    "ometimes": 1873,
    "iness": 1874,
    "Ġnuc": 1875,
    "cience": 1876,
    "Ġsmaller": 1877,
    "Ġwhite": 1878,
    "cle": 1879,
    "ĠWest": 1880,
    "lim": 1881,
    "Ġperform": 1882,
    "Ġcolor": 1883,
    "Ġreact": 1884,
    "sp": 1885,
    "Ġproblems": 1886,
    "Ġdest": 1887,
    "Ġgas": 1888,
    "ĠAng": 1889,
    "Ġmovies": 1890,
    "Ġstand": 1891,
    "ĠIts": 1892,
    "ĠThat": 1893,
    "ama": 1894,
    "ĠQue": 1895,
    "Ġfish": 1896,
    "Ġsymb": 1897,
    "Ġtreat": 1898,
    "Ġeast": 1899,
    "ĠX": 1900,
    "Ġmod": 1901,
    "Ġlaws": 1902,
    "Ġgave": 1903,
    "Ġfri": 1904,
    "by": 1905,
    "Ġofficial": 1906,
    "Ġfre": 1907,
    "Ġthird": 1908,
    "ĠSeptember": 1909,
    "Ġnorm": 1910,
    "ĠHenry": 1911,
    "Ġdivided": 1912,
    "ĠAnd": 1913,
    "Ġstat": 1914,
    "ops": 1915,
    "akes": 1916,
    "inc": 1917,
    "ydro": 1918,
    "Ġgra": 1919,
    "Ġespecially": 1920,
    "Ġinflu": 1921,
    "Ġcour": 1922,
    "Ġhalf": 1923,
    "Ġson": 1924,
    "ner": 1925,
    "Ġable": 1926,
    "ute": 1927,
    "Ġkind": 1928,
    "Ġpast": 1929,
    "ĠJew": 1930,
    "Ġincludes": 1931,
    "Ġappear": 1932,
    "Ġsoft": 1933,
    "ĠChinese": 1934,
    "Ġlevel": 1935,
    "omin": 1936,
    "Ġunderst": 1937,
    "Ġchanges": 1938,
    "Ġsingle": 1939,
    "Ġpe": 1940,
    "Ġfem": 1941,
    "Ġancient": 1942,
    "ility": 1943,
    "Ġsug": 1944,
    "Ġlow": 1945,
    "Ġconsidered": 1946,
    "ĠOctober": 1947,
    "ung": 1948,
    "Ġtemperature": 1949,
    "face": 1950,
    "Ġphilos": 1951,
    "orts": 1952,
    "Ġdet": 1953,
    "ograph": 1954,
    "ert": 1955,
    "Ġinside": 1956,
    "When": 1957,
    "Ġstar": 1958,
    "ction": 1959,
    "Ġheld": 1960,
    "Ġmark": 1961,
    "Ġmilitary": 1962,
    "Ġcells": 1963,
    "Ġhealth": 1964,
    "thing": 1965,
    "Ġhumans": 1966,
    "ator": 1967,
    "Ġpub": 1968,
    "Ġ191": 1969,
    "Ġbecom": 1970,
    "Ġbat": 1971,
    "ern": 1972,
    "iter": 1973,
    "Ġant": 1974,
    "Ġgod": 1975,
    "Ġforce": 1976,
    "ots": 1977,
    "ummer": 1978,
    "lam": 1979,
    "ety": 1980,
    "Ġtry": 1981,
    "ternet": 1982,
    "Ġcir": 1983,
    "Ġremain": 1984,
    "Ġlittle": 1985,
    "Ġcor": 1986,
    "iforn": 1987,
    "Ġsomeone": 1988,
    "ental": 1989,
    "ĠNational": 1990,
    "Ġbuilding": 1991,
    "Ġwest": 1992,
    "ene": 1993,
    "Ġideas": 1994,
    "Ġ202": 1995,
    "ĠBecause": 1996,
    "He": 1997,
    "'t": 1998,
    "ances": 1999,
    "Ġinstead": 2000,
    "Ġopen": 2001,
    "Ġwriting": 2002,
    "Ġhot": 2003,
    "Ġsongs": 2004,
    "Ġresult": 2005,
    "Ġsour": 2006,
    "Ġinform": 2007,
    "Ġamount": 2008,
    "Ġcurrent": 2009,
    "ĠBel": 2010,
    "Ġengine": 2011,
    "ode": 2012,
    "selves": 2013,
    "oken": 2014,
    "ĠRussia": 2015,
    "Ġeither": 2016,
    "Ġworks": 2017,
    "Ġcaused": 2018,
    "wh": 2019,
    "Ġrepl": 2020,
    "Ġnon": 2021,
    "Ġevent": 2022,
    "min": 2023,
    "Ġbirth": 2024,
    "Ġarch": 2025,
    "ware": 2026,
    "reland": 2027,
    "Ġreturn": 2028,
    "ĠPart": 2029,
    "Ġice": 2030,
    "bia": 2031,
    "urg": 2032,
    "ĠCoun": 2033,
    "Ġav": 2034,
    "Ġ192": 2035,
    "ĠSea": 2036,
    "ifornia": 2037,
    "Ġthemselves": 2038,
    "ites": 2039,
    "ĠChurch": 2040,
    "Ġgeneral": 2041,
    "ĠPope": 2042,
    "Ġyoung": 2043,
    "Ġbirds": 2044,
    "ength": 2045,
    "Ġseason": 2046,
    "Ġfall": 2047,
    "Ġcarbon": 2048,
    "augh": 2049,
    "Ġhaving": 2050,
    "Ġbi": 2051,
    "Ġclub": 2052,
    "ele": 2053,
    "Ġpat": 2054,
    "Ġrepres": 2055,
    "Ġmetal": 2056,
    "ĠBC": 2057,
    "ĠMic": 2058,
    "Ġlost": 2059,
    "After": 2060,
    "Ġ30": 2061,
    "ours": 2062,
    "Ġtradition": 2063,
    "Ġclose": 2064,
    "Ġradio": 2065,
    "yle": 2066,
    "Ġbeh": 2067,
    "Ġlate": 2068,
    "Ġhydro": 2069,
    "ional": 2070,
    "ĠAustralia": 2071,
    "Ġ100": 2072,
    "ox": 2073,
    "lin": 2074,
    "Ġrece": 2075,
    "Ġscience": 2076,
    "ĠWilliam": 2077,
    "ils": 2078,
    "Ġjob": 2079,
    "Ġshows": 2080,
    "Ġhighest": 2081,
    "ued": 2082,
    "St": 2083,
    "aur": 2084,
    "ĠIreland": 2085,
    "Ġdra": 2086,
    "idge": 2087,
    "Ġislands": 2088,
    "Ġformed": 2089,
    "ĠMed": 2090,
    "Ġfollowing": 2091,
    "Ġmix": 2092,
    "lor": 2093,
    "Ġbegin": 2094,
    "Ġonce": 2095,
    "born": 2096,
    "Ġbad": 2097,
    "Ġamong": 2098,
    "yr": 2099,
    "etic": 2100,
    "Ġbusiness": 2101,
    "uction": 2102,
    "Ġelectric": 2103,
    "ye": 2104,
    "Ġwide": 2105,
    "ĠCalifornia": 2106,
    "ĠBritain": 2107,
    "Ġtaken": 2108,
    "roy": 2109,
    "ĠGo": 2110,
    "Ġmember": 2111,
    "lymp": 2112,
    "Ġconn": 2113,
    "indows": 2114,
    "Ġworked": 2115,
    "Ġleader": 2116,
    "ged": 2117,
    "Ġclimate": 2118,
    "Ġdiff": 2119,
    "\").": 2120,
    "ified": 2121,
    "can": 2122,
    "ĠHer": 2123,
    "Ġver": 2124,
    "ĠReagan": 2125,
    "Ġallowed": 2126,
    "atures": 2127,
    "ĠKorea": 2128,
    "ata": 2129,
    "ĠRom": 2130,
    "Ġsoci": 2131,
    "Ġago": 2132,
    "Ġrules": 2133,
    "Ġann": 2134,
    "Ġsqu": 2135,
    "ĠCatholic": 2136,
    "ĠSpain": 2137,
    "Ġrefer": 2138,
    "ster": 2139,
    "ounds": 2140,
    "ĠChar": 2141,
    "uck": 2142,
    "ĠAsia": 2143,
    "Ġwrite": 2144,
    "Ġcompany": 2145,
    "Ġspeed": 2146,
    "ĠAm": 2147,
    "Ġpict": 2148,
    "Ġlonger": 2149,
    "Ġsize": 2150,
    "Ġstre": 2151,
    "ech": 2152,
    "ival": 2153,
    "hor": 2154,
    "ĠCanada": 2155,
    "Ġhouse": 2156,
    "Ġattack": 2157,
    "rop": 2158,
    "Ġinformation": 2159,
    "Ġche": 2160,
    "ygen": 2161,
    "Ġtalk": 2162,
    "ords": 2163,
    "Ġthous": 2164,
    "Ġparen": 2165,
    "volution": 2166,
    "Ġmeth": 2167,
    "ĠHol": 2168,
    "Ġsays": 2169,
    "verage": 2170,
    "eles": 2171,
    "aut": 2172,
    "Ġprotect": 2173,
    "ĠEl": 2174,
    "Ġreligion": 2175,
    "Ġstars": 2176,
    "Ġculture": 2177,
    "Ġarmy": 2178,
    "Ġplanet": 2179,
    "ĠTheir": 2180,
    "ĠOlymp": 2181,
    "aul": 2182,
    "Ġhost": 2183,
    "Ġeduc": 2184,
    "oday": 2185,
    "Ġversion": 2186,
    "iers": 2187,
    "Ġmult": 2188,
    "ĠMuslim": 2189,
    "ked": 2190,
    "urb": 2191,
    "Ġcivil": 2192,
    "aim": 2193,
    "ĠBy": 2194,
    "self": 2195,
    "Ġsurface": 2196,
    "ĠIslam": 2197,
    "Ġmathem": 2198,
    "Ġfield": 2199,
    "avy": 2200,
    "ĠGu": 2201,
    "bit": 2202,
    "Ġelected": 2203,
    "ĠEs": 2204,
    "Ġhelped": 2205,
    "exic": 2206,
    "ivity": 2207,
    "rom": 2208,
    "Ġdisease": 2209,
    "ham": 2210,
    "Ġwithin": 2211,
    "Al": 2212,
    "Ġconf": 2213,
    "Ġstay": 2214,
    "ps": 2215,
    "istan": 2216,
    "Ġblood": 2217,
    "âĢĿ": 2218,
    "Ġcenter": 2219,
    "Ġarr": 2220,
    "ture": 2221,
    "Ġ,": 2222,
    "Ġlocal": 2223,
    "Ġeconomy": 2224,
    "Ġatom": 2225,
    "ansas": 2226,
    "Ġsuccessful": 2227,
    "Ġnorthern": 2228,
    "ara": 2229,
    "ĠSch": 2230,
    "Ġtest": 2231,
    "Ġcomb": 2232,
    "key": 2233,
    "vi": 2234,
    "Ġgu": 2235,
    "asons": 2236,
    "Ġ$": 2237,
    "Ġ25": 2238,
    "Ġtot": 2239,
    "ling": 2240,
    "hel": 2241,
    "ially": 2242,
    "Ġforms": 2243,
    "ĠMon": 2244,
    "Ġobs": 2245,
    "zer": 2246,
    "Ġsell": 2247,
    "Ġweap": 2248,
    "icult": 2249,
    "liament": 2250,
    "Ġprof": 2251,
    "Ġground": 2252,
    "ĠItaly": 2253,
    "Ġpress": 2254,
    "ĠâĢľ": 2255,
    "ped": 2256,
    "Ġlim": 2257,
    "erc": 2258,
    "ĠRussian": 2259,
    "Ġdrug": 2260,
    "Ġweek": 2261,
    "Ġworking": 2262,
    "stitution": 2263,
    "Ġcalend": 2264,
    "Ġabove": 2265,
    "Ġended": 2266,
    "ored": 2267,
    "Ġquick": 2268,
    "ĠGeorge": 2269,
    "Ġwife": 2270,
    "Ġdue": 2271,
    "ĠOcean": 2272,
    "au": 2273,
    "Ġdiscovered": 2274,
    "ĠJapanese": 2275,
    "ĠMo": 2276,
    "Ġdeveloped": 2277,
    "vin": 2278,
    "Ġwood": 2279,
    "Ġeg": 2280,
    "lies": 2281,
    "Ġmatter": 2282,
    "Ġbelieved": 2283,
    "bab": 2284,
    "Most": 2285,
    "Ġindependent": 2286,
    "Ġinvol": 2287,
    "ended": 2288,
    "Ġlarger": 2289,
    "Ġforest": 2290,
    "of": 2291,
    "Ġoutside": 2292,
    "work": 2293,
    "Ġvarious": 2294,
    "Ġpaper": 2295,
    "Ġneeded": 2296,
    "kn": 2297,
    "Ġacross": 2298,
    "eter": 2299,
    "ĠMexic": 2300,
    "Ġrole": 2301,
    "gypt": 2302,
    "Ġspoken": 2303,
    "ae": 2304,
    "Ġlay": 2305,
    "Ġmach": 2306,
    "Ġcut": 2307,
    "ming": 2308,
    "ending": 2309,
    "ĠParty": 2310,
    "ĠTo": 2311,
    "Ġass": 2312,
    "uments": 2313,
    "Ġborder": 2314,
    "ĠMiddle": 2315,
    "Ġoccur": 2316,
    "Ġfootball": 2317,
    "Ġplayer": 2318,
    "chn": 2319,
    "ane": 2320,
    "ĠScotland": 2321,
    "ĠMan": 2322,
    "Ġcharacter": 2323,
    "ization": 2324,
    "ĠWe": 2325,
    "Ġaverage": 2326,
    "Ġrelations": 2327,
    "oes": 2328,
    "Ġphot": 2329,
    "Ġ190": 2330,
    "Ġdifficult": 2331,
    "we": 2332,
    "Ġjoined": 2333,
    "Ġdestroy": 2334,
    "Ġpract": 2335,
    "Ġpossible": 2336,
    "ĠPort": 2337,
    "Ġparty": 2338,
    "ators": 2339,
    "Ġviol": 2340,
    "Ġunderstand": 2341,
    "Ġnames": 2342,
    "Ġhistor": 2343,
    "Ġstory": 2344,
    "less": 2345,
    "Ġliqu": 2346,
    "ether": 2347,
    "Ġsun": 2348,
    "Ġmar": 2349,
    "ĠQueen": 2350,
    "Ġrequ": 2351,
    "Ġtotal": 2352,
    "Ġslow": 2353,
    "Ġbreak": 2354,
    "Ġdecided": 2355,
    "Ġmethod": 2356,
    "Ġrule": 2357,
    "Ġplayers": 2358,
    "Ġitself": 2359,
    "ashing": 2360,
    "Ġball": 2361,
    "Ġer": 2362,
    "Ġprogram": 2363,
    "Ġreason": 2364,
    "Ġbuildings": 2365,
    "Ġuniverse": 2366,
    "ĠEgypt": 2367,
    "Ġcho": 2368,
    "Ġmonarch": 2369,
    "ĠViet": 2370,
    "Ġwoman": 2371,
    "Ġleast": 2372,
    "part": 2373,
    "ched": 2374,
    "ission": 2375,
    "Ġpublished": 2376,
    "Ġdaugh": 2377,
    "Ġlives": 2378,
    "Ġbrother": 2379,
    "Ġdev": 2380,
    "ender": 2381,
    "Ġever": 2382,
    "burg": 2383,
    "Ġview": 2384,
    "Ġmot": 2385,
    "known": 2386,
    "nam": 2387,
    ",\"": 2388,
    "Ġmonths": 2389,
    "ĠWestern": 2390,
    "50": 2391,
    "Ġoxygen": 2392,
    "Ġinternational": 2393,
    "Ġcompan": 2394,
    "Ġformer": 2395,
    "Ġvide": 2396,
    "ency": 2397,
    "ĠJes": 2398,
    "ude": 2399,
    "ino": 2400,
    "Ġge": 2401,
    "Ġcreate": 2402,
    "ality": 2403,
    "Ġten": 2404,
    "ĠFin": 2405,
    "Ġelection": 2406,
    "Ġhowever": 2407,
    "ym": 2408,
    "Ġmole": 2409,
    "ike": 2410,
    "vious": 2411,
    "Ġdoct": 2412,
    "Ġobjects": 2413,
    "ĠSometimes": 2414,
    "Ġpay": 2415,
    "astern": 2416,
    "ĠSec": 2417,
    "ago": 2418,
    "Ġterrit": 2419,
    "Ġhold": 2420,
    "Ġ1980": 2421,
    "Ġ186": 2422,
    "Ġtakes": 2423,
    "Ã©": 2424,
    "Ġincluded": 2425,
    "yth": 2426,
    "Ġtrue": 2427,
    "Ġpresent": 2428,
    "Ġparents": 2429,
    "ials": 2430,
    "ee": 2431,
    "ĠBer": 2432,
    "Ġtit": 2433,
    "Ġpur": 2434,
    "ille": 2435,
    "Ġ1990": 2436,
    "udd": 2437,
    "ument": 2438,
    "Ġhit": 2439,
    "Ġsystems": 2440,
    "Ġhappen": 2441,
    "Ġoriginal": 2442,
    "Ġfilm": 2443,
    "oul": 2444,
    "Ġwall": 2445,
    "itive": 2446,
    "Ġseparate": 2447,
    "Ġthing": 2448,
    "ached": 2449,
    "Ġcele": 2450,
    "Ġcalendar": 2451,
    "Ġtechn": 2452,
    "âĢĶ": 2453,
    "for": 2454,
    "Ġatoms": 2455,
    "Ch": 2456,
    "Ġcase": 2457,
    "Ġgold": 2458,
    "utch": 2459,
    "Ġspread": 2460,
    "Ġexplain": 2461,
    "ana": 2462,
    "Ġreligious": 2463,
    "Ġ21": 2464,
    "Ġbase": 2465,
    "ackson": 2466,
    "Ġchurch": 2467,
    "bert": 2468,
    "ior": 2469,
    "Ġadded": 2470,
    "ills": 2471,
    "Ġsurv": 2472,
    "Ġel": 2473,
    "Ġtrees": 2474,
    "Ġclaim": 2475,
    "Ġbrought": 2476,
    "Ġdecl": 2477,
    "ults": 2478,
    "Ġfeel": 2479,
    "Ġang": 2480,
    "Ġour": 2481,
    "ores": 2482,
    "Ġgoing": 2483,
    "Ġhar": 2484,
    "aps": 2485,
    "uel": 2486,
    "Ġtried": 2487,
    "Ġdata": 2488,
    "ĠLeague": 2489,
    "hers": 2490,
    "Ġstruct": 2491,
    "Ġ2000": 2492,
    "oses": 2493,
    "ounced": 2494,
    "ogn": 2495,
    "ĠLou": 2496,
    "Ġpowerful": 2497,
    "Ġearth": 2498,
    "Ġcollect": 2499,
    "ocratic": 2500,
    "rew": 2501,
    "Ġagre": 2502,
    "ashington": 2503,
    "Ġelectron": 2504,
    "Ġweapons": 2505,
    "Ġquickly": 2506,
    "Ġ1970": 2507,
    "ĠBar": 2508,
    "Ġadv": 2509,
    "ems": 2510,
    "Ġcold": 2511,
    "ĠTur": 2512,
    "Ġanimal": 2513,
    "Ġastr": 2514,
    "Ġschools": 2515,
    "Ġmaterial": 2516,
    "Ġsimple": 2517,
    "Ġcomputers": 2518,
    "Ġsouthern": 2519,
    "Ġexcept": 2520,
    "Ġoldest": 2521,
    "Ġhimself": 2522,
    "Ġlower": 2523,
    "Ġpred": 2524,
    "ĠState": 2525,
    "10": 2526,
    "itan": 2527,
    "Ġproper": 2528,
    "Ġ189": 2529,
    "Ġcompanies": 2530,
    "Ġtree": 2531,
    "Ġskin": 2532,
    "Ġlength": 2533,
    "gon": 2534,
    "Ġcomplete": 2535,
    "und": 2536,
    "ĠThen": 2537,
    "Ġwhole": 2538,
    "ron": 2539,
    "Ġcamp": 2540,
    "Ġ2004": 2541,
    "Ġsil": 2542,
    "Ġhydrogen": 2543,
    "used": 2544,
    "ĠEach": 2545,
    "Ġrese": 2546,
    "Ġvir": 2547,
    "Ġstyle": 2548,
    "lant": 2549,
    "This": 2550,
    "Ġmainly": 2551,
    "ĠMary": 2552,
    "Ġgoes": 2553,
    "ius": 2554,
    "Ġinterest": 2555,
    "Ġolder": 2556,
    "Ġgets": 2557,
    "Ġoil": 2558,
    "ĠMich": 2559,
    "ering": 2560,
    "soci": 2561,
    "rict": 2562,
    "ĠWindows": 2563,
    "Ġcelebr": 2564,
    "Ġsymbol": 2565,
    "ĠSince": 2566,
    "lex": 2567,
    "Ġgrew": 2568,
    "Ġalthough": 2569,
    "Ġdig": 2570,
    "Ġnet": 2571,
    "uced": 2572,
    "ĠArab": 2573,
    "Ġnuclear": 2574,
    "edi": 2575,
    "Ġrights": 2576,
    "cks": 2577,
    "Ġtrade": 2578,
    "Ġprin": 2579,
    "Ġsoftware": 2580,
    "Ġshape": 2581,
    "ĠInternet": 2582,
    "ently": 2583,
    "Ġappe": 2584,
    "Ġhigher": 2585,
    "Ġgrav": 2586,
    "Ġkil": 2587,
    "sy": 2588,
    "iction": 2589,
    "inary": 2590,
    "Ġmiddle": 2591,
    "Ġfire": 2592,
    "ĠNor": 2593,
    "fs": 2594,
    "stein": 2595,
    "ĠFranc": 2596,
    "ires": 2597,
    "Ġsuper": 2598,
    "ĠItalian": 2599,
    "Ġfemale": 2600,
    "Ġdia": 2601,
    "Ġcreat": 2602,
    "Ġhor": 2603,
    "Ġtrib": 2604,
    "Ġmoving": 2605,
    "Ġsource": 2606,
    "sh": 2607,
    "ression": 2608,
    "ĠSy": 2609,
    "Ġproduce": 2610,
    "Ġkept": 2611,
    "Ġhund": 2612,
    "Ġ2008": 2613,
    "upp": 2614,
    "ux": 2615,
    "Ġletter": 2616,
    "uge": 2617,
    "ĠHouse": 2618,
    "Ġ24": 2619,
    "People": 2620,
    "For": 2621,
    "com": 2622,
    "ĠDem": 2623,
    "irl": 2624,
    "Ġprom": 2625,
    "Ġmag": 2626,
    "Ġsoon": 2627,
    "Ġevents": 2628,
    "wo": 2629,
    "val": 2630,
    "ĠAmericans": 2631,
    "ĠSan": 2632,
    "Ġappro": 2633,
    "ophy": 2634,
    "itect": 2635,
    "Ġcauses": 2636,
    "oved": 2637,
    "Ġquest": 2638,
    "Ġalph": 2639,
    "ri": 2640,
    "Ġ1960": 2641,
    "ement": 2642,
    "Ġident": 2643,
    "NA": 2644,
    "Ġsquare": 2645,
    "ĠHind": 2646,
    "ring": 2647,
    "Ġelements": 2648,
    "ĠJackson": 2649,
    "ĠLater": 2650,
    "ned": 2651,
    "Ġparticular": 2652,
    "Ġcancer": 2653,
    "aint": 2654,
    "ĠNorthern": 2655,
    "ccording": 2656,
    "Ġvisit": 2657,
    "Ġtax": 2658,
    "Ġpot": 2659,
    "Ġheat": 2660,
    "ma": 2661,
    "ĠDutch": 2662,
    "rick": 2663,
    "Ġmountains": 2664,
    "Ġmale": 2665,
    "ania": 2666,
    "ĠBible": 2667,
    "Ġmathemat": 2668,
    "Ġcarry": 2669,
    "Ġattract": 2670,
    "ĠAtlant": 2671,
    "sect": 2672,
    "Ġcompos": 2673,
    "Ġproduced": 2674,
    "During": 2675,
    "put": 2676,
    "Ġris": 2677,
    "Ġships": 2678,
    "Ġproblem": 2679,
    "ĠBush": 2680,
    "Ġmeet": 2681,
    "Ġwhy": 2682,
    "ĠEm": 2683,
    "ĠAfrican": 2684,
    "Ġrelationship": 2685,
    "Ġauthor": 2686,
    "Ġsociety": 2687,
    "Ġletters": 2688,
    "Ġdam": 2689,
    "Ġseven": 2690,
    "where": 2691,
    "Ġfounded": 2692,
    "Ġwestern": 2693,
    "Ġactor": 2694,
    "Ġfriends": 2695,
    "Ġaddition": 2696,
    "cra": 2697,
    "Ġrather": 2698,
    "Ġinvented": 2699,
    "Ġ0": 2700,
    "Ġsoldiers": 2701,
    "Ġeducation": 2702,
    "igr": 2703,
    "Ġneut": 2704,
    "Ġposition": 2705,
    "Ġruled": 2706,
    "Ġexperi": 2707,
    "Ġvolcan": 2708,
    "ĠPark": 2709,
    "ĠEn": 2710,
    "reme": 2711,
    "Ġ50": 2712,
    "ining": 2713,
    "ald": 2714,
    "Ġgreen": 2715,
    "west": 2716,
    "Ġla": 2717,
    "ĠWashington": 2718,
    "oe": 2719,
    "Ġdead": 2720,
    "BC": 2721,
    "ĠGreece": 2722,
    "omb": 2723,
    "Ġdaughter": 2724,
    "oles": 2725,
    "ĠNether": 2726,
    "edy": 2727,
    "Ġsubject": 2728,
    "Ġaffect": 2729,
    "18": 2730,
    "ĠJames": 2731,
    "Ġfought": 2732,
    "uries": 2733,
    "ĠIndian": 2734,
    "stance": 2735,
    "ipt": 2736,
    "Ġvideo": 2737,
    "ĠRich": 2738,
    "Ġlab": 2739,
    "osphere": 2740,
    "lo": 2741,
    "Ġhom": 2742,
    "round": 2743,
    "cil": 2744,
    "Ġreligions": 2745,
    "Ġoppos": 2746,
    "ads": 2747,
    "ott": 2748,
    "Ġstories": 2749,
    "Ġdark": 2750,
    "Ġcounty": 2751,
    "ĠKansas": 2752,
    "ĠColum": 2753,
    "Ġburn": 2754,
    "elt": 2755,
    "ĠPaul": 2756,
    "ĠJesus": 2757,
    "arian": 2758,
    "Ġplays": 2759,
    "emy": 2760,
    "lege": 2761,
    "Ġprobab": 2762,
    "Ġwat": 2763,
    "Ġgetting": 2764,
    "orer": 2765,
    "Ġsports": 2766,
    "Ġintrod": 2767,
    "Ġunivers": 2768,
    "Ġrecorded": 2769,
    "idence": 2770,
    "Ġ2001": 2771,
    "Â°": 2772,
    "ulf": 2773,
    "ĠInternational": 2774,
    "ĠWith": 2775,
    "onds": 2776,
    "Ġscientists": 2777,
    "ask": 2778,
    "Ġhair": 2779,
    "Ġplanets": 2780,
    "ĠCub": 2781,
    "Ġport": 2782,
    "Ġplaying": 2783,
    "Ġcrit": 2784,
    "ĠCarter": 2785,
    "Ġprevious": 2786,
    "As": 2787,
    "Ġprim": 2788,
    "ĠDay": 2789,
    "Ġ2006": 2790,
    "Ġrecogn": 2791,
    "Ġ188": 2792,
    "ention": 2793,
    "Ġeth": 2794,
    "Ġgraph": 2795,
    "Ġbuy": 2796,
    "Ġmultip": 2797,
    "Ġmeant": 2798,
    "Ġappeared": 2799,
    "Ġelectrons": 2800,
    "ĠParis": 2801,
    "aries": 2802,
    "Ġrepresent": 2803,
    "Ġ2005": 2804,
    "anks": 2805,
    "Ġaccept": 2806,
    "Ġdrink": 2807,
    "ĠNetherlands": 2808,
    "Ġregions": 2809,
    "ĠNations": 2810,
    "Ġexperim": 2811,
    "Ġcompounds": 2812,
    "mas": 2813,
    "Ġindustry": 2814,
    "At": 2815,
    "Ġshown": 2816,
    "ĠNe": 2817,
    "Ġtold": 2818,
    "Ġsit": 2819,
    "II": 2820,
    "'.": 2821,
    "Ġsummer": 2822,
    "Ġbeginning": 2823,
    "ĠCharles": 2824,
    "Ġrelated": 2825,
    "ao": 2826,
    "aged": 2827,
    "Ġfull": 2828,
    "aught": 2829,
    "ĠAct": 2830,
    "Ġcommonly": 2831,
    "icago": 2832,
    "Ġlove": 2833,
    "Ġarchitect": 2834,
    "Ġalphab": 2835,
    "Ġatm": 2836,
    "ĠNaz": 2837,
    "ĠGen": 2838,
    "Ġliquid": 2839,
    "line": 2840,
    "Ġinsect": 2841,
    "ĠCentral": 2842,
    "istic": 2843,
    "viron": 2844,
    "Ġstarting": 2845,
    "Ġcolon": 2846,
    "af": 2847,
    "ivid": 2848,
    "alax": 2849,
    "Ġnight": 2850,
    "Ġcentral": 2851,
    "Ġpriv": 2852,
    "Ġdeg": 2853,
    "Ġiss": 2854,
    "ination": 2855,
    "urches": 2856,
    "Ġhappened": 2857,
    "Ġrange": 2858,
    "ze": 2859,
    "onia": 2860,
    "Ġill": 2861,
    "eder": 2862,
    "Ġdry": 2863,
    "go": 2864,
    "Ġsuggest": 2865,
    "cip": 2866,
    "Ġforces": 2867,
    "Ġpieces": 2868,
    "Ġmedic": 2869,
    "ĠPortug": 2870,
    "fect": 2871,
    "ĠCup": 2872,
    "Ġ2007": 2873,
    "mark": 2874,
    "Ġwear": 2875,
    "Ġbroad": 2876,
    "Ġ23": 2877,
    "Ġcourt": 2878,
    "Ġsupported": 2879,
    "ager": 2880,
    "Ġproducts": 2881,
    "eds": 2882,
    "iation": 2883,
    "Ġmamm": 2884,
    "Ġfrequ": 2885,
    "ints": 2886,
    "Ġhappens": 2887,
    "Ġprofess": 2888,
    "ĠBra": 2889,
    "ĠPhil": 2890,
    "Ġsexual": 2891,
    "ael": 2892,
    "uddh": 2893,
    "Ġblue": 2894,
    "Ġrail": 2895,
    "Ã¼": 2896,
    "Ġcy": 2897,
    "tt": 2898,
    "Ġep": 2899,
    "Ġcit": 2900,
    "ĠGl": 2901,
    "ĠGames": 2902,
    "ean": 2903,
    "reen": 2904,
    "ercury": 2905,
    "Ġeconomic": 2906,
    "soft": 2907,
    "ĠAnother": 2908,
    "ĠRome": 2909,
    "ological": 2910,
    "Ġreceived": 2911,
    "Ġeggs": 2912,
    "Ġhous": 2913,
    "ander": 2914,
    "Ġcook": 2915,
    "Ġfollowed": 2916,
    "ĠLouis": 2917,
    "Ġthroughout": 2918,
    "ground": 2919,
    "uitar": 2920,
    "Ġenviron": 2921,
    "ĠToday": 2922,
    "ĠAward": 2923,
    "enced": 2924,
    "ĠSm": 2925,
    "Ġvot": 2926,
    "Ġarg": 2927,
    "Ġpiece": 2928,
    "Ġsym": 2929,
    "Ġbrain": 2930,
    "ĠSol": 2931,
    "Ġsaw": 2932,
    "erous": 2933,
    "Ġcompet": 2934,
    "Ġfast": 2935,
    "Ġfail": 2936,
    "Ġlog": 2937,
    "Ġfur": 2938,
    "por": 2939,
    "Ġcharacters": 2940,
    "ĠChristmas": 2941,
    "perant": 2942,
    "Ġpian": 2943,
    "Ġbasic": 2944,
    "ĠAir": 2945,
    "Ġpercent": 2946,
    "Ġiron": 2947,
    "ĠVietnam": 2948,
    "Ġdisc": 2949,
    "Ġcharge": 2950,
    "han": 2951,
    "Ġ31": 2952,
    "Ġeight": 2953,
    "Ġimpro": 2954,
    "Ġreport": 2955,
    "ĠPoland": 2956,
    "Ġentire": 2957,
    "Ġgives": 2958,
    "Ġorbit": 2959,
    "Ġ22": 2960,
    "stant": 2961,
    "ford": 2962,
    "ĠSystem": 2963,
    "ĠApp": 2964,
    "Ġsoil": 2965,
    "son": 2966,
    "\"),": 2967,
    "med": 2968,
    "Ġdoing": 2969,
    "Ġrelease": 2970,
    "rosoft": 2971,
    "Ġwinter": 2972,
    "ĠMinister": 2973,
    "Ġsinger": 2974,
    "Ġeasily": 2975,
    "ĠPer": 2976,
    "Ġreplaced": 2977,
    "ĠFrancis": 2978,
    "Ġ2011": 2979,
    "aff": 2980,
    "sych": 2981,
    "peror": 2982,
    "Ġquant": 2983,
    "Ġ2009": 2984,
    "elling": 2985,
    "ĠOld": 2986,
    "Ġstudied": 2987,
    "aded": 2988,
    "apore": 2989,
    "ĠJews": 2990,
    "acy": 2991,
    "Ġtall": 2992,
    "Ġnormal": 2993,
    "Ġmovement": 2994,
    "Ġastronom": 2995,
    "light": 2996,
    "Ġdistance": 2997,
    "Ġexec": 2998,
    "Ġthousands": 2999,
    "tar": 3000,
    "Ġones": 3001,
    "Ġcenturies": 3002,
    "Ġestab": 3003,
    "Ġtransl": 3004,
    "ror": 3005,
    "Ġtowns": 3006,
    "ĠDen": 3007,
    "ĠLake": 3008,
    "Ġpressure": 3009,
    "alled": 3010,
    "Ġ2010": 3011,
    "Ġdevelopment": 3012,
    "Ġrivers": 3013,
    "Ġfront": 3014,
    "70": 3015,
    "ĠMal": 3016,
    "ĠMexico": 3017,
    "ery": 3018,
    "Ġmagn": 3019,
    "ĠMil": 3020,
    "Ġdefe": 3021,
    "Ġ2003": 3022,
    "ellow": 3023,
    "ĠBo": 3024,
    "Ġservice": 3025,
    "ĠHar": 3026,
    "ĠAnne": 3027,
    "ĠAlso": 3028,
    "Ġhuge": 3029,
    "win": 3030,
    "Ġsaf": 3031,
    "Ġconcer": 3032,
    "amb": 3033,
    "Ġexamples": 3034,
    "Ġkingdom": 3035,
    "Ġteach": 3036,
    "Ġavail": 3037,
    "opes": 3038,
    "Ġindivid": 3039,
    "Ġcontinued": 3040,
    "ĠHaw": 3041,
    "ades": 3042,
    "ift": 3043,
    "dam": 3044,
    "peranto": 3045,
    "ately": 3046,
    "oke": 3047,
    "Ġwhether": 3048,
    "Ġbigger": 3049,
    "Ġcontains": 3050,
    "ingapore": 3051,
    "Ġfighting": 3052,
    "Ġoffice": 3053,
    "Ġclear": 3054,
    "ĠProt": 3055,
    "Ġmedical": 3056,
    "Ġcitiz": 3057,
    "cast": 3058,
    "km": 3059,
    "Ġnearly": 3060,
    "Ġindependence": 3061,
    "eum": 3062,
    "xide": 3063,
    "ffic": 3064,
    "Ġdom": 3065,
    "Ġelse": 3066,
    "ique": 3067,
    "Ġworkers": 3068,
    "Ġcapture": 3069,
    "Ġelement": 3070,
    "yes": 3071,
    "Ġliter": 3072,
    "itzer": 3073,
    "Ġunits": 3074,
    "Ġshap": 3075,
    "lier": 3076,
    "Ġ184": 3077,
    "Ġreach": 3078,
    "ques": 3079,
    "Ġdestroyed": 3080,
    "ĠBuddh": 3081,
    "ĠSer": 3082,
    "Ġveget": 3083,
    "Ġwriter": 3084,
    "ĠChicago": 3085,
    "Ġconnect": 3086,
    "oyal": 3087,
    "ply": 3088,
    "Ġcross": 3089,
    "ĠSat": 3090,
    "Ġlands": 3091,
    "ump": 3092,
    "ient": 3093,
    "iles": 3094,
    "Ġexact": 3095,
    "Ġlines": 3096,
    "Ġwind": 3097,
    "Ġ2013": 3098,
    "rael": 3099,
    "Ġgenerally": 3100,
    "which": 3101,
    "Ġnation": 3102,
    "Ġpoor": 3103,
    "ĠFirst": 3104,
    "Ġspecific": 3105,
    "acter": 3106,
    "Ġphysics": 3107,
    "upt": 3108,
    "Ġbelong": 3109,
    "ĠPro": 3110,
    "Ġdeb": 3111,
    "ĠRo": 3112,
    "Ġtou": 3113,
    "Ġpeace": 3114,
    "Ġprograms": 3115,
    "Ġleaders": 3116,
    "gor": 3117,
    "Ġbelow": 3118,
    "Ġet": 3119,
    "ĠPrime": 3120,
    "ĠMario": 3121,
    "Ġbecomes": 3122,
    "Ġbab": 3123,
    "Ġtransport": 3124,
    "iber": 3125,
    "ief": 3126,
    "Ġattem": 3127,
    "urt": 3128,
    "Ġsyn": 3129,
    "Ã¶": 3130,
    "Ġvill": 3131,
    "ĠAc": 3132,
    "heast": 3133,
    "ography": 3134,
    "udi": 3135,
    "Ġmos": 3136,
    "Ġatmosphere": 3137,
    "Ġbillion": 3138,
    "Ġprobably": 3139,
    "ĠIra": 3140,
    "Ġsurround": 3141,
    "ederal": 3142,
    "ĠDav": 3143,
    "Ġteams": 3144,
    "Ġtraditional": 3145,
    "icles": 3146,
    "odies": 3147,
    "ĠSl": 3148,
    "Ġorganism": 3149,
    "Ġwarm": 3150,
    "Ġlegal": 3151,
    "Ġbecoming": 3152,
    "Ġocean": 3153,
    "ĠSom": 3154,
    "200": 3155,
    "ĠPal": 3156,
    "Ġalphabet": 3157,
    "Ġalread": 3158,
    "Ġalready": 3159,
    "Ġclos": 3160,
    "Ġmeat": 3161,
    "Ġsett": 3162,
    "ĠZe": 3163,
    "Ġearlier": 3164,
    "ĠAbout": 3165,
    "Ġavailable": 3166,
    "Ġreb": 3167,
    "ĠCong": 3168,
    "Ġkilomet": 3169,
    "ĠMicrosoft": 3170,
    "ĠFord": 3171,
    "Ġnormally": 3172,
    "Ġparticles": 3173,
    "ĠGovern": 3174,
    "ĠBat": 3175,
    "Ġhosp": 3176,
    "Ġdescribe": 3177,
    "aving": 3178,
    "One": 3179,
    "Ġactually": 3180,
    "Ġcount": 3181,
    "Ġvirus": 3182,
    "craft": 3183,
    "ĠTV": 3184,
    "Ġfarm": 3185,
    "Ġproduction": 3186,
    "Ġequal": 3187,
    "bor": 3188,
    "Ġfeatures": 3189,
    "Ġsimply": 3190,
    "Ġnature": 3191,
    "ĠUs": 3192,
    "Ġmodel": 3193,
    "uke": 3194,
    "men": 3195,
    "atives": 3196,
    "Ġphysical": 3197,
    "ĠMiss": 3198,
    "umin": 3199,
    "ĠEsperanto": 3200,
    "Ġpurp": 3201,
    "izab": 3202,
    "Ġmilk": 3203,
    "aking": 3204,
    "iving": 3205,
    "ounts": 3206,
    "orders": 3207,
    "Ġ2002": 3208,
    "ĠDis": 3209,
    "Ġguitar": 3210,
    "ĠJul": 3211,
    "wer": 3212,
    "Ġcloth": 3213,
    "ĠArmy": 3214,
    "istr": 3215,
    "ey": 3216,
    "inted": 3217,
    "Ġyour": 3218,
    "Ġeastern": 3219,
    "Ġchurches": 3220,
    "cules": 3221,
    "ĠUK": 3222,
    "Ġmusical": 3223,
    "ĠIsrael": 3224,
    "Ġstructure": 3225,
    "Wh": 3226,
    "Ġresearch": 3227,
    "iding": 3228,
    "Ġcirc": 3229,
    "Ġreasons": 3230,
    "Ġprison": 3231,
    "Ġprevent": 3232,
    "Ġenvironment": 3233,
    "Ġcommunity": 3234,
    "izabeth": 3235,
    "Ġalbums": 3236,
    "Ġgrowing": 3237,
    "ĠIraq": 3238,
    "Ġvalue": 3239,
    "Ġcarr": 3240,
    "Ġnative": 3241,
    "ĠWales": 3242,
    "Ġservices": 3243,
    "Ġdescribed": 3244,
    "lit": 3245,
    "ĠEastern": 3246,
    "ĠJewish": 3247,
    "Ġcoup": 3248,
    "Ġpow": 3249,
    "Ġ2012": 3250,
    "utes": 3251,
    "bour": 3252,
    "Ġconstitution": 3253,
    "Ġ40": 3254,
    "ĠIsland": 3255,
    "Ġhon": 3256,
    "ĠOlympic": 3257,
    "ential": 3258,
    "ĠVir": 3259,
    "Ġcast": 3260,
    "Ġleave": 3261,
    "amer": 3262,
    "Ġ28": 3263,
    "Ġgalax": 3264,
    "Ġwaves": 3265,
    "Ġthin": 3266,
    "Ġapart": 3267,
    "Ġshowed": 3268,
    "ĠRomans": 3269,
    "Ġmech": 3270,
    "Ġmechan": 3271,
    "60": 3272,
    "Ġscientific": 3273,
    "Ġrare": 3274,
    "ĠEven": 3275,
    "Ġgain": 3276,
    "Ġprote": 3277,
    "Ġmarket": 3278,
    "Ġnoun": 3279,
    "Ġevolution": 3280,
    "wide": 3281,
    "Ġrich": 3282,
    "Ġterms": 3283,
    "Ġvote": 3284,
    "Ġreally": 3285,
    "Ġlots": 3286,
    "Ġnovel": 3287,
    "Ġstra": 3288,
    "Ġpoints": 3289,
    "Ġbur": 3290,
    "Ġprogramm": 3291,
    "Ġlikely": 3292,
    "Ġheart": 3293,
    "itzerland": 3294,
    "Ġdrugs": 3295,
    "ĠAncient": 3296,
    "Ġfig": 3297,
    "Ġpoll": 3298,
    "Ġowned": 3299,
    "aches": 3300,
    "Ġofficially": 3301,
    "ĠAtlantic": 3302,
    "Ġreached": 3303,
    "apt": 3304,
    "Ġoperating": 3305,
    "icle": 3306,
    "Ġoriginally": 3307,
    "ume": 3308,
    "Ġfly": 3309,
    "obert": 3310,
    "ĠWhile": 3311,
    "gal": 3312,
    "Ġfer": 3313,
    "Ġstandard": 3314,
    "Ġleaves": 3315,
    "ĠJose": 3316,
    "Ġflat": 3317,
    "Ġbeaut": 3318,
    "ĠSingapore": 3319,
    "Ġstopped": 3320,
    "ĠFrom": 3321,
    "Ġ2016": 3322,
    "Ġeverything": 3323,
    "instein": 3324,
    "uture": 3325,
    "Ġdang": 3326,
    "rect": 3327,
    "ĠSchool": 3328,
    "Ġpassed": 3329,
    "Ġsal": 3330,
    "Ġcovered": 3331,
    "Ġdefin": 3332,
    "Ġabs": 3333,
    "Ġ29": 3334,
    "Ġ2014": 3335,
    "Ġpersonal": 3336,
    "ĠMos": 3337,
    "ĠAngeles": 3338,
    "Ġleap": 3339,
    "Ġstarts": 3340,
    "ĠAlex": 3341,
    "Ġreturned": 3342,
    "icy": 3343,
    "Ġtable": 3344,
    "ledge": 3345,
    "Ġwhose": 3346,
    "Ġunit": 3347,
    "Ġphilosop": 3348,
    "Ġparties": 3349,
    "ables": 3350,
    "Ġlic": 3351,
    "estic": 3352,
    "Ġbar": 3353,
    "ĠPac": 3354,
    "Ġeasy": 3355,
    "Ġmiles": 3356,
    "ĠParliament": 3357,
    "ĠMuslims": 3358,
    "Ġinstruments": 3359,
    "Ġremoved": 3360,
    "over": 3361,
    "Ġsnow": 3362,
    "ĠSwed": 3363,
    "Ġweb": 3364,
    "Ġgirl": 3365,
    "ĠExpl": 3366,
    "ĠChristianity": 3367,
    "All": 3368,
    "Ġpictures": 3369,
    "Ġelectricity": 3370,
    "Ġmajority": 3371,
    "Ġconqu": 3372,
    "iful": 3373,
    "asion": 3374,
    "ĠCr": 3375,
    "mon": 3376,
    "Ġcontrolled": 3377,
    "Ġquite": 3378,
    "Ġdifference": 3379,
    "ĠBlack": 3380,
    "Ġspir": 3381,
    "Ġdio": 3382,
    "Ġmess": 3383,
    "Un": 3384,
    "ĠPacific": 3385,
    "Ġmill": 3386,
    "ocra": 3387,
    "Ġhouses": 3388,
    "Ġmid": 3389,
    "Ġcost": 3390,
    "Ġaccording": 3391,
    "..": 3392,
    "ĠAD": 3393,
    "Ġserved": 3394,
    "Ġspeech": 3395,
    "do": 3396,
    "Ġ2020": 3397,
    "Ġwidely": 3398,
    "hab": 3399,
    "ĠBefore": 3400,
    "oid": 3401,
    "Ġstudents": 3402,
    "Ġcases": 3403,
    "vert": 3404,
    "Ġoccup": 3405,
    "ĠExplorer": 3406,
    "ĠRog": 3407,
    "Ġcultures": 3408,
    "Ġdie": 3409,
    "aid": 3410,
    "Ġ60": 3411,
    "Ġcentre": 3412,
    "Ġhours": 3413,
    "Ġmeasured": 3414,
    "Ġmammals": 3415,
    "Ġsail": 3416,
    "Ġsem": 3417,
    "Ġturned": 3418,
    "Ġintroduced": 3419,
    "coh": 3420,
    "Ġdeep": 3421,
    "Ġneeds": 3422,
    "Ġfuture": 3423,
    "Ġcoll": 3424,
    "ĠFrank": 3425,
    "Ġrepublic": 3426,
    "ĠCommun": 3427,
    "Ġprovince": 3428,
    "Ġcopper": 3429,
    "Ġenter": 3430,
    "Ġslaves": 3431,
    "ĠJane": 3432,
    "ĠLos": 3433,
    "Ġcolors": 3434,
    "Ġdioxide": 3435,
    "ying": 3436,
    "Ġlearned": 3437,
    "ĠGold": 3438,
    "ĠMountain": 3439,
    "Ġfriend": 3440,
    "Ġpron": 3441,
    "Ġcover": 3442,
    "uman": 3443,
    "Ġnetwork": 3444,
    "Ġcand": 3445,
    "Ġbacter": 3446,
    "If": 3447,
    "ĠDNA": 3448,
    "Ġobser": 3449,
    "Ġperm": 3450,
    "upiter": 3451,
    "Ġasked": 3452,
    "ĠSwitzerland": 3453,
    "Ġtitle": 3454,
    "avery": 3455,
    "Ġoffer": 3456,
    "Ġphilosophy": 3457,
    "inal": 3458,
    "Ġdraw": 3459,
    "Ġpoet": 3460,
    "Ġpun": 3461,
    "Ġeveryone": 3462,
    "ĠThom": 3463,
    "Ġsides": 3464,
    "arks": 3465,
    "ĠIran": 3466,
    "rap": 3467,
    "ait": 3468,
    "ĠSup": 3469,
    ".)": 3470,
    "ĠLeon": 3471,
    "uted": 3472,
    "Ġmachine": 3473,
    "Ġsecret": 3474,
    "Ġforced": 3475,
    "ĠRevolution": 3476,
    "ĠHit": 3477,
    "Ġfeature": 3478,
    "Ġcle": 3479,
    "Ġannounced": 3480,
    "ĠChristians": 3481,
    "ky": 3482,
    "Ġversions": 3483,
    "Ġhelps": 3484,
    "iage": 3485,
    "ĠScott": 3486,
    "Ġuseful": 3487,
    "Ġneg": 3488,
    "na": 3489,
    "ĠVen": 3490,
    "Ġwalk": 3491,
    "Ġinfluence": 3492,
    "war": 3493,
    "ights": 3494,
    "Ġnec": 3495,
    "Ġrate": 3496,
    "uff": 3497,
    "Ġactive": 3498,
    "Ġeffects": 3499,
    "Ġbehav": 3500,
    "app": 3501,
    "Ġregular": 3502,
    "Be": 3503,
    "yp": 3504,
    "Ġfruit": 3505,
    "Ġterritory": 3506,
    "Ġfoc": 3507,
    "ffee": 3508,
    "14": 3509,
    "Ġnucle": 3510,
    "Ġ27": 3511,
    "zil": 3512,
    "olf": 3513,
    "Ġgrowth": 3514,
    "Ġfamil": 3515,
    "Ġbeg": 3516,
    "ardo": 3517,
    "Ġetc": 3518,
    "Ġheavy": 3519,
    "Ġtaking": 3520,
    "Ġprivate": 3521,
    "Ġeasier": 3522,
    "Ġ26": 3523,
    "Ġ&": 3524,
    "Ġweak": 3525,
    "Ġ\"\"": 3526,
    "Ġopposite": 3527,
    "Ġmolecules": 3528,
    "Ġeyes": 3529,
    "Ġcard": 3530,
    "Ġfoss": 3531,
    "Ġbank": 3532,
    "Ġforeign": 3533,
    "Ġevidence": 3534,
    "Ġaward": 3535,
    "ĠAccording": 3536,
    "ĠSaint": 3537,
    "Ġfreed": 3538,
    "Ġsympt": 3539,
    "iki": 3540,
    "ĠTex": 3541,
    "Ġprovin": 3542,
    "ĠHung": 3543,
    "utions": 3544,
    "Ġcomplex": 3545,
    "see": 3546,
    "Ġjoin": 3547,
    "Ġ1999": 3548,
    "Ġ2018": 3549,
    "ffer": 3550,
    "ĠMod": 3551,
    "Ġ187": 3552,
    "ĠMart": 3553,
    "oon": 3554,
    "Ġdeterm": 3555,
    "mit": 3556,
    "Ġpolice": 3557,
    "ĠCommon": 3558,
    "Ġcalcul": 3559,
    "Ġins": 3560,
    "Ġsport": 3561,
    "Ġ185": 3562,
    "called": 3563,
    "ship": 3564,
    "Ġlooks": 3565,
    "akistan": 3566,
    "ips": 3567,
    "ĠComp": 3568,
    "att": 3569,
    "uminium": 3570,
    "ĠFl": 3571,
    "ĠPre": 3572,
    "ynast": 3573,
    "Ġacid": 3574,
    "ĠAlthough": 3575,
    "Ġsuic": 3576,
    "Ġgrown": 3577,
    "Ġmathematics": 3578,
    "Ġknowledge": 3579,
    "Ġassoci": 3580,
    "Ġtells": 3581,
    "16": 3582,
    "Ġtaught": 3583,
    "Ġmoon": 3584,
    "Ġcitizens": 3585,
    "ification": 3586,
    "Ġsigned": 3587,
    "isc": 3588,
    "ĠPrince": 3589,
    "ĠTwo": 3590,
    "Ġfeet": 3591,
    "Ġconstr": 3592,
    "ero": 3593,
    "ĠHindu": 3594,
    "uf": 3595,
    "ĠCuba": 3596,
    "ĠGreen": 3597,
    "etro": 3598,
    "ĠSam": 3599,
    "Ġdivor": 3600,
    "Ġpregn": 3601,
    "Ġfourth": 3602,
    "Ġflo": 3603,
    "Ġpicture": 3604,
    "tens": 3605,
    "Ġselect": 3606,
    "aland": 3607,
    "Ġlo": 3608,
    "orb": 3609,
    "ĠHawai": 3610,
    "ensive": 3611,
    "Ġtext": 3612,
    "play": 3613,
    "Ġinfect": 3614,
    "Ġsymptoms": 3615,
    "ĠRomania": 3616,
    "Ġpiano": 3617,
    "ĠRichard": 3618,
    "Ġesc": 3619,
    "Ġvo": 3620,
    "Ġwars": 3621,
    "Ġmedia": 3622,
    "iest": 3623,
    "Ġuniversities": 3624,
    "amples": 3625,
    "Ġeventually": 3626,
    "Ġconditions": 3627,
    "ĠBelg": 3628,
    "ĠKorean": 3629,
    "erals": 3630,
    "ĠYou": 3631,
    "ancy": 3632,
    "ĠCounty": 3633,
    "ĠLin": 3634,
    "ĠAges": 3635,
    "Ġmaterials": 3636,
    "Ġneigh": 3637,
    "ĠMount": 3638,
    "ĠCast": 3639,
    "Ġalcoh": 3640,
    "Ġsolid": 3641,
    "Ġinsects": 3642,
    "Ġkey": 3643,
    "Ġmetals": 3644,
    "Ġfaster": 3645,
    "board": 3646,
    "inct": 3647,
    "imens": 3648,
    "ademy": 3649,
    "Ġbring": 3650,
    "Ġweight": 3651,
    "Ġweather": 3652,
    "ĠCo": 3653,
    "ĠElizabeth": 3654,
    "ĠOf": 3655,
    "Ġself": 3656,
    "ĠAustria": 3657,
    "ĠVirgin": 3658,
    "Ġord": 3659,
    "gi": 3660,
    "ÃŃ": 3661,
    "elesc": 3662,
    "ĠSolar": 3663,
    "Ġsteel": 3664,
    "ĠMars": 3665,
    "inos": 3666,
    "ube": 3667,
    "ĠConf": 3668,
    "anch": 3669,
    "Ġcode": 3670,
    "ĠUk": 3671,
    "Ġruns": 3672,
    "Ġactiv": 3673,
    "Ġglob": 3674,
    "ĠMichael": 3675,
    "Ġround": 3676,
    "Ġmoves": 3677,
    "Ġsuffer": 3678,
    "15": 3679,
    "ologists": 3680,
    "ola": 3681,
    "Ġcart": 3682,
    "ĠFinland": 3683,
    "Ġjud": 3684,
    "asing": 3685,
    "Ġsugar": 3686,
    "ields": 3687,
    "Ġvariet": 3688,
    "Ġtools": 3689,
    "year": 3690,
    "che": 3691,
    "Ġdict": 3692,
    "ouble": 3693,
    "Ġheav": 3694,
    "Ġcust": 3695,
    "ĠMe": 3696,
    "Ġdiseases": 3697,
    "17": 3698,
    "Ġglass": 3699,
    "Ġmur": 3700,
    "ĠMand": 3701,
    "Ġnomin": 3702,
    "ĠDenmark": 3703,
    "ady": 3704,
    "Ġwebs": 3705,
    "Ġmind": 3706,
    "such": 3707,
    "ĠCat": 3708,
    "ĠMac": 3709,
    "Ġdiam": 3710,
    "ocracy": 3711,
    "ĠNo": 3712,
    "ĠMore": 3713,
    "Ġcareer": 3714,
    "Ġi": 3715,
    "Ġenj": 3716,
    "olved": 3717,
    "nic": 3718,
    "berg": 3719,
    "Ġincrease": 3720,
    "Ġ1945": 3721,
    "ministr": 3722,
    "Ġdon": 3723,
    "bus": 3724,
    "Ġbodies": 3725,
    "Ġsite": 3726,
    "Ġestablished": 3727,
    "Ġstudies": 3728,
    "endo": 3729,
    "Ġcool": 3730,
    "Ġpenis": 3731,
    "ĠSouthern": 3732,
    "Ġpaint": 3733,
    "isl": 3734,
    "Ġcommunic": 3735,
    "Ġille": 3736,
    "ĠMor": 3737,
    "ploy": 3738,
    "Ġstone": 3739,
    "icks": 3740,
    "Ġbridge": 3741,
    "Ġdial": 3742,
    "Ġsplit": 3743,
    "Ġmic": 3744,
    "Ġinvolved": 3745,
    "Ġstage": 3746,
    "Ġgun": 3747,
    "Ġfa": 3748,
    "Ġbird": 3749,
    "Ġdrive": 3750,
    "Ġworldwide": 3751,
    "Ġgovernor": 3752,
    "Ġnewsp": 3753,
    "Ġfunction": 3754,
    "Ġagreed": 3755,
    "ĠPe": 3756,
    "ĠBoth": 3757,
    "ĠDemocratic": 3758,
    "anes": 3759,
    "Ġhole": 3760,
    "Ġanything": 3761,
    "adium": 3762,
    "Ġpsych": 3763,
    "Ġsister": 3764,
    "ida": 3765,
    "Ar": 3766,
    "Ġdel": 3767,
    "Ġforests": 3768,
    "Ġ1991": 3769,
    "Ġrank": 3770,
    "thi": 3771,
    "Ġgard": 3772,
    "Ġconnected": 3773,
    "Ġpresidential": 3774,
    "Ġgods": 3775,
    "opical": 3776,
    "Ġpray": 3777,
    "12": 3778,
    "Ġgravity": 3779,
    "aign": 3780,
    "Ġuniversity": 3781,
    "uk": 3782,
    "Ġfro": 3783,
    "Ġqueen": 3784,
    "imon": 3785,
    "ĠCongress": 3786,
    "oln": 3787,
    "ĠDisney": 3788,
    "Ġaddress": 3789,
    "Ġends": 3790,
    "Ġweeks": 3791,
    "ĠCap": 3792,
    "ĠProtest": 3793,
    "Ġserious": 3794,
    "ĠOnly": 3795,
    "ĠHitler": 3796,
    "Ġopened": 3797,
    "Ġcultural": 3798,
    "cest": 3799,
    "uits": 3800,
    "eps": 3801,
    "ĠEinstein": 3802,
    "time": 3803,
    "uese": 3804,
    "ĠIslands": 3805,
    "Ġcrime": 3806,
    "othes": 3807,
    "Ġfamilies": 3808,
    "hood": 3809,
    "itam": 3810,
    "Ġsense": 3811,
    "astic": 3812,
    "Ġgreatest": 3813,
    "ĠIr": 3814,
    "Ġgrass": 3815,
    "Ġsum": 3816,
    "Ġfinal": 3817,
    "Ġrisk": 3818,
    "ĠNative": 3819,
    "Ġadop": 3820,
    "erve": 3821,
    "ĠNorm": 3822,
    "Ġborders": 3823,
    "Ġtowards": 3824,
    "ĠHam": 3825,
    "ĠBrazil": 3826,
    "ador": 3827,
    "incoln": 3828,
    "Ġprovinces": 3829,
    "ĠGal": 3830,
    "unic": 3831,
    "Ġproject": 3832,
    "Ġ1950": 3833,
    "Americ": 3834,
    "Ġlocated": 3835,
    "Ġminor": 3836,
    "ĠNob": 3837,
    "Ġeaten": 3838,
    "Ġstayed": 3839,
    "ĠWhite": 3840,
    "ĠSte": 3841,
    "Ġblock": 3842,
    "Ġbacteria": 3843,
    "Ġshoot": 3844,
    "Ġdirectly": 3845,
    "Ġspent": 3846,
    "Ġaccess": 3847,
    "Ġlaun": 3848,
    "ĠJupiter": 3849,
    "ĠPakistan": 3850,
    "Ġdoc": 3851,
    "Ġadult": 3852,
    "iday": 3853,
    "intendo": 3854,
    "ising": 3855,
    "ĠRobert": 3856,
    "xual": 3857,
    "Ġtreatment": 3858,
    "Ġwrong": 3859,
    "Ġ1995": 3860,
    "Ġnut": 3861,
    "reds": 3862,
    "Ġans": 3863,
    "ictor": 3864,
    "Ġbeautiful": 3865,
    "Ġ183": 3866,
    "Ġancest": 3867,
    "Ġenjoy": 3868,
    "ĠLa": 3869,
    "ĠHigh": 3870,
    "Ġdate": 3871,
    "ĠMad": 3872,
    "ĠBerlin": 3873,
    "de": 3874,
    "Ġcars": 3875,
    "Ġrecent": 3876,
    "Ġren": 3877,
    "Ġmarriage": 3878,
    "isp": 3879,
    "Ġallows": 3880,
    "ken": 3881,
    "ricult": 3882,
    "Ġcompletely": 3883,
    "Ġraised": 3884,
    "Ġfix": 3885,
    "Ġhospital": 3886,
    "Ġstations": 3887,
    "uh": 3888,
    "Ġdeclared": 3889,
    "use": 3890,
    "Ġreaction": 3891,
    "Ġradiation": 3892,
    "Ġcamer": 3893,
    "ghan": 3894,
    "ĠPortuguese": 3895,
    "Ġ2019": 3896,
    "Ġslavery": 3897,
    "Ġ2017": 3898,
    "Ġshare": 3899,
    "Ġgiving": 3900,
    "ĠGeneral": 3901,
    "field": 3902,
    "ĠRed": 3903,
    "Ġmagaz": 3904,
    "Ġartists": 3905,
    "ĠIslamic": 3906,
    "Ġda": 3907,
    "Ġindustrial": 3908,
    "ĠRoyal": 3909,
    "rees": 3910,
    "Ġplaced": 3911,
    "uther": 3912,
    "thiop": 3913,
    "Ġhands": 3914,
    "Ġamounts": 3915,
    "hedral": 3916,
    "Ġuser": 3917,
    "Ġ179": 3918,
    "Ġrings": 3919,
    "ĠPers": 3920,
    "Ġpattern": 3921,
    "Ġarchitecture": 3922,
    "Ġmyth": 3923,
    "Ġproperty": 3924,
    "iny": 3925,
    "Ġpoison": 3926,
    "Ġcopies": 3927,
    "Ġseparated": 3928,
    "ĠOver": 3929,
    "ĠSen": 3930,
    "ĠNow": 3931,
    "Ġchanging": 3932,
    "also": 3933,
    "Ġdepending": 3934,
    "Ġextreme": 3935,
    "Ġslowly": 3936,
    "Ġ1989": 3937,
    "Ġbehind": 3938,
    "Ġdeal": 3939,
    "ij": 3940,
    "Mar": 3941,
    "Ġclothing": 3942,
    "Ġgrad": 3943,
    "Ġcommunist": 3944,
    "Ġaluminium": 3945,
    "osis": 3946,
    "Ġscr": 3947,
    "ĠTexas": 3948,
    "Ġexactly": 3949,
    "ĠHem": 3950,
    "Ġtechnology": 3951,
    "Ġcommer": 3952,
    "Ġhere": 3953,
    "Ġperformed": 3954,
    "liest": 3955,
    "ĠCorn": 3956,
    "Ġpair": 3957,
    "Ġorg": 3958,
    "ĠGeorg": 3959,
    "ato": 3960,
    ".,": 3961,
    "wan": 3962,
    "Ġfinished": 3963,
    "ĠRec": 3964,
    "Ġlink": 3965,
    "Ġmental": 3966,
    "ctic": 3967,
    "ĠMarx": 3968,
    "atherine": 3969,
    "ĠTurkey": 3970,
    "band": 3971,
    "Ġface": 3972,
    "Ġdoctors": 3973,
    "ains": 3974,
    "ĠJoseph": 3975,
    "Ġmast": 3976,
    "Ġcaptured": 3977,
    "ĠDavid": 3978,
    "Ġrespect": 3979,
    "Ġarm": 3980,
    "Ġfell": 3981,
    "Ġveh": 3982,
    "Ġdi": 3983,
    "Ġcritic": 3984,
    "ĠAcademy": 3985,
    "Ġpost": 3986,
    "atory": 3987,
    "Ġsure": 3988,
    "Ġwild": 3989,
    "Ġchemicals": 3990,
    "ĠThomas": 3991,
    "istry": 3992,
    "Ġdefined": 3993,
    "Ġethnic": 3994,
    "ĠCivil": 3995,
    "Ġpolitic": 3996,
    "Ġbott": 3997,
    "ĠWin": 3998,
    "spe": 3999,
    "ropol": 4000,
    "ails": 4001,
    "jan": 4002,
    "Ġsalt": 4003,
    "Ġdomestic": 4004,
    "ela": 4005,
    "Ġparliament": 4006,
    "Ġcoal": 4007,
    "13": 4008,
    "wood": 4009,
    "Ġfurther": 4010,
    "Ġfit": 4011,
    "insula": 4012,
    "ĠNintendo": 4013,
    "199": 4014,
    "teen": 4015,
    "ĠGregor": 4016,
    "Ġcoming": 4017,
    "ĠBas": 4018,
    "Ġran": 4019,
    "Ġtrying": 4020,
    "osen": 4021,
    "Ġcolony": 4022,
    "ĠHug": 4023,
    "ĠNot": 4024,
    "Ġclean": 4025,
    "Ġpolitics": 4026,
    "gent": 4027,
    "Ġclou": 4028,
    "Ġrelative": 4029,
    "Ġdangerous": 4030,
    "rav": 4031,
    "asc": 4032,
    "Ġrocks": 4033,
    "Ġanti": 4034,
    "ĠSa": 4035,
    "ĠSal": 4036,
    "ĠSocial": 4037,
    "ients": 4038,
    "Ġcards": 4039,
    "Ġrunning": 4040,
    "Ġinfluenced": 4041,
    "Ġbox": 4042,
    "Ġbought": 4043,
    "ativity": 4044,
    "Ġdecide": 4045,
    "cow": 4046,
    "Ġstation": 4047,
    "Ġimmedi": 4048,
    "ynasty": 4049,
    "Ġincreased": 4050,
    "Ġleading": 4051,
    "Ġbomb": 4052,
    "Ġpowers": 4053,
    "Ġsuicide": 4054,
    "ĠOtt": 4055,
    "Other": 4056,
    "Ġjobs": 4057,
    "ĠIII": 4058,
    "Ġcontinue": 4059,
    "aked": 4060,
    "Ġ1975": 4061,
    "lied": 4062,
    "Ġearliest": 4063,
    "Ġattacked": 4064,
    "Ġyet": 4065,
    "Ġatomic": 4066,
    "Ġmy": 4067,
    "izes": 4068,
    "Ġsat": 4069,
    "Ġcampaign": 4070,
    "athers": 4071,
    "Ġstore": 4072,
    "ĠRes": 4073,
    "Ġdoctor": 4074,
    "Ġlibr": 4075,
    "Ġ1996": 4076,
    "ĠMc": 4077,
    "lorida": 4078,
    "ĠLeonardo": 4079,
    "hire": 4080,
    "Ġhundreds": 4081,
    "ĠTor": 4082,
    "Ġclim": 4083,
    "ĠEvery": 4084,
    "ĠBay": 4085,
    "Ġcoffee": 4086,
    "ĠEthiop": 4087,
    "Ġinhab": 4088,
    "These": 4089,
    "Ġ182": 4090,
    "Ġcorrect": 4091,
    "ricts": 4092,
    "Ġseasons": 4093,
    "ĠAge": 4094,
    "Ġadministr": 4095,
    "uals": 4096,
    "Ġreprod": 4097,
    "ĠScottish": 4098,
    "enses": 4099,
    "Ġwalls": 4100,
    "Ġreferred": 4101,
    "Ġfif": 4102,
    "ĠEdward": 4103,
    "Ġdesigned": 4104,
    "Ġchoose": 4105,
    "Ġbaby": 4106,
    "Ġflag": 4107,
    "Ġknew": 4108,
    "Ġwine": 4109,
    "arning": 4110,
    "chie": 4111,
    "ampions": 4112,
    "oven": 4113,
    "ocol": 4114,
    "Ã¡": 4115,
    "Ġsmallest": 4116,
    "Ġindividual": 4117,
    "Ġquantum": 4118,
    "Ġtelesc": 4119,
    "Ġobserv": 4120,
    "isions": 4121,
    "Ġflows": 4122,
    "Ġmurder": 4123,
    "Ġresults": 4124,
    "Ġbatter": 4125,
    "Ġ1994": 4126,
    "Ġinteract": 4127,
    "Ġsle": 4128,
    "ners": 4129,
    "Since": 4130,
    "Ġeye": 4131,
    "ĠDr": 4132,
    "Ġnegative": 4133,
    "ses": 4134,
    "Ġsymbols": 4135,
    "Ġremains": 4136,
    "New": 4137,
    "Ġelections": 4138,
    "Ġimmigr": 4139,
    "ctions": 4140,
    "rest": 4141,
    "ĠVi": 4142,
    "Ġlakes": 4143,
    "ternal": 4144,
    "Ġlayer": 4145,
    "Ġcontract": 4146,
    "Ġtrain": 4147,
    "Ġbegins": 4148,
    "atre": 4149,
    "ĠCollege": 4150,
    "writ": 4151,
    "ĠApple": 4152,
    "ĠVal": 4153,
    "ests": 4154,
    "Ġthousand": 4155,
    "ears": 4156,
    "ĠCouncil": 4157,
    "ĠHall": 4158,
    "Ġattempt": 4159,
    "istics": 4160,
    "ĠNorway": 4161,
    "Ġshot": 4162,
    "Ġrevolution": 4163,
    "Ġdifferences": 4164,
    "iff": 4165,
    "ghanistan": 4166,
    "Ġgoods": 4167,
    "Ġmedicine": 4168,
    "elsh": 4169,
    "ĠRh": 4170,
    "urity": 4171,
    "Ġmemory": 4172,
    "Ġlongest": 4173,
    "ava": 4174,
    "cycl": 4175,
    "Ġinj": 4176,
    "ĠMag": 4177,
    "ĠBeat": 4178,
    "ĠVirginia": 4179,
    "ĠRogers": 4180,
    "Ġsoul": 4181,
    "Ġestim": 4182,
    "Ġillegal": 4183,
    "Ġ500": 4184,
    "ively": 4185,
    "cies": 4186,
    "ĠFre": 4187,
    "orter": 4188,
    "Ġbeliefs": 4189,
    "Ġthick": 4190,
    "igan": 4191,
    "Ġzero": 4192,
    "Ġnick": 4193,
    "den": 4194,
    "Ġholes": 4195,
    "Ġresour": 4196,
    "gar": 4197,
    "sen": 4198,
    "Ġ()": 4199,
    "Ġlake": 4200,
    "Ġstring": 4201,
    "Ġconduct": 4202,
    "ophren": 4203,
    "izophren": 4204,
    "Ġplate": 4205,
    "Ġextra": 4206,
    "Ġcrops": 4207,
    "Ġagricult": 4208,
    "Because": 4209,
    "ĠLaw": 4210,
    "ĠPat": 4211,
    "Ġlimited": 4212,
    "Ġgrand": 4213,
    "onald": 4214,
    "ĠMat": 4215,
    "inks": 4216,
    "Ġprotons": 4217,
    "ĠArch": 4218,
    "anded": 4219,
    "omm": 4220,
    "enty": 4221,
    "Ġvisited": 4222,
    "Ġfav": 4223,
    "arter": 4224,
    "Ġcounties": 4225,
    "ĠLincoln": 4226,
    "Ġearthqu": 4227,
    "zt": 4228,
    "Ġbroadcast": 4229,
    "ĠBest": 4230,
    "ĠFlorida": 4231,
    "ĠGregorian": 4232,
    "ĠCa": 4233,
    "Ġsentence": 4234,
    "Ġheight": 4235,
    "Ġsurvive": 4236,
    "Ġmiss": 4237,
    "ĠFootball": 4238,
    "Ġparticle": 4239,
    "Ġnearby": 4240,
    "Ġdistricts": 4241,
    "ĠQu": 4242,
    "Ġeleph": 4243,
    "Ġcerem": 4244,
    "outheast": 4245,
    "Ġimage": 4246,
    "Ġdamage": 4247,
    "alities": 4248,
    "rd": 4249,
    "nes": 4250,
    "Ġpredict": 4251,
    "Ġwants": 4252,
    "met": 4253,
    "Ġ1973": 4254,
    "Ġlearning": 4255,
    "Ġhorse": 4256,
    "Ġhear": 4257,
    "Ġgender": 4258,
    "Ġalcohol": 4259,
    "ares": 4260,
    "Ġisot": 4261,
    "Ġ180": 4262,
    "Ġchance": 4263,
    "Ġcircle": 4264,
    "arl": 4265,
    "ĠHoly": 4266,
    "ĠSecond": 4267,
    "ching": 4268,
    "Ġbrows": 4269,
    "ĠPolish": 4270,
    "Ġscreen": 4271,
    "Ġreform": 4272,
    "Ġ2015": 4273,
    "ropolitan": 4274,
    "ĠMoscow": 4275,
    "addam": 4276,
    "ĠPopeye": 4277,
    "Ġactivity": 4278,
    "Ġ1998": 4279,
    "Ġchosen": 4280,
    "Ġbit": 4281,
    "ĠMa": 4282,
    "body": 4283,
    "ects": 4284,
    "Ġphr": 4285,
    "Ġsaying": 4286,
    "Ġfle": 4287,
    "ĠInstead": 4288,
    "Ġnations": 4289,
    "Ġstraight": 4290,
    "Ġneutr": 4291,
    "Ġquestions": 4292,
    "Ġthreat": 4293,
    "isters": 4294,
    "rupt": 4295,
    "ĠChile": 4296,
    "Ġburied": 4297,
    "Ġrecords": 4298,
    "ctor": 4299,
    "Ġ2022": 4300,
    "ĠSweden": 4301,
    "hester": 4302,
    "Ġcolour": 4303,
    "Ġillness": 4304,
    "Ġzinc": 4305,
    "ĠLinux": 4306,
    "ĠRepublican": 4307,
    "isphere": 4308,
    "Ġexperience": 4309,
    "Ġdance": 4310,
    "Ġsounds": 4311,
    "Ġclassical": 4312,
    "ĠNazi": 4313,
    "abb": 4314,
    "Ġ1974": 4315,
    "Ġprovide": 4316,
    "Ġhundred": 4317,
    "ĠVictor": 4318,
    "Ġbroke": 4319,
    "Ġbattle": 4320,
    "ĠOs": 4321,
    "Ġcompared": 4322,
    "well": 4323,
    "Ġevil": 4324,
    "Ġtribes": 4325,
    "Ġrefers": 4326,
    "uth": 4327,
    "Ġdirection": 4328,
    "Ġmom": 4329,
    "ĠNewton": 4330,
    "everal": 4331,
    "Ġempire": 4332,
    "ĠConfeder": 4333,
    "Ġfreedom": 4334,
    "Ġlif": 4335,
    "Ġverb": 4336,
    "Ġvitam": 4337,
    "ĠIrish": 4338,
    "oren": 4339,
    "SR": 4340,
    "ĠCalvin": 4341,
    "umn": 4342,
    "ena": 4343,
    "bra": 4344,
    "Ġconstant": 4345,
    "ĠWall": 4346,
    "Ġmachines": 4347,
    "Ġhus": 4348,
    "erties": 4349,
    "ĠEuropeans": 4350,
    "Ġdiscuss": 4351,
    "Ġanal": 4352,
    "enna": 4353,
    "ĠMoz": 4354,
    "Ġorganisms": 4355,
    "Ġmixed": 4356,
    "azz": 4357,
    "Ġairport": 4358,
    "edia": 4359,
    "Ġhumid": 4360,
    "ĠIce": 4361,
    "Ġsequ": 4362,
    "Ġadults": 4363,
    "ona": 4364,
    "Ġboard": 4365,
    "izophrenia": 4366,
    "Ġteac": 4367,
    "Ġroots": 4368,
    "Ġprimary": 4369,
    "alia": 4370,
    "Ġinvaded": 4371,
    "Ġcurrently": 4372,
    "Ġaccepted": 4373,
    "Ġbands": 4374,
    "illa": 4375,
    "ify": 4376,
    "ammad": 4377,
    "Ġsubstance": 4378,
    "Ġpositive": 4379,
    "Ġblind": 4380,
    "eptune": 4381,
    "Ġfields": 4382,
    "Ġconserv": 4383,
    "ca": 4384,
    "unk": 4385,
    "ured": 4386,
    "ĠLith": 4387,
    "Ġrelativity": 4388,
    "Ġliber": 4389,
    "Ġ1997": 4390,
    "Ġdegree": 4391,
    "Ġliked": 4392,
    "Ġmasturb": 4393,
    "Ġvict": 4394,
    "Ġproperties": 4395,
    "Ġshapes": 4396,
    "ĠZealand": 4397,
    "Ġdemocracy": 4398,
    "thur": 4399,
    "iana": 4400,
    "iffer": 4401,
    "emies": 4402,
    "To": 4403,
    "cel": 4404,
    "Ġrespons": 4405,
    "Ġyellow": 4406,
    "ĠWars": 4407,
    "Ġsick": 4408,
    "Another": 4409,
    "cyclop": 4410,
    "ĠFrancisco": 4411,
    "obb": 4412,
    "ĠÃ": 4413,
    "iant": 4414,
    "ĠAwards": 4415,
    "Ġfeed": 4416,
    "Ġsafe": 4417,
    "Ġmeters": 4418,
    "onic": 4419,
    "Ġcontinent": 4420,
    "Ġlooked": 4421,
    "orks": 4422,
    "het": 4423,
    "Ġattacks": 4424,
    "Ġagree": 4425,
    "eet": 4426,
    "ĠBah": 4427,
    "Ġrequired": 4428,
    "ĠAfghanistan": 4429,
    "ĠPruss": 4430,
    "Ġdrop": 4431,
    "Ġmouth": 4432,
    "pite": 4433,
    "Re": 4434,
    "rich": 4435,
    "ĠNap": 4436,
    "Ġcontent": 4437,
    "Ġsend": 4438,
    "ĠProtestant": 4439,
    "Ġask": 4440,
    "Ġmethods": 4441,
    "Ġ80": 4442,
    "Ġinstrument": 4443,
    "Ġfocus": 4444,
    "ĠJud": 4445,
    "Ġenemies": 4446,
    "rel": 4447,
    "Ġworship": 4448,
    "stances": 4449,
    "cles": 4450,
    "ĠWelsh": 4451,
    "Ġnine": 4452,
    "Ġdefinition": 4453,
    "III": 4454,
    "itation": 4455,
    "ĠStre": 4456,
    "Ġkilling": 4457,
    "ĠLee": 4458,
    "Ġinher": 4459,
    "Pr": 4460,
    "ĠBeatles": 4461,
    "ishop": 4462,
    "fall": 4463,
    "izations": 4464,
    "unicip": 4465,
    "Ġroy": 4466,
    "American": 4467,
    "forest": 4468,
    "Ġengineering": 4469,
    "ressed": 4470,
    "Ġunique": 4471,
    "resh": 4472,
    "Ġroad": 4473,
    "ĠOlympics": 4474,
    "Ġenc": 4475,
    "Ġachie": 4476,
    "ightly": 4477,
    "Ġdwar": 4478,
    "ĠUsually": 4479,
    "Ġnucleus": 4480,
    "ĠExamples": 4481,
    "row": 4482,
    "Ġlooking": 4483,
    "Ġ2021": 4484,
    "ĠDes": 4485,
    "Ġliterature": 4486,
    "ĠEmperor": 4487,
    "Ġjour": 4488,
    "ully": 4489,
    "Ġflu": 4490,
    "ĠDuke": 4491,
    "ixon": 4492,
    "Ġspirit": 4493,
    "Ġvolume": 4494,
    "Ġmotion": 4495,
    "istor": 4496,
    "osexual": 4497,
    "Ġepis": 4498,
    "Ġhusband": 4499,
    "Ġwid": 4500,
    "onent": 4501,
    "pts": 4502,
    "ĠDan": 4503,
    "uhammad": 4504,
    "itude": 4505,
    "ĠLike": 4506,
    "Ġemb": 4507,
    "Ġfederal": 4508,
    "Ġexpensive": 4509,
    "ache": 4510,
    "Ġrev": 4511,
    "Ġboats": 4512,
    "Ġtrains": 4513,
    "oral": 4514,
    "inton": 4515,
    "ĠMercury": 4516,
    "Ġclothes": 4517,
    "semb": 4518,
    "gender": 4519,
    "Ġimmediately": 4520,
    "Ġlegisl": 4521,
    "Ġroyal": 4522,
    "Ġcommit": 4523,
    "osh": 4524,
    "anced": 4525,
    "Ġgovernments": 4526,
    "view": 4527,
    "ĠAlexander": 4528,
    "bles": 4529,
    "ĠBab": 4530,
    "Ġroom": 4531,
    "ĠTower": 4532,
    "lar": 4533,
    "Ġtro": 4534,
    "Ġsilver": 4535,
    "Ġ1940": 4536,
    "urban": 4537,
    "ĠEc": 4538,
    "Ġ1993": 4539,
    "ateg": 4540,
    "ĠMass": 4541,
    "Ġrailway": 4542,
    "Ġfailed": 4543,
    "Ġgenes": 4544,
    "aine": 4545,
    "Ġpainting": 4546,
    "Ġlevels": 4547,
    "ĠDo": 4548,
    "Ġminutes": 4549,
    "lers": 4550,
    "Ġadding": 4551,
    "Ġsearch": 4552,
    "ĠNobel": 4553,
    "Ġleague": 4554,
    "Ġmotor": 4555,
    "Ġcustom": 4556,
    "ĠTest": 4557,
    "Ġtries": 4558,
    "Ġtal": 4559,
    "Ġaccident": 4560,
    "ĠColumbus": 4561,
    "500": 4562,
    "Ġpractice": 4563,
    "Ġcandid": 4564,
    "11": 4565,
    "Ġinvest": 4566,
    "Ġquestion": 4567,
    "Ġsources": 4568,
    "30": 4569,
    "ado": 4570,
    "Ġteeth": 4571,
    "Ġvary": 4572,
    "Ġvariety": 4573,
    "Brit": 4574,
    "Ġban": 4575,
    "Ġ+": 4576,
    "ĠSecret": 4577,
    "Ġlegs": 4578,
    "Ġtaxes": 4579,
    "ĠAirport": 4580,
    "Ġcra": 4581,
    "Ġdiagn": 4582,
    "ĠâĢ¢": 4583,
    "imono": 4584,
    "Ġfest": 4585,
    "odox": 4586,
    "thodox": 4587,
    "esar": 4588,
    "yright": 4589,
    "Ġeating": 4590,
    "80": 4591,
    "Ġboy": 4592,
    "ĠMountains": 4593,
    "Today": 4594,
    "Ġsky": 4595,
    "ĠArabic": 4596,
    "enth": 4597,
    "igned": 4598,
    "Ġmel": 4599,
    "Ġequation": 4600,
    "Ġmolec": 4601,
    "Ġfuel": 4602,
    "Ġder": 4603,
    "ĠCenter": 4604,
    "erry": 4605,
    "ĠPhilipp": 4606,
    "Ġvac": 4607,
    "Ġpaid": 4608,
    "ĠPen": 4609,
    "ĠSaturn": 4610,
    "Ġ1992": 4611,
    "Ġdies": 4612,
    "ĠMartin": 4613,
    "inois": 4614,
    "llinois": 4615,
    "mier": 4616,
    "Ġmusicians": 4617,
    "ĠColumbia": 4618,
    "Ġactress": 4619,
    "chest": 4620,
    "Ġinsp": 4621,
    "pper": 4622,
    "ĠMichel": 4623,
    "Ġgases": 4624,
    "odes": 4625,
    "Ġteen": 4626,
    "Ġtrip": 4627,
    "Ġdepends": 4628,
    "Ġclaimed": 4629,
    "ĠRock": 4630,
    "Ġswim": 4631,
    "ifferent": 4632,
    "ĠStone": 4633,
    "Ġfungi": 4634,
    "ari": 4635,
    "Ġwa": 4636,
    "anches": 4637,
    "Ġlabor": 4638,
    "elect": 4639,
    "ĠGolden": 4640,
    "Ġdefeated": 4641,
    "Ġtroops": 4642,
    "Ġresources": 4643,
    "Ġfoot": 4644,
    "Ġinstruct": 4645,
    "Ġability": 4646,
    "ĠBelgium": 4647,
    "Ġpage": 4648,
    "40": 4649,
    "ĠArctic": 4650,
    "road": 4651,
    "ibr": 4652,
    "ĠCompany": 4653,
    "bet": 4654,
    "ĠPan": 4655,
    "Ġsurger": 4656,
    "onze": 4657,
    "Ġouter": 4658,
    "ĠGramm": 4659,
    "Ġcarried": 4660,
    "Ġmillions": 4661,
    "illed": 4662,
    "Ġ=": 4663,
    "Ġtwice": 4664,
    "Ġremained": 4665,
    "thlet": 4666,
    "ny": 4667,
    "Ġwings": 4668,
    "They": 4669,
    "',": 4670,
    "Ġseem": 4671,
    "ceed": 4672,
    "Ġ1979": 4673,
    "Ġinterp": 4674,
    "Ġusers": 4675,
    "arin": 4676,
    "quar": 4677,
    "Ġawarded": 4678,
    "Ġthinking": 4679,
    "gress": 4680,
    "Ġvillage": 4681,
    "tainment": 4682,
    "Ġcomedy": 4683,
    "ĠPrin": 4684,
    "dia": 4685,
    "Ġden": 4686,
    "Ġpages": 4687,
    "ĠBattle": 4688,
    "Ġchart": 4689,
    "Ġadvert": 4690,
    "Ġmales": 4691,
    "ĠLen": 4692,
    "ĠSaddam": 4693,
    "ĠArt": 4694,
    "ĠPrize": 4695,
    "rogen": 4696,
    "Ġupon": 4697,
    "Ġsignific": 4698,
    "adian": 4699,
    "Ġproducer": 4700,
    "Ġmonarchy": 4701,
    "Ġ90": 4702,
    "oura": 4703,
    "with": 4704,
    "Ġhosted": 4705,
    "Ġmist": 4706,
    "raham": 4707,
    "Ġprogramming": 4708,
    "cientists": 4709,
    "Ġtemperatures": 4710,
    "Ġmoons": 4711,
    "ĠCop": 4712,
    "upper": 4713,
    "Ġrub": 4714,
    "Ġrough": 4715,
    "ĠPlay": 4716,
    "nd": 4717,
    "Ġinte": 4718,
    "Ġcovers": 4719,
    "Ġtar": 4720,
    "ream": 4721,
    "Ġstick": 4722,
    "osing": 4723,
    "ugg": 4724,
    "ranean": 4725,
    "Ġsulf": 4726,
    "Ġdisorder": 4727,
    "artment": 4728,
    "ya": 4729,
    "bai": 4730,
    "chestra": 4731,
    "Ġartist": 4732,
    "ocks": 4733,
    "ellig": 4734,
    "bre": 4735,
    "ĠAustralian": 4736,
    "Ġarrived": 4737,
    "Ġprep": 4738,
    "ĠPeter": 4739,
    "Ġanyone": 4740,
    "Ġonto": 4741,
    "Ġreported": 4742,
    "Ġholds": 4743,
    "Ġsimpl": 4744,
    "ding": 4745,
    "Ġmoment": 4746,
    "Ġgalaxies": 4747,
    "Ġpul": 4748,
    "ilities": 4749,
    "Ġkm": 4750,
    "imal": 4751,
    "Ġdogs": 4752,
    "Ġpath": 4753,
    "ĠUnder": 4754,
    "ĠGeorgia": 4755,
    "uan": 4756,
    "Ġstatus": 4757,
    "oky": 4758,
    "Ġremember": 4759,
    "Ġbutter": 4760,
    "Ġcouple": 4761,
    "We": 4762,
    "apor": 4763,
    "ĠJe": 4764,
    "ĠRing": 4765,
    "ĠRic": 4766,
    "ennon": 4767,
    "anges": 4768,
    "Ġregard": 4769,
    "ensus": 4770,
    "ĠArthur": 4771,
    "Ġinvasion": 4772,
    "Ġhurt": 4773,
    "Ġcomplic": 4774,
    "Ġpal": 4775,
    "ĠTrans": 4776,
    "Ġdiss": 4777,
    "Ġnothing": 4778,
    "water": 4779,
    "aiwan": 4780,
    "Ġ70": 4781,
    "raine": 4782,
    "Ġboys": 4783,
    "Ġnickn": 4784,
    "Ġ150": 4785,
    "ĠMediter": 4786,
    "ĠMediterranean": 4787,
    "Ġvolcano": 4788,
    "Ġprey": 4789,
    "Ġleaving": 4790,
    "ĠAzt": 4791,
    "Ġaction": 4792,
    "Ġnit": 4793,
    "Ġautom": 4794,
    "Ġyounger": 4795,
    "rib": 4796,
    "wealth": 4797,
    "Ġbal": 4798,
    "Ġ1930": 4799,
    "cing": 4800,
    "ĠCarib": 4801,
    "ocolate": 4802,
    "ĠMuhammad": 4803,
    "Ġsuc": 4804,
    "ĠAg": 4805,
    "Ġsitu": 4806,
    "Ġbranch": 4807,
    "Ġbottom": 4808,
    "ingu": 4809,
    "Ġbiology": 4810,
    "Ġtreated": 4811,
    "ĠDev": 4812,
    "Ġviruses": 4813,
    "Ġenz": 4814,
    "Ġstudio": 4815,
    "Ġpurpose": 4816,
    "Ġscale": 4817,
    "Ġtypically": 4818,
    "Ġmer": 4819,
    "astr": 4820,
    "Ġacts": 4821,
    "usion": 4822,
    "Ġtast": 4823,
    "Ġ300": 4824,
    "haps": 4825,
    "apers": 4826,
    "ĠBook": 4827,
    "Ġconsider": 4828,
    "Ġinvent": 4829,
    "Ġconquered": 4830,
    "Ġordered": 4831,
    "Ġ2023": 4832,
    "zech": 4833,
    "Ġmuseum": 4834,
    "Ġthrone": 4835,
    "Ġgoal": 4836,
    "Ġreactions": 4837,
    "Ġminerals": 4838,
    "ĠCor": 4839,
    "Ġselling": 4840,
    "itor": 4841,
    "Ġinhabit": 4842,
    "Ġfac": 4843,
    "Ġcollege": 4844,
    "Ġacting": 4845,
    "Ġdimens": 4846,
    "Ġevolved": 4847,
    "andy": 4848,
    "alin": 4849,
    "Ġring": 4850,
    "Ġschizophrenia": 4851,
    "Ġwriters": 4852,
    "Ġactivities": 4853,
    "Ġcloser": 4854,
    "ificial": 4855,
    "Ġhunting": 4856,
    "Ġir": 4857,
    "Ġemploy": 4858,
    "ĠMichigan": 4859,
    "Ġinstance": 4860,
    "ĠAlbert": 4861,
    "othic": 4862,
    "Ġappo": 4863,
    "Ġterror": 4864,
    "ĠFer": 4865,
    "ĠTreat": 4866,
    "Ġissues": 4867,
    "ĠCD": 4868,
    "Ġprotein": 4869,
    "pool": 4870,
    "FA": 4871,
    "Ġelectrical": 4872,
    "Ġvoice": 4873,
    "ĠClub": 4874,
    "Ġtraining": 4875,
    "Ġdoll": 4876,
    "Ġstadium": 4877,
    "ĠHugo": 4878,
    "oa": 4879,
    "ĠCatherine": 4880,
    "Ġ1964": 4881,
    "Ġfrequency": 4882,
    "ĠAztec": 4883,
    "velt": 4884,
    "osevelt": 4885,
    "ishes": 4886,
    "ĠOrthodox": 4887,
    "Sp": 4888,
    "Before": 4889,
    "Ġinterested": 4890,
    "Ġdegrees": 4891,
    "Ġfigure": 4892,
    "umber": 4893,
    "ĠIndones": 4894,
    "ĠLiber": 4895,
    "Ġdictators": 4896,
    "aska": 4897,
    "Ġrecently": 4898,
    "Ġ1920": 4899,
    "Ġmosques": 4900,
    "Ġexists": 4901,
    "Ġexperiment": 4902,
    "Ġspin": 4903,
    "Ġroads": 4904,
    "right": 4905,
    "Ġ1981": 4906,
    "Ġstudent": 4907,
    "Ġkings": 4908,
    "Ġtox": 4909,
    "Ġnews": 4910,
    "Ġtourists": 4911,
    "Ġimprove": 4912,
    "Ġrace": 4913,
    "Ġcream": 4914,
    "ĠIllinois": 4915,
    "ĠKÃ¶": 4916,
    "Ġ1969": 4917,
    "Ġhonor": 4918,
    "Ġlocation": 4919,
    "Ġera": 4920,
    "Ġcopyright": 4921,
    "ometry": 4922,
    "Ġ[": 4923,
    "Ġfat": 4924,
    "ban": 4925,
    "Ġcattle": 4926,
    "Ġdistrib": 4927,
    "ĠCommonwealth": 4928,
    "ydney": 4929,
    "oo": 4930,
    "Ġseeds": 4931,
    "Ġsettle": 4932,
    "ĠSummer": 4933,
    "ĠEr": 4934,
    "ĠTestament": 4935,
    "Ġalone": 4936,
    "Ġbelief": 4937,
    "ĠCaribbe": 4938,
    "ĠOthers": 4939,
    "ua": 4940,
    "agn": 4941,
    "ston": 4942,
    "Ġbright": 4943,
    "ĠNeptune": 4944,
    "Ġrecognized": 4945,
    "ĠVienna": 4946,
    "Ġtheories": 4947,
    "Ġfully": 4948,
    "ĠAntar": 4949,
    "Ġtropical": 4950,
    "Ġmagazine": 4951,
    "Ġcelebrated": 4952,
    "Ġpers": 4953,
    "Ġ1800": 4954,
    "Ġglobal": 4955,
    "Ġconsist": 4956,
    "Ġbroken": 4957,
    "Ġmunicip": 4958,
    "From": 4959,
    "Ġmechanics": 4960,
    "Ġdesert": 4961,
    "Ġflood": 4962,
    "ĠVenus": 4963,
    "Ġfresh": 4964,
    "ancial": 4965,
    "Ġparticip": 4966,
    "Ġemer": 4967,
    "Ġapplic": 4968,
    "Ġphilosophers": 4969,
    "Ġphysic": 4970,
    "ĠWay": 4971,
    "iolet": 4972,
    "Ġlaunched": 4973,
    "emic": 4974,
    "Ã³": 4975,
    "wich": 4976,
    "roat": 4977,
    "Ġcomposers": 4978,
    "Ġurban": 4979,
    "Ġclassification": 4980,
    "ĠMot": 4981,
    "Ġorganic": 4982,
    "Ġreplace": 4983,
    "Ġmultiple": 4984,
    "ĠEver": 4985,
    "ĠIceland": 4986,
    "ĠGar": 4987,
    "Ġappears": 4988,
    "Ġpack": 4989,
    "ĠBalt": 4990,
    "Ġminister": 4991,
    "ements": 4992,
    "Ġdirector": 4993,
    "Ġrestaur": 4994,
    "Ġpus": 4995,
    "okyo": 4996,
    "ita": 4997,
    "ĠMuseum": 4998,
    "ĠNixon": 4999,
    "arus": 5000,
    "45": 5001,
    "Ġdisag": 5002,
    "Ġmixture": 5003,
    "Ġcontrib": 5004,
    "Ġtalking": 5005,
    "Ġrise": 5006,
    "change": 5007,
    "Ġfarmers": 5008,
    "Ġresist": 5009,
    "Ġdemocratic": 5010,
    "east": 5011,
    "Le": 5012,
    "Sometimes": 5013,
    "Ġheard": 5014,
    "Ġconcept": 5015,
    "ĠCaribbean": 5016,
    "Ġadopted": 5017,
    "Ġconstruction": 5018,
    "made": 5019,
    "Although": 5020,
    "ĠGalile": 5021,
    "Ġvisible": 5022,
    "Ġwave": 5023,
    "Ġtun": 5024,
    "Ġdecor": 5025,
    "Ġfifth": 5026,
    "Ġhighly": 5027,
    "Ġhistorical": 5028,
    "Ġpartly": 5029,
    "Ġdevice": 5030,
    "Ġbor": 5031,
    "iverpool": 5032,
    "Ġharm": 5033,
    "Ph": 5034,
    "Ġbound": 5035,
    "elve": 5036,
    "Ġoccupied": 5037,
    "Ġhealthy": 5038,
    "Ġ1968": 5039,
    "Ġdepression": 5040,
    "Ġfemales": 5041,
    "DS": 5042,
    "ability": 5043,
    "Ġvitamin": 5044,
    "Ġpup": 5045,
    "nal": 5046,
    "Ġcondition": 5047,
    "Ġvice": 5048,
    "issipp": 5049,
    "Ġautism": 5050,
    "ĠJulian": 5051,
    "Ġspring": 5052,
    "Ġflowers": 5053,
    "Ġemot": 5054,
    "car": 5055,
    "Ġstored": 5056,
    "ĠCanadian": 5057,
    "Ġfoods": 5058,
    "ctors": 5059,
    "Ġterritories": 5060,
    "ĠBBC": 5061,
    "mouth": 5062,
    "aped": 5063,
    "Ġspoke": 5064,
    "ises": 5065,
    "However": 5066,
    "23": 5067,
    "Ġbranches": 5068,
    "rix": 5069,
    "ĠUniverse": 5070,
    "ĠThose": 5071,
    "Ġsites": 5072,
    "Pl": 5073,
    "Ġbones": 5074,
    "Ġkilometers": 5075,
    "ird": 5076,
    "Ġnecess": 5077,
    "Ġrepe": 5078,
    "Ġauthority": 5079,
    "ĠTaiwan": 5080,
    "Ġarticle": 5081,
    "Ġsurrounded": 5082,
    "rovers": 5083,
    "ĠLuther": 5084,
    "ĠTime": 5085,
    "imately": 5086,
    "Ġsac": 5087,
    "ĠBill": 5088,
    "Ġwet": 5089,
    "ĠMoon": 5090,
    "thes": 5091,
    "Ġmetropolitan": 5092,
    "Ġfinally": 5093,
    "Ġitems": 5094,
    "Ġstep": 5095,
    "uer": 5096,
    "ĠLord": 5097,
    "Ġmanager": 5098,
    "Ġkimono": 5099,
    "Ġopening": 5100,
    "ĠCaesar": 5101,
    "angel": 5102,
    "Ġdip": 5103,
    "Ġsignificant": 5104,
    "Ġcry": 5105,
    "pro": 5106,
    "ĠCam": 5107,
    "rig": 5108,
    "igen": 5109,
    "Ġplat": 5110,
    "Ġsettled": 5111,
    "Ġbread": 5112,
    "ĠGrand": 5113,
    "iable": 5114,
    "ĠBol": 5115,
    "25": 5116,
    "Ġturns": 5117,
    "onents": 5118,
    "Ġstronger": 5119,
    "life": 5120,
    "no": 5121,
    "inosaur": 5122,
    "Ġmarry": 5123,
    "Ġsucceed": 5124,
    "ĠCzech": 5125,
    "ocked": 5126,
    "bec": 5127,
    "Ġupper": 5128,
    "ĠUN": 5129,
    "Ġmusician": 5130,
    "Ġstrip": 5131,
    "Ġslave": 5132,
    "more": 5133,
    "Ġcheck": 5134,
    "ciple": 5135,
    "Ġinhabitants": 5136,
    "Ġsn": 5137,
    "bury": 5138,
    "Ġwebsite": 5139,
    "ĠThree": 5140,
    "Ġple": 5141,
    "Ġbul": 5142,
    "ulation": 5143,
    "Ġfactors": 5144,
    "phib": 5145,
    "IV": 5146,
    "Ġunderground": 5147,
    "ĠStr": 5148,
    "box": 5149,
    "ylv": 5150,
    "issippi": 5151,
    "ĠIE": 5152,
    "Ġcreating": 5153,
    "Ġperformance": 5154,
    "Ġpollution": 5155,
    "obe": 5156,
    "Ġfarms": 5157,
    "ĠGovernor": 5158,
    "Ġ1982": 5159,
    "Ġlimit": 5160,
    "Ġhits": 5161,
    "aria": 5162,
    "Ġassociated": 5163,
    "elled": 5164,
    "Ġult": 5165,
    "Ġopt": 5166,
    "Ġcats": 5167,
    "anda": 5168,
    "anz": 5169,
    "Ġdevices": 5170,
    "ference": 5171,
    "Ġpick": 5172,
    "Ġdisplay": 5173,
    "Ġcontrovers": 5174,
    "Ġapprox": 5175,
    "Ġfloor": 5176,
    "ĠFil": 5177,
    "ĠLat": 5178,
    "Ġacids": 5179,
    "irds": 5180,
    "sembly": 5181,
    "cher": 5182,
    "ĠMax": 5183,
    "ĠEthiopia": 5184,
    "idency": 5185,
    "Ġsurgery": 5186,
    "minem": 5187,
    "Ġdivision": 5188,
    "ĠGreeks": 5189,
    "Ġestimated": 5190,
    "Ġbreast": 5191,
    "She": 5192,
    "Ġfarming": 5193,
    "orses": 5194,
    "ening": 5195,
    "Ġfelt": 5196,
    "ala": 5197,
    "Ġbene": 5198,
    "Ġopin": 5199,
    "itch": 5200,
    "celer": 5201,
    "Ġbom": 5202,
    "Ġchlor": 5203,
    "Ġstudying": 5204,
    "Ġarrest": 5205,
    "ohann": 5206,
    "Ġconflic": 5207,
    "Ġrout": 5208,
    "etween": 5209,
    "ovak": 5210,
    "...": 5211,
    "Ġtherefore": 5212,
    "Ġprofessional": 5213,
    "annel": 5214,
    "ĠIm": 5215,
    "Ġelectronic": 5216,
    "ĠHere": 5217,
    "Ġvoc": 5218,
    "ocrates": 5219,
    "reg": 5220,
    "De": 5221,
    "ĠKenn": 5222,
    "ket": 5223,
    "ĠSpe": 5224,
    "ĠOb": 5225,
    "ĠStreet": 5226,
    "Ġfair": 5227,
    "rough": 5228,
    "Ġpromot": 5229,
    "orms": 5230,
    "hess": 5231,
    "Ġfans": 5232,
    "anders": 5233,
    "ĠTown": 5234,
    "burgh": 5235,
    "ĠLennon": 5236,
    "Ġ153": 5237,
    "Ġproduces": 5238,
    "udity": 5239,
    "ĠBoy": 5240,
    "ĠGrammy": 5241,
    "ĠKe": 5242,
    "Ġhoriz": 5243,
    "ping": 5244,
    "Ġagreement": 5245,
    "Ġax": 5246,
    "ĠTherefore": 5247,
    "Ġ400": 5248,
    "ĠElect": 5249,
    "Ġfixed": 5250,
    "Ġdens": 5251,
    "Ġexisted": 5252,
    "anding": 5253,
    "Ġnort": 5254,
    "olves": 5255,
    "Ġdecade": 5256,
    "inet": 5257,
    "ĠSant": 5258,
    "Ġentered": 5259,
    "Ġpig": 5260,
    "istrict": 5261,
    "ctica": 5262,
    "Ġdomin": 5263,
    "ĠHill": 5264,
    "Ġdistrict": 5265,
    "Ġbehavior": 5266,
    "otle": 5267,
    "Ġinfin": 5268,
    "enh": 5269,
    "Ġ1971": 5270,
    "Ġclasses": 5271,
    "ĠGulf": 5272,
    "eg": 5273,
    "ĠPhilippines": 5274,
    "ĠRoosevelt": 5275,
    "ĠFire": 5276,
    "ĠOx": 5277,
    "erman": 5278,
    "onstr": 5279,
    "Ġsupply": 5280,
    "Ġfishing": 5281,
    "ĠOften": 5282,
    "ĠAssoci": 5283,
    "Ġbeat": 5284,
    "col": 5285,
    "Ġopera": 5286,
    "ĠUnlike": 5287,
    "Ġchocolate": 5288,
    "Ġaltern": 5289,
    "yond": 5290,
    "Ġneutrons": 5291,
    "Ġstable": 5292,
    "Ġnotes": 5293,
    "ontin": 5294,
    "Ġgained": 5295,
    "Ġwhom": 5296,
    "ĠTreaty": 5297,
    "Ġtiss": 5298,
    "Ġinstructions": 5299,
    "Ġsand": 5300,
    "Ġgreater": 5301,
    "Ġcorn": 5302,
    "Ġprint": 5303,
    "Ġtarget": 5304,
    "Ġharder": 5305,
    "Ġtrial": 5306,
    "Ġvegetables": 5307,
    "Ġengines": 5308,
    "Ġ1987": 5309,
    "ufact": 5310,
    "John": 5311,
    "ĠOl": 5312,
    "Ġdouble": 5313,
    "ĠGame": 5314,
    "ĠClinton": 5315,
    "Ġbreat": 5316,
    "Ġrap": 5317,
    "utive": 5318,
    "ĠHungary": 5319,
    "Ġ1986": 5320,
    "Ġshar": 5321,
    "By": 5322,
    "Ġbrothers": 5323,
    "ĠNavy": 5324,
    "Ġunion": 5325,
    "iced": 5326,
    "Ġphrase": 5327,
    "brew": 5328,
    "Ġdesc": 5329,
    "eoples": 5330,
    "ĠArgent": 5331,
    "wise": 5332,
    "ĠHawaii": 5333,
    "rent": 5334,
    "va": 5335,
    "Ġtwenty": 5336,
    "iams": 5337,
    "sey": 5338,
    "quarters": 5339,
    "ĠGermans": 5340,
    "Ġnarr": 5341,
    "Ġ1977": 5342,
    "Ġcurrency": 5343,
    "Ġplanned": 5344,
    "izing": 5345,
    "ault": 5346,
    "ably": 5347,
    "Ġcomic": 5348,
    "Ġjazz": 5349,
    "pan": 5350,
    "Ġfuneral": 5351,
    "Ġarticles": 5352,
    "Ġverbs": 5353,
    "Ġpolitician": 5354,
    "Ġbrown": 5355,
    "ĠUkraine": 5356,
    "Ġdiet": 5357,
    "ĠId": 5358,
    "His": 5359,
    "uerto": 5360,
    "ĠMusic": 5361,
    "ĠMississippi": 5362,
    "Ġtherap": 5363,
    "Ġplastic": 5364,
    "Ġsens": 5365,
    "sec": 5366,
    "ĠFar": 5367,
    "Ġloss": 5368,
    "Ġ178": 5369,
    "Ġwealth": 5370,
    "ĠDep": 5371,
    "ĠSenate": 5372,
    "Ġactors": 5373,
    "Ġimmigrants": 5374,
    "Ġroll": 5375,
    "ampionship": 5376,
    "Ġsemi": 5377,
    "ĠNA": 5378,
    "Ġescape": 5379,
    "Ġfal": 5380,
    "Tr": 5381,
    "from": 5382,
    "Ġorb": 5383,
    "Ġhop": 5384,
    "Ġpull": 5385,
    "ĠSim": 5386,
    "Ġcycle": 5387,
    "etime": 5388,
    "assical": 5389,
    "itals": 5390,
    "Ġpurposes": 5391,
    "mar": 5392,
    "Ġbusinesses": 5393,
    "Ġ1976": 5394,
    "Ġappointed": 5395,
    "Ġadapt": 5396,
    "ĠReg": 5397,
    "Ġspeakers": 5398,
    "Ġadject": 5399,
    "ĠBarb": 5400,
    "Ġthrow": 5401,
    "Sh": 5402,
    "ibility": 5403,
    "Ġcastle": 5404,
    "ali": 5405,
    "aco": 5406,
    "Ġ1984": 5407,
    "Ġmanufact": 5408,
    "Ġunderstood": 5409,
    "ombia": 5410,
    "Star": 5411,
    "Ġ1983": 5412,
    "fort": 5413,
    "Ġconcert": 5414,
    "ĠStep": 5415,
    "Ġaudi": 5416,
    "yles": 5417,
    "isation": 5418,
    "Ġchick": 5419,
    "Ġrequire": 5420,
    "Ġcrimes": 5421,
    "ockey": 5422,
    "house": 5423,
    "ieval": 5424,
    "Ġpeoples": 5425,
    "Ġextremely": 5426,
    "Ġfruits": 5427,
    "Ġcharged": 5428,
    "Ġexistence": 5429,
    "encies": 5430,
    "idges": 5431,
    "cript": 5432,
    "Ġimmune": 5433,
    "ĠLiverpool": 5434,
    "Ġlack": 5435,
    "heim": 5436,
    "Ġrainforest": 5437,
    "Ġfort": 5438,
    "65": 5439,
    "Ġ1965": 5440,
    "ĠSecretary": 5441,
    "Ġdanc": 5442,
    "tes": 5443,
    "ĠNazis": 5444,
    "Ġruler": 5445,
    "Ġmatch": 5446,
    "urs": 5447,
    "DP": 5448,
    "wing": 5449,
    "OS": 5450,
    "attan": 5451,
    "ĠSomers": 5452,
    "ĠSomerset": 5453,
    "zerbai": 5454,
    "zerbaijan": 5455,
    "Ġ45": 5456,
    "Ġnudity": 5457,
    "ef": 5458,
    "Ġ1900": 5459,
    "Ġmathematic": 5460,
    "Ġsinging": 5461,
    "Ġlat": 5462,
    "Ġpolicy": 5463,
    "Ġextens": 5464,
    "Ġanswer": 5465,
    "ĠSydney": 5466,
    "Ġcombined": 5467,
    "Ġvoted": 5468,
    "Ġviolence": 5469,
    "omagn": 5470,
    "Ġelectromagn": 5471,
    "Ġsuggested": 5472,
    "Ġions": 5473,
    "Ġconver": 5474,
    "ĠBig": 5475,
    "ĠArist": 5476,
    "ĠAv": 5477,
    "ĠColor": 5478,
    "state": 5479,
    "ivision": 5480,
    "ivores": 5481,
    "Ġfossil": 5482,
    "orial": 5483,
    "Ġfund": 5484,
    "Ġcrust": 5485,
    "Ġrice": 5486,
    "ĠAthen": 5487,
    "enger": 5488,
    "Ġgirls": 5489,
    "Ġbanks": 5490,
    "room": 5491,
    "lets": 5492,
    "ĠHinduism": 5493,
    "Ġfinancial": 5494,
    "ĠMont": 5495,
    "Ġlicense": 5496,
    "gency": 5497,
    "rag": 5498,
    "Ġ1985": 5499,
    "Ġgeneration": 5500,
    "orning": 5501,
    "ylvania": 5502,
    "atch": 5503,
    "osta": 5504,
    "Ġdivorced": 5505,
    "Ġsingles": 5506,
    "onn": 5507,
    "las": 5508,
    "Ġdust": 5509,
    "Ġcommercial": 5510,
    "ĠGovernment": 5511,
    "mers": 5512,
    "ĠPo": 5513,
    "Ġcolonies": 5514,
    "21": 5515,
    "ĠDar": 5516,
    "avia": 5517,
    "mith": 5518,
    "Ġcooking": 5519,
    "vation": 5520,
    "Ġfactories": 5521,
    "Ġtrading": 5522,
    "Ġspelling": 5523,
    "Ġshorter": 5524,
    "Ġdescribes": 5525,
    "Ġreve": 5526,
    "Ġshared": 5527,
    "Ġslightly": 5528,
    "Ġdiameter": 5529,
    "22": 5530,
    "Ġreflect": 5531,
    "Ġbeyond": 5532,
    "Ġchemistry": 5533,
    "Ġcolours": 5534,
    "ymph": 5535,
    "araoh": 5536,
    "ĠRhine": 5537,
    "ĠSocialist": 5538,
    "tebr": 5539,
    "Ġavoid": 5540,
    "odium": 5541,
    "Ġtouch": 5542,
    "Ġinst": 5543,
    "Ġfaith": 5544,
    "Ġnouns": 5545,
    "ĠPrussia": 5546,
    "ota": 5547,
    "Ã¦": 5548,
    "Ġaircraft": 5549,
    "velength": 5550,
    "Ġwavelength": 5551,
    "Ġhistorians": 5552,
    "itanic": 5553,
    "och": 5554,
    "ĠPremier": 5555,
    "Ġlasted": 5556,
    "Ġflight": 5557,
    "ĠKent": 5558,
    "Ġstarred": 5559,
    "ĠMandela": 5560,
    "iven": 5561,
    "Ġpoetry": 5562,
    "Ġ1978": 5563,
    "Ġbill": 5564,
    "Ġhorses": 5565,
    "Ġprovides": 5566,
    "Ġmathematical": 5567,
    "Ġissue": 5568,
    "Ġmap": 5569,
    "ĠMalays": 5570,
    "based": 5571,
    "Ġprincip": 5572,
    "aism": 5573,
    "Ġteaching": 5574,
    "stan": 5575,
    "Ġcore": 5576,
    "Ġtool": 5577,
    "ĠModern": 5578,
    "arly": 5579,
    "Ġremove": 5580,
    "Ġreduce": 5581,
    "Ġacceler": 5582,
    "Ġbonds": 5583,
    "Ġhelium": 5584,
    "Ġstreng": 5585,
    "Ġmagnetic": 5586,
    "Ġcos": 5587,
    "Ġaccur": 5588,
    "itational": 5589,
    "ĠGothic": 5590,
    "ging": 5591,
    "ries": 5592,
    "wers": 5593,
    "Ġrat": 5594,
    "Ġinternet": 5595,
    "Ġcateg": 5596,
    "top": 5597,
    "Ġreceive": 5598,
    "ĠVIII": 5599,
    "Ġprinted": 5600,
    "ĠMexican": 5601,
    "olute": 5602,
    "stitute": 5603,
    "Ġprice": 5604,
    "anned": 5605,
    "arians": 5606,
    "ĠJr": 5607,
    "Ġsyll": 5608,
    "Ġmut": 5609,
    "Ġconcent": 5610,
    "Ġoxid": 5611,
    "ĠWater": 5612,
    "Ġroles": 5613,
    "ĠCour": 5614,
    "Ġinn": 5615,
    "Ġprefect": 5616,
    "nowiki": 5617,
    "ethoven": 5618,
    "Ġpark": 5619,
    "ĠShow": 5620,
    "ĠEminem": 5621,
    "Ġemperor": 5622,
    "Ġbasis": 5623,
    "Ġtiny": 5624,
    "Ġfewer": 5625,
    "tical": 5626,
    "ysis": 5627,
    "Ġhomosexual": 5628,
    "ĠAmericas": 5629,
    "Ġbreed": 5630,
    "Ġquality": 5631,
    "ĠTom": 5632,
    "igenous": 5633,
    "Ġmining": 5634,
    "anged": 5635,
    "Ġdictatorship": 5636,
    "Ġfolk": 5637,
    "Ġshr": 5638,
    "ĠMoses": 5639,
    "Ġspeaking": 5640,
    "According": 5641,
    "Ġflav": 5642,
    "Ġdepend": 5643,
    "Ġmolecule": 5644,
    "Ġspect": 5645,
    "Ġfart": 5646,
    "rum": 5647,
    "Ġastronomy": 5648,
    "Ġallowing": 5649,
    "Ġdigital": 5650,
    "ini": 5651,
    "Cl": 5652,
    "ĠMong": 5653,
    "Ġreign": 5654,
    "Fr": 5655,
    "Ġdrives": 5656,
    "ĠOnce": 5657,
    "unt": 5658,
    "Ġperfect": 5659,
    "Ġbrowser": 5660,
    "king": 5661,
    "Ġ)": 5662,
    "Ġshowing": 5663,
    "ĠAnt": 5664,
    "Ġmercury": 5665,
    "ĠAntarctica": 5666,
    "Ġdistinct": 5667,
    "Ġsupposed": 5668,
    "Ġchose": 5669,
    "ĠHebrew": 5670,
    "ĠWik": 5671,
    "oly": 5672,
    "Ġinfection": 5673,
    "Ġinit": 5674,
    "Ġaffected": 5675,
    "Ġ1953": 5676,
    "Ġplane": 5677,
    "Ġcondom": 5678,
    "Ġsteam": 5679,
    "rm": 5680,
    "Ġhappy": 5681,
    "ĠAdams": 5682,
    "ĠRob": 5683,
    "Ġgradu": 5684,
    "Ġtea": 5685,
    "Ġ35": 5686,
    "dess": 5687,
    "Ġclay": 5688,
    "ĠSir": 5689,
    "Ġnitrogen": 5690,
    "Ġlun": 5691,
    "Ġincreasing": 5692,
    "Ġcommunities": 5693,
    "Ġintellig": 5694,
    "Ġsav": 5695,
    "ĠSmith": 5696,
    "Ġherb": 5697,
    "place": 5698,
    "Ġperhaps": 5699,
    "Ġmainland": 5700,
    "ĠAssociation": 5701,
    "Ġencoura": 5702,
    "Ġmeeting": 5703,
    "ricket": 5704,
    "Ġess": 5705,
    "Ġcreation": 5706,
    "ĠPersian": 5707,
    "Ab": 5708,
    "66": 5709,
    "icated": 5710,
    "Ġtraditions": 5711,
    "Ġexperiments": 5712,
    "Ġphilosopher": 5713,
    "Ġcompound": 5714,
    "Ġsolar": 5715,
    "ighter": 5716,
    "Ġdense": 5717,
    "ĠCathedral": 5718,
    "Ġorganization": 5719,
    "aled": 5720,
    "Ġconsists": 5721,
    "Ġfeathers": 5722,
    "Ġowners": 5723,
    "Ġattention": 5724,
    "ĠYear": 5725,
    "Com": 5726,
    "Ġreading": 5727,
    "Ġsecurity": 5728,
    "sole": 5729,
    "Ġcontinu": 5730,
    "Ġprinciple": 5731,
    "Ġcourse": 5732,
    "Ġped": 5733,
    "Ġhour": 5734,
    "Ġteacher": 5735,
    "ĠMarg": 5736,
    "Ã¦dia": 5737,
    "Ġaff": 5738,
    "Ġconcentr": 5739,
    "ĠTokyo": 5740,
    "Ġfossils": 5741,
    "Ġshop": 5742,
    "Ġhall": 5743,
    "198": 5744,
    "ouri": 5745,
    "ĠMissouri": 5746,
    "Ġsubjects": 5747,
    "Ġcontinental": 5748,
    "Ġartificial": 5749,
    "Ġpunish": 5750,
    "vest": 5751,
    "Ġsafety": 5752,
    "Ġflower": 5753,
    "ĠTer": 5754,
    "ĠAbraham": 5755,
    "Ġbond": 5756,
    "atur": 5757,
    "Ġorganized": 5758,
    "Ġgalaxy": 5759,
    "Ġcamera": 5760,
    "ĠSeveral": 5761,
    "Ġcompleted": 5762,
    "arent": 5763,
    "largest": 5764,
    "Ġtex": 5765,
    "ader": 5766,
    "%.": 5767,
    "Ġclubs": 5768,
    "Ġcompar": 5769,
    "Eng": 5770,
    "ĠHan": 5771,
    "ĠFam": 5772,
    "Ġcircum": 5773,
    "Ġroof": 5774,
    "Ġguns": 5775,
    "ĠKennedy": 5776,
    "Ġrh": 5777,
    "Ġbasket": 5778,
    "Ġonline": 5779,
    "Ġstands": 5780,
    "ydr": 5781,
    "Ġencyclop": 5782,
    "Ġbed": 5783,
    "Ġfib": 5784,
    "ĠStalin": 5785,
    "Ġclosed": 5786,
    "ĠBuddha": 5787,
    "ĠMy": 5788,
    "Ġnominated": 5789,
    "ĠPalace": 5790,
    "inger": 5791,
    "Ġ1967": 5792,
    "ĠOS": 5793,
    "Ġnaked": 5794,
    "BS": 5795,
    "hattan": 5796,
    "Ġ1963": 5797,
    "Ġmessage": 5798,
    "Ġpregnant": 5799,
    "Ġpure": 5800,
    "ĠVictoria": 5801,
    "omer": 5802,
    "Ġstreets": 5803,
    "otic": 5804,
    "ĠOttoman": 5805,
    "Ġdaily": 5806,
    "Ġentirely": 5807,
    "ĠAngel": 5808,
    "Ġ;": 5809,
    "Ġwheel": 5810,
    "Ġmetap": 5811,
    "Ġhy": 5812,
    "Ġexplos": 5813,
    "Ġformal": 5814,
    "ĠJones": 5815,
    "Ġorgans": 5816,
    "Ġdinosaur": 5817,
    "hi": 5818,
    "ĠSerbia": 5819,
    "Ġflash": 5820,
    "Ġconsum": 5821,
    "Ġproteins": 5822,
    "speaking": 5823,
    "porary": 5824,
    "ĠTour": 5825,
    "ĠPortugal": 5826,
    "Ġvehicles": 5827,
    "formation": 5828,
    "Ġseat": 5829,
    "ĠAut": 5830,
    "vention": 5831,
    "ĠMet": 5832,
    "head": 5833,
    "Ġathe": 5834,
    "Ġsleep": 5835,
    "annica": 5836,
    "back": 5837,
    "ville": 5838,
    "onto": 5839,
    "ĠColombia": 5840,
    "ĠKy": 5841,
    "pped": 5842,
    "ĠPuerto": 5843,
    "ĠBor": 5844,
    "ppen": 5845,
    "ĠLis": 5846,
    "ĠAlb": 5847,
    "Ġstrugg": 5848,
    "ĠAzerbaijan": 5849,
    "onder": 5850,
    "ĠTre": 5851,
    "ingway": 5852,
    "Mario": 5853,
    "ĠAsian": 5854,
    "Ġsixth": 5855,
    "Ġprotected": 5856,
    "Ġstores": 5857,
    "Ġ1947": 5858,
    "\";": 5859,
    "bian": 5860,
    "Ġvan": 5861,
    "Ġdirected": 5862,
    "phone": 5863,
    "erus": 5864,
    "Ġneutral": 5865,
    "Ġschol": 5866,
    "wall": 5867,
    "Ġequations": 5868,
    "Ġshell": 5869,
    "Ġlowest": 5870,
    "Ġclosely": 5871,
    "Eur": 5872,
    "Ġ1000": 5873,
    "ographic": 5874,
    "iance": 5875,
    "Ġrefused": 5876,
    "oper": 5877,
    "ĠIndepend": 5878,
    "Ġdocument": 5879,
    "Ġunless": 5880,
    "Ġalive": 5881,
    "ĠWeb": 5882,
    "Ġcred": 5883,
    "million": 5884,
    "Ġfilms": 5885,
    "Ġowner": 5886,
    "ipped": 5887,
    "Ġplans": 5888,
    "Ġshaped": 5889,
    "Ġprime": 5890,
    "VD": 5891,
    "Ġbehavi": 5892,
    "ĠNapole": 5893,
    "Ġscore": 5894,
    "Ġ(;": 5895,
    "itness": 5896,
    "Ġ32": 5897,
    "ĠManhattan": 5898,
    "Ġdoor": 5899,
    "rey": 5900,
    "ĠBelarus": 5901,
    "Ġpresidency": 5902,
    "ĠMarvin": 5903,
    "ĠSunday": 5904,
    "Ġwindows": 5905,
    "angelo": 5906,
    "Ġimag": 5907,
    "ĠBrown": 5908,
    "imum": 5909,
    "Ġfertil": 5910,
    "Ġegg": 5911,
    "asia": 5912,
    "Gen": 5913,
    "Ġcensus": 5914,
    "ĠLand": 5915,
    "Ġ1949": 5916,
    "Ġranked": 5917,
    "Ġlose": 5918,
    "ĠTa": 5919,
    "ĠArgentina": 5920,
    "mi": 5921,
    "With": 5922,
    "Ġfinding": 5923,
    "Ġidentity": 5924,
    "Ġ177": 5925,
    "ois": 5926,
    "Ġdensity": 5927,
    "Ġperman": 5928,
    "Ġsection": 5929,
    "Ġtend": 5930,
    "ĠStud": 5931,
    "rete": 5932,
    "Ġrulers": 5933,
    "ĠCommunist": 5934,
    "ĠArabia": 5935,
    "agu": 5936,
    "arily": 5937,
    "zi": 5938,
    "din": 5939,
    "Â²": 5940,
    "ĠCons": 5941,
    "ĠPole": 5942,
    "Ġparks": 5943,
    "Ġholiday": 5944,
    ");": 5945,
    "oured": 5946,
    "ĠHot": 5947,
    "Ġlisted": 5948,
    "Ġages": 5949,
    "Ġskills": 5950,
    "Ġscript": 5951,
    "Ġserve": 5952,
    "Ġnewspaper": 5953,
    "otton": 5954,
    "ĠPenn": 5955,
    "uania": 5956,
    "ĠGrant": 5957,
    "ĠHemisphere": 5958,
    "Ġstyles": 5959,
    "Ġnote": 5960,
    "Ġapple": 5961,
    "Ġagriculture": 5962,
    "90": 5963,
    "vere": 5964,
    "27": 5965,
    "ĠIndonesia": 5966,
    "Ġfine": 5967,
    "Ġ1972": 5968,
    "ĠFederal": 5969,
    "lywood": 5970,
    "Ġ1956": 5971,
    "engers": 5972,
    "Ġparticularly": 5973,
    "Ġhero": 5974,
    "Ġsevent": 5975,
    "Ġdeveloping": 5976,
    "Ġrarely": 5977,
    "ĠOrgan": 5978,
    "Ġtranslated": 5979,
    "Ġisotopes": 5980,
    "Ġion": 5981,
    "Ġclouds": 5982,
    "ĠBang": 5983,
    "ciences": 5984,
    "ĠJohann": 5985,
    "Ġsatell": 5986,
    "Ġsouthwest": 5987,
    "Ġneighbor": 5988,
    "Ġsigns": 5989,
    "oung": 5990,
    "Ġmob": 5991,
    "bl": 5992,
    "ios": 5993,
    "Ġsoap": 5994,
    "ĠCarol": 5995,
    "ĠMedic": 5996,
    "Ġpoly": 5997,
    "Ġexport": 5998,
    "Ġboat": 5999,
    "ictionary": 6000,
    "Ġrit": 6001,
    "uins": 6002,
    "ĠVol": 6003,
    "ĠJohnson": 6004,
    "Ġ1961": 6005,
    "Ġtwelve": 6006,
    "Ġlies": 6007,
    "Ġenemy": 6008,
    "ĠBaltic": 6009,
    "Ġdifferently": 6010,
    "ĠInter": 6011,
    "Ġarms": 6012,
    "off": 6013,
    "Ġmorning": 6014,
    "Will": 6015,
    "epsi": 6016,
    "Ġvag": 6017,
    "ivals": 6018,
    "gebra": 6019,
    "Ġgeometry": 6020,
    "197": 6021,
    "So": 6022,
    "Ġkeeping": 6023,
    "ĠValley": 6024,
    "Ġsuit": 6025,
    "Ġhomes": 6026,
    "Ġpil": 6027,
    "aling": 6028,
    "olk": 6029,
    "While": 6030,
    "Ġnewspapers": 6031,
    "Ġ1962": 6032,
    "Ġoccurs": 6033,
    "ĠTen": 6034,
    "cious": 6035,
    "tles": 6036,
    "Ġgrows": 6037,
    "Ġcollection": 6038,
    "Ġvalues": 6039,
    "Ġending": 6040,
    "ĠScientists": 6041,
    "active": 6042,
    "Ġstated": 6043,
    "Ġimages": 6044,
    "Ġassist": 6045,
    "heastern": 6046,
    "Ġresponsible": 6047,
    "Ġindividuals": 6048,
    "Ġdeaths": 6049,
    "Ġnotable": 6050,
    "Ġcomposer": 6051,
    "ĠDistrict": 6052,
    "Ġlayers": 6053,
    "Ġlinked": 6054,
    "ĠAristotle": 6055,
    "Ġunus": 6056,
    "Ġprovided": 6057,
    "ĠInc": 6058,
    "Ġextinct": 6059,
    "oons": 6060,
    "Ġgene": 6061,
    "Ġmarked": 6062,
    "Ġrob": 6063,
    "Ġexplan": 6064,
    "ĠFort": 6065,
    "ĠBeethoven": 6066,
    "Ġdog": 6067,
    "ĠXbox": 6068,
    "Ġceremony": 6069,
    "ĠOno": 6070,
    "Ġstrings": 6071,
    "ls": 6072,
    "Ġimpact": 6073,
    "Ġcomposed": 6074,
    "Ġrapid": 6075,
    "ĠCountr": 6076,
    "Ġconv": 6077,
    "ittle": 6078,
    "Ad": 6079,
    "ĠSyr": 6080,
    "Ġgenetic": 6081,
    "vereign": 6082,
    "Ġstream": 6083,
    "Ġ1941": 6084,
    "ĠKim": 6085,
    "ĠKen": 6086,
    "ĠJack": 6087,
    "Ġathlet": 6088,
    "Ġkeeps": 6089,
    "Ġcombination": 6090,
    "SA": 6091,
    "oub": 6092,
    "Ġcrown": 6093,
    "Ġfollowers": 6094,
    "ysics": 6095,
    "Ġelectromagnetic": 6096,
    "Ġjump": 6097,
    "ranus": 6098,
    "Ġgravitational": 6099,
    "odern": 6100,
    "Ġarchae": 6101,
    "Ġgiant": 6102,
    "Ġtrained": 6103,
    "ĠColorado": 6104,
    "tered": 6105,
    "Ġactions": 6106,
    "Ġfalls": 6107,
    "uis": 6108,
    "ĠJust": 6109,
    "Ġtoxic": 6110,
    "IA": 6111,
    "anchester": 6112,
    "Ġchall": 6113,
    "sex": 6114,
    "ucted": 6115,
    "sequ": 6116,
    "Ġviews": 6117,
    "Ġexplained": 6118,
    "chers": 6119,
    "Ġunlike": 6120,
    "ns": 6121,
    "Ġincome": 6122,
    "thesis": 6123,
    "atican": 6124,
    "Ġconfir": 6125,
    "Ġmodels": 6126,
    "Ġ1988": 6127,
    "omes": 6128,
    "Ġobserved": 6129,
    "ĠNormandy": 6130,
    "hio": 6131,
    "ĠServ": 6132,
    "perial": 6133,
    "uber": 6134,
    "Ġcoc": 6135,
    "ĠLao": 6136,
    "Ġcous": 6137,
    "Ġattended": 6138,
    "ĠHarr": 6139,
    "abama": 6140,
    "Ġsolo": 6141,
    "ayce": 6142,
    "ighth": 6143,
    "father": 6144,
    "Ġlabel": 6145,
    "iang": 6146,
    "ĠFree": 6147,
    "Ġproposed": 6148,
    "Ġtaste": 6149,
    "Ġsurrounding": 6150,
    "Ġmanage": 6151,
    "Ġsort": 6152,
    "Ġcareful": 6153,
    "ĠTem": 6154,
    "Ġpip": 6155,
    "Ġreject": 6156,
    "Ġapplied": 6157,
    "Ġadvanced": 6158,
    "Ġinvolve": 6159,
    "Ġsubstances": 6160,
    "rosc": 6161,
    "Ġcomplicated": 6162,
    "Ġeverywhere": 6163,
    "Ġtrack": 6164,
    "Ġspacecraft": 6165,
    "Ġdetect": 6166,
    "inder": 6167,
    "ading": 6168,
    "Ġmobile": 6169,
    "Ġordinary": 6170,
    "Ġalternative": 6171,
    "Ġprefer": 6172,
    "ims": 6173,
    "Ġheadquarters": 6174,
    "Ġcompetition": 6175,
    "Ġspend": 6176,
    "OC": 6177,
    "Ġdragon": 6178,
    "Ġcomed": 6179,
    "Ġappearance": 6180,
    "ĠJama": 6181,
    "ĠDVD": 6182,
    "Ġpeninsula": 6183,
    "Ġcann": 6184,
    "%),": 6185,
    "Ġoxide": 6186,
    "Ġnutri": 6187,
    "lowing": 6188,
    "ĠSuper": 6189,
    "Ġcyl": 6190,
    "ĠCastle": 6191,
    "ĠCourt": 6192,
    "Ġconsole": 6193,
    "ĠMec": 6194,
    "iscons": 6195,
    "isconsin": 6196,
    "Ġsen": 6197,
    "ĠBell": 6198,
    "ĠModel": 6199,
    "Ġ1966": 6200,
    "Ġamphib": 6201,
    "Ġbenef": 6202,
    "ĠLady": 6203,
    "flies": 6204,
    "ĠRecords": 6205,
    "Sup": 6206,
    "Ġnude": 6207,
    "Ġdynasty": 6208,
    "sea": 6209,
    "Ġdipl": 6210,
    "Ġdiplom": 6211,
    "Ġ1946": 6212,
    "awa": 6213,
    "Ġrepresented": 6214,
    "Ġunknown": 6215,
    "100": 6216,
    "Ġbra": 6217,
    "Ġresulted": 6218,
    "ĠJudaism": 6219,
    "Ġstatue": 6220,
    "Ġbeings": 6221,
    "itage": 6222,
    "ĠAmong": 6223,
    "ĠPeru": 6224,
    "western": 6225,
    "Ġsweet": 6226,
    "Ġfalse": 6227,
    "lying": 6228,
    "Ġfunctions": 6229,
    "Ġexpected": 6230,
    "Ġmeteor": 6231,
    "rab": 6232,
    "Ġsucceeded": 6233,
    "Ġoverth": 6234,
    "Ġarmies": 6235,
    "uz": 6236,
    "eltic": 6237,
    "Ġrelationships": 6238,
    "Ġvisitors": 6239,
    "Ġcatch": 6240,
    "ĠUSA": 6241,
    "Ġrecording": 6242,
    "con": 6243,
    "Ġhyp": 6244,
    "Ġmigr": 6245,
    "ĠKu": 6246,
    "ĠFour": 6247,
    "53": 6248,
    "set": 6249,
    "irt": 6250,
    "alty": 6251,
    "achus": 6252,
    "Ġactual": 6253,
    "ĠSocrates": 6254,
    "El": 6255,
    "Ġplates": 6256,
    "Ġvolcanoes": 6257,
    "throp": 6258,
    "akers": 6259,
    "aters": 6260,
    "Ġinterc": 6261,
    "ĠHIV": 6262,
    "ĠVI": 6263,
    "ĠPlato": 6264,
    "Ġtruth": 6265,
    "Ġmaintain": 6266,
    "Ġtower": 6267,
    "Ġprayer": 6268,
    "yme": 6269,
    "wait": 6270,
    "ĠLenin": 6271,
    "Ġpregnancy": 6272,
    "Station": 6273,
    "Ġgoddess": 6274,
    "Is": 6275,
    "eties": 6276,
    "Ġcausing": 6277,
    "Ġgreatly": 6278,
    "ĠLab": 6279,
    "Ġpet": 6280,
    "tario": 6281,
    "Ġdamaged": 6282,
    "Ġcows": 6283,
    "ext": 6284,
    "Ġdistances": 6285,
    "Ġmaps": 6286,
    "ĠMalaysia": 6287,
    "Ġcolle": 6288,
    "Ġtelling": 6289,
    "Ġseeing": 6290,
    "Ġmention": 6291,
    "Ġcandidate": 6292,
    "Ġchain": 6293,
    "Ġmeasurement": 6294,
    "Ġstrength": 6295,
    "Ġmassive": 6296,
    "raviolet": 6297,
    "Ġstructures": 6298,
    "ĠUp": 6299,
    "people": 6300,
    "Ġcivilization": 6301,
    "ĠTurk": 6302,
    "Ġmayor": 6303,
    "ovakia": 6304,
    "ĠMozart": 6305,
    "ĠAre": 6306,
    "Ġcoins": 6307,
    "ĠWilliams": 6308,
    "Ġadap": 6309,
    "Bl": 6310,
    "char": 6311,
    "Ġresident": 6312,
    "Ġsurvived": 6313,
    "Ġviolin": 6314,
    "ĠMem": 6315,
    "Ġcommunication": 6316,
    "kin": 6317,
    "Ġnecessary": 6318,
    "Ġpotential": 6319,
    "Ġsurren": 6320,
    "Ġsurrender": 6321,
    "allow": 6322,
    "Ġdestr": 6323,
    "Ġstrange": 6324,
    "Ġindic": 6325,
    "Ġdecre": 6326,
    "Ġairpl": 6327,
    "ildren": 6328,
    "Ġerupt": 6329,
    "Ġfactory": 6330,
    "Ġrecomm": 6331,
    "Ġwhales": 6332,
    "ĠOhio": 6333,
    "host": 6334,
    "ilton": 6335,
    "Ġchrom": 6336,
    "ĠFloren": 6337,
    "ĠBach": 6338,
    "ĠGand": 6339,
    "Ġelephants": 6340,
    "Ġlibrary": 6341,
    "ĠAndrew": 6342,
    "Ġdivorce": 6343,
    "Ġearned": 6344,
    "ĠEnter": 6345,
    "ĠFore": 6346,
    "ĠRonald": 6347,
    "ĠLatv": 6348,
    "ĠWonder": 6349,
    "Ġvagina": 6350,
    "ĠBil": 6351,
    "Ġmasturbation": 6352,
    "Ġtransgender": 6353,
    "Ġtheatre": 6354,
    "Ġpainted": 6355,
    "tery": 6356,
    "Ġfiction": 6357,
    "issance": 6358,
    "ĠMichelangelo": 6359,
    "Ġvow": 6360,
    "bey": 6361,
    "writer": 6362,
    "Ġdemonstr": 6363,
    "ederation": 6364,
    "Ġcontinues": 6365,
    "Ġmanaged": 6366,
    "Ġwatch": 6367,
    "Ġ160": 6368,
    "ĠBur": 6369,
    "Ġ1944": 6370,
    "ĠHow": 6371,
    "ĠNic": 6372,
    "Ġeveryday": 6373,
    "kes": 6374,
    "Ġpoem": 6375,
    "Ġproof": 6376,
    "Ġindigenous": 6377,
    "Ġoccurred": 6378,
    "Ġindustries": 6379,
    "Ġclaims": 6380,
    "ĠCornwall": 6381,
    "Ġur": 6382,
    "Ġbombs": 6383,
    "Ġphoton": 6384,
    "Ġcosm": 6385,
    "Ġsizes": 6386,
    "fr": 6387,
    "Ġrural": 6388,
    "Ġvillages": 6389,
    "Ġpolic": 6390,
    "ĠAndes": 6391,
    "orf": 6392,
    "Ġmineral": 6393,
    "Ġ1918": 6394,
    "enberg": 6395,
    "ĠChap": 6396,
    "Ġbot": 6397,
    "ĠManchester": 6398,
    "Ġcommand": 6399,
    "Ġwaste": 6400,
    "ili": 6401,
    "iling": 6402,
    "etts": 6403,
    "achusetts": 6404,
    "Ġvotes": 6405,
    "uro": 6406,
    "ĠVatican": 6407,
    "iger": 6408,
    "ĠNapoleon": 6409,
    "Ġcouncil": 6410,
    "book": 6411,
    "names": 6412,
    "vis": 6413,
    "alle": 6414,
    "Ġâ": 6415,
    "oto": 6416,
    "rid": 6417,
    "Ġbass": 6418,
    "24": 6419,
    "sylvania": 6420,
    "Ġham": 6421,
    "ylan": 6422,
    "ĠRica": 6423,
    "ĠPit": 6424,
    "uffy": 6425,
    "ĠAnn": 6426,
    "Ġarts": 6427,
    "Ġdrawing": 6428,
    "real": 6429,
    "Ġsocieties": 6430,
    "Ġfollows": 6431,
    "omach": 6432,
    "hemical": 6433,
    "Ġselection": 6434,
    "Ġthus": 6435,
    "Ġpopulated": 6436,
    "enz": 6437,
    "lyn": 6438,
    "mes": 6439,
    "South": 6440,
    "Ġtalks": 6441,
    "Ġwaters": 6442,
    "Ġdecision": 6443,
    "ĠBridge": 6444,
    "26": 6445,
    "Ġunderstanding": 6446,
    "Ġattempts": 6447,
    "ĠBank": 6448,
    "ĠEgyptian": 6449,
    "Ġgone": 6450,
    "Ġinstit": 6451,
    "Ġremaining": 6452,
    "ĠGood": 6453,
    "Ġphotos": 6454,
    "Ġvel": 6455,
    "iller": 6456,
    "andin": 6457,
    "Ġstatement": 6458,
    "Ġhills": 6459,
    "aval": 6460,
    "heimer": 6461,
    "Ġeld": 6462,
    "aly": 6463,
    "Ġfinish": 6464,
    "Ġdidn": 6465,
    "Ġroughly": 6466,
    "olics": 6467,
    "Ġabsolute": 6468,
    "Ġdefend": 6469,
    "Ġcrim": 6470,
    "Ġkilometres": 6471,
    "ĠTra": 6472,
    "Ġunusual": 6473,
    "ĠSum": 6474,
    "ante": 6475,
    "Ġdecades": 6476,
    "Ġsecondary": 6477,
    "ĠToronto": 6478,
    "Ġincreases": 6479,
    "Ġeff": 6480,
    "ogle": 6481,
    "Titanic": 6482,
    "Ġfeatured": 6483,
    "oud": 6484,
    "abbath": 6485,
    "rook": 6486,
    "Ġlogo": 6487,
    "unich": 6488,
    "Ġgardens": 6489,
    "fly": 6490,
    "ĠPlayStation": 6491,
    "exual": 6492,
    "Ġorchestra": 6493,
    "Ġdiverse": 6494,
    "Ġinspired": 6495,
    "Ġbronze": 6496,
    "Ġregularly": 6497,
    "Ġlargely": 6498,
    "Ġtransfer": 6499,
    "raw": 6500,
    "Ġ1936": 6501,
    "Ġsettlers": 6502,
    "raction": 6503,
    "Ġ120": 6504,
    "ĠMel": 6505,
    "Ġdiscovery": 6506,
    "Ġrepresents": 6507,
    "works": 6508,
    "Ġregional": 6509,
    "Ġdialects": 6510,
    "ĠQur": 6511,
    "asure": 6512,
    "Ġasp": 6513,
    "Ġbattles": 6514,
    "imet": 6515,
    "esides": 6516,
    "Ġmath": 6517,
    "atom": 6518,
    "Ġdiscover": 6519,
    "Ġtelescopes": 6520,
    "una": 6521,
    "Ġseems": 6522,
    "ĠRena": 6523,
    "idden": 6524,
    "erves": 6525,
    "Ġtexts": 6526,
    "Ġrebu": 6527,
    "onse": 6528,
    "pop": 6529,
    "ĠMah": 6530,
    "ocity": 6531,
    "Ġing": 6532,
    "Ġmedium": 6533,
    "Ġsunlight": 6534,
    "etics": 6535,
    "Ġorganizations": 6536,
    "ĠForce": 6537,
    "ĠUkrain": 6538,
    "Ġgramm": 6539,
    "airs": 6540,
    "bed": 6541,
    "Ġexerc": 6542,
    "Ġachieve": 6543,
    "Ġtests": 6544,
    "Ġcolonial": 6545,
    "ĠIron": 6546,
    "ĠCle": 6547,
    "ĠMain": 6548,
    "Se": 6549,
    "ĠSatur": 6550,
    "ĠSaturday": 6551,
    "Ġtherm": 6552,
    "ĠJim": 6553,
    "Ġhunt": 6554,
    "Ġpassengers": 6555,
    "night": 6556,
    "ĠCard": 6557,
    "ĠWisconsin": 6558,
    "ĠKant": 6559,
    "ĠKong": 6560,
    "ĠPepsi": 6561,
    "iga": 6562,
    "Ġcommunism": 6563,
    "ĠPanama": 6564,
    "Ġepisode": 6565,
    "ĠCayce": 6566,
    "Ġpatterns": 6567,
    "ĠVin": 6568,
    "antic": 6569,
    "Ġaster": 6570,
    "Ġmunicipalities": 6571,
    "Ġhorm": 6572,
    "ĠOntario": 6573,
    "Ġexplor": 6574,
    "oving": 6575,
    "ucing": 6576,
    "zing": 6577,
    "Ġspot": 6578,
    "ĠSoon": 6579,
    "cils": 6580,
    "ĠHollywood": 6581,
    "anging": 6582,
    "Ġpronounced": 6583,
    "ĠSpace": 6584,
    "Ġsuffering": 6585,
    "Ġsons": 6586,
    "Ġproved": 6587,
    "ĠBern": 6588,
    "ray": 6589,
    "Ġtallest": 6590,
    "Europe": 6591,
    "ĠSil": 6592,
    "Ġedge": 6593,
    "Ġzone": 6594,
    "Ġincor": 6595,
    "ĠSqu": 6596,
    "zheimer": 6597,
    "Or": 6598,
    "ĠAmaz": 6599,
    "Ġready": 6600,
    "ĠFest": 6601,
    "Ġloved": 6602,
    "ĠCy": 6603,
    "ĠPeninsula": 6604,
    "Ġstreet": 6605,
    "ĠDemocr": 6606,
    "Ġdrinking": 6607,
    "vey": 6608,
    "Ġcalls": 6609,
    "ĠConstitution": 6610,
    "Ġdecisions": 6611,
    "isis": 6612,
    "Ġwinds": 6613,
    "Ġpenalty": 6614,
    "Ġdefeat": 6615,
    "Ġearthquakes": 6616,
    "ĠCold": 6617,
    "Ġpredators": 6618,
    "ĠMonaco": 6619,
    "ĠQuebec": 6620,
    "Ġstaff": 6621,
    "under": 6622,
    "etroit": 6623,
    "ĠVietnames": 6624,
    "ĠVietnamese": 6625,
    "Ġ64": 6626,
    "ashion": 6627,
    "Ġdownlo": 6628,
    "Ġcotton": 6629,
    "ersey": 6630,
    "roatia": 6631,
    "ĠDevon": 6632,
    "Ġoffered": 6633,
    "ĠSoci": 6634,
    "ĠLithuania": 6635,
    "Ġtherapy": 6636,
    "Ġants": 6637,
    "Ġdiabet": 6638,
    "ĠDS": 6639,
    "ĠBahrain": 6640,
    "Ġhem": 6641,
    "Ġaudience": 6642,
    "Ġpaintings": 6643,
    "Ġseg": 6644,
    "ulate": 6645,
    "Ġoffices": 6646,
    "Ġ1954": 6647,
    "icted": 6648,
    "Ġstomach": 6649,
    "ĠWhat": 6650,
    "ĠCoast": 6651,
    "ĠDarwin": 6652,
    "ĠVan": 6653,
    "Ġrot": 6654,
    "aker": 6655,
    "ĠAround": 6656,
    "ccer": 6657,
    "ennis": 6658,
    "Ġplural": 6659,
    "Ġsees": 6660,
    "Ġlogic": 6661,
    "Ġcalling": 6662,
    "47": 6663,
    "Ġliquids": 6664,
    "uses": 6665,
    "Ġabsorb": 6666,
    "Ġsupern": 6667,
    "Ġraise": 6668,
    "ĠBuddhism": 6669,
    "Ġresponse": 6670,
    "ĠCeltic": 6671,
    "iration": 6672,
    "Ġvelocity": 6673,
    "Ġingred": 6674,
    "Ġfile": 6675,
    "ĠScandin": 6676,
    "ĠMen": 6677,
    "ĠDynasty": 6678,
    "ĠKub": 6679,
    "Ġnarrow": 6680,
    "uador": 6681,
    "Ġsocialist": 6682,
    "King": 6683,
    "Ġinvention": 6684,
    "âĢĿ.": 6685,
    "ynes": 6686,
    "town": 6687,
    "Ġjudge": 6688,
    "Ġexecuted": 6689,
    "ĠPyth": 6690,
    "Ġrect": 6691,
    "Ġtail": 6692,
    "Ġfavor": 6693,
    "Ġ149": 6694,
    "Ġcontact": 6695,
    "Ġcollaps": 6696,
    "ĠWild": 6697,
    "ĠDanish": 6698,
    "weg": 6699,
    "nel": 6700,
    "Ġaer": 6701,
    "Ġexperiences": 6702,
    "hib": 6703,
    "Ġapplications": 6704,
    "ĠSupreme": 6705,
    "arry": 6706,
    "Ġtraits": 6707,
    "Ġchicken": 6708,
    "ĠFlorence": 6709,
    "Ġscholars": 6710,
    "Ġly": 6711,
    "ucose": 6712,
    "ĠSah": 6713,
    "Ġfailure": 6714,
    "ĠDylan": 6715,
    "har": 6716,
    "ĠMcC": 6717,
    "Ġcapitalism": 6718,
    "Ġporn": 6719,
    "ĠStephen": 6720,
    "Henry": 6721,
    "ĠAlabama": 6722,
    "ĠLove": 6723,
    "asm": 6724,
    "Ġexc": 6725,
    "Ġexecutive": 6726,
    "anny": 6727,
    "Ġpossib": 6728,
    "Ġsus": 6729,
    "Ġdut": 6730,
    "Ġknows": 6731,
    "Ġchoice": 6732,
    "asman": 6733,
    "Ġ1939": 6734,
    "ees": 6735,
    "Ġ1933": 6736,
    "Ġannual": 6737,
    "that": 6738,
    "ĠLuc": 6739,
    "God": 6740,
    "Ġangry": 6741,
    "Ġmicrosc": 6742,
    "Ġattracted": 6743,
    "ample": 6744,
    "Ġpermanent": 6745,
    "Ġastronomers": 6746,
    "Ġwindow": 6747,
    "Ġlens": 6748,
    "ĠMongol": 6749,
    "ĠSaudi": 6750,
    "Ġretired": 6751,
    "ĠRomanian": 6752,
    "Ġ(,": 6753,
    "Ġassass": 6754,
    "Ġrelatively": 6755,
    "tebrates": 6756,
    "Ġadapted": 6757,
    "Ġprotection": 6758,
    "ĠMandarin": 6759,
    "Ġsisters": 6760,
    "Ġsoutheast": 6761,
    "hors": 6762,
    "Ġintegr": 6763,
    "Ġdrum": 6764,
    "Ġtalked": 6765,
    "Ġsad": 6766,
    "Ġsets": 6767,
    "Ġpossess": 6768,
    "Ġ1917": 6769,
    "Ġbabies": 6770,
    "minster": 6771,
    "ĠInstitute": 6772,
    "Ġtraveled": 6773,
    "Ġburned": 6774,
    "ĠSwiss": 6775,
    "Ġspaces": 6776,
    "%)": 6777,
    "ĠCarl": 6778,
    "Ġpopularity": 6779,
    "Ġsulfur": 6780,
    "Ġfluid": 6781,
    "Ġneck": 6782,
    "Ġleather": 6783,
    "Ġapproximately": 6784,
    "unity": 6785,
    "ĠStan": 6786,
    "ourse": 6787,
    "Ġintercourse": 6788,
    "ĠGroup": 6789,
    "ambod": 6790,
    "Ġexam": 6791,
    "Ġearthquake": 6792,
    "Ġanimated": 6793,
    "Ġnickname": 6794,
    "Ġworn": 6795,
    "ĠVl": 6796,
    "ĠRico": 6797,
    "iat": 6798,
    "ĠIP": 6799,
    "affe": 6800,
    "don": 6801,
    "Ġfrogs": 6802,
    "Ġsignals": 6803,
    "aust": 6804,
    "ĠBow": 6805,
    "tah": 6806,
    "ancou": 6807,
    "ancouver": 6808,
    "abis": 6809,
    "Ġexpress": 6810,
    "Ġalgebra": 6811,
    "ĠLong": 6812,
    "ĠChad": 6813,
    "Ġaccount": 6814,
    "ĠAdd": 6815,
    "bourne": 6816,
    "Ġsharp": 6817,
    "ogue": 6818,
    "Ġpronoun": 6819,
    "about": 6820,
    "Ġpractices": 6821,
    "Ġhabit": 6822,
    "Ġmedieval": 6823,
    "Ġprince": 6824,
    "Ġlets": 6825,
    "onomy": 6826,
    "Ġsave": 6827,
    "Ġorders": 6828,
    "Mus": 6829,
    "Ġforward": 6830,
    "opher": 6831,
    "Ġprotest": 6832,
    "ider": 6833,
    "Ġcooked": 6834,
    "Ġfir": 6835,
    "Ġbeer": 6836,
    "Ġcolleges": 6837,
    "Ġmatrix": 6838,
    "Ġspectrum": 6839,
    "ithium": 6840,
    "Ġcameras": 6841,
    "ĠUranus": 6842,
    "Ġultraviolet": 6843,
    "Ġbinary": 6844,
    "Ġengineers": 6845,
    "Ġdinosaurs": 6846,
    "Ġconservative": 6847,
    "Ġ95": 6848,
    "dinand": 6849,
    "Ġcoastal": 6850,
    "ĠSax": 6851,
    "ĠAmazon": 6852,
    "uum": 6853,
    "ĠSpring": 6854,
    "ĠCatholics": 6855,
    "Ġ1959": 6856,
    "ĠSpecial": 6857,
    "Ġdress": 6858,
    "Ġstress": 6859,
    "Ġframe": 6860,
    "Ġnutrients": 6861,
    "ĠMond": 6862,
    "illes": 6863,
    "ĠService": 6864,
    "Ġpoems": 6865,
    "ĠHawaiian": 6866,
    "ushi": 6867,
    "reek": 6868,
    "ymes": 6869,
    "ML": 6870,
    "Ġofficials": 6871,
    "ogr": 6872,
    "Ġpit": 6873,
    "Ġmosque": 6874,
    "ĠMecca": 6875,
    "ĠSabbath": 6876,
    "Ġsocialism": 6877,
    "Ġtruck": 6878,
    "ĠDivision": 6879,
    "Ġbath": 6880,
    "Ġpope": 6881,
    "ĠCosta": 6882,
    "Ġcousin": 6883,
    "eck": 6884,
    "Ġuncle": 6885,
    "ende": 6886,
    "rodo": 6887,
    "ĠSoutheast": 6888,
    "Ġcelebrate": 6889,
    "Ġinner": 6890,
    "ulpt": 6891,
    "Ġsculpt": 6892,
    "assic": 6893,
    "Ġ33": 6894,
    "selling": 6895,
    "inations": 6896,
    "Ġtens": 6897,
    "Ġplain": 6898,
    "stone": 6899,
    "Ġmission": 6900,
    "Ġrow": 6901,
    "Ġtelephone": 6902,
    "ossible": 6903,
    "ubs": 6904,
    "Ġpeak": 6905,
    "Ġprove": 6906,
    "ivia": 6907,
    "Ġcharacteristics": 6908,
    "ĠGermanic": 6909,
    "Ġded": 6910,
    "verse": 6911,
    "Ġx": 6912,
    "Ġcloud": 6913,
    "Ġ99": 6914,
    "Every": 6915,
    "Ġtelescope": 6916,
    "ien": 6917,
    "ĠâĢĶ": 6918,
    "pers": 6919,
    "Ġ1922": 6920,
    "Ġbiological": 6921,
    "tic": 6922,
    "ĠâĢĺ": 6923,
    "ijing": 6924,
    "ĠWil": 6925,
    "Ġtraffic": 6926,
    "Ġwides": 6927,
    "ĠMid": 6928,
    "Ġwarmer": 6929,
    "Ġshops": 6930,
    "Ġbicy": 6931,
    "ĠMassachusetts": 6932,
    "Ġinfinite": 6933,
    "ipedia": 6934,
    "Ġpulled": 6935,
    "Ġlosing": 6936,
    "Ġpopulations": 6937,
    "isher": 6938,
    "Ġstages": 6939,
    "Ġvehicle": 6940,
    "Ġcaught": 6941,
    "Ġmac": 6942,
    "Ġvess": 6943,
    "ilty": 6944,
    "Ġbadly": 6945,
    "ĠDon": 6946,
    "jac": 6947,
    "ĠStar": 6948,
    "!\"": 6949,
    "Ġ1948": 6950,
    "Ġnorthwest": 6951,
    "Ġstret": 6952,
    "Ġneur": 6953,
    "vada": 6954,
    "rics": 6955,
    "tee": 6956,
    "Ġsalam": 6957,
    "inburgh": 6958,
    "ĠEdinburgh": 6959,
    "ĠUSSR": 6960,
    "Ġwinning": 6961,
    "ĠHemingway": 6962,
    "aylor": 6963,
    "ayer": 6964,
    "Super": 6965,
    "Ġequival": 6966,
    "Ġpractical": 6967,
    "irth": 6968,
    "Ġplus": 6969,
    "onomous": 6970,
    "Ġtheore": 6971,
    "Ġgoals": 6972,
    "Ġtopics": 6973,
    "Not": 6974,
    "Ġcolumn": 6975,
    "Ġcarrying": 6976,
    "Ġblacks": 6977,
    "appy": 6978,
    "Ġric": 6979,
    "anguage": 6980,
    "ĠHun": 6981,
    "Ġperiods": 6982,
    "erusal": 6983,
    "erusalem": 6984,
    "Ġgarden": 6985,
    "About": 6986,
    "orld": 6987,
    "Ġsolve": 6988,
    "what": 6989,
    "Ġorbits": 6990,
    "pos": 6991,
    "Ġexplains": 6992,
    "ĠGalileo": 6993,
    "Ġformation": 6994,
    "ĠRenaissance": 6995,
    "Ġnortheast": 6996,
    "Ġrose": 6997,
    "Ġadvant": 6998,
    "ĠIndependence": 6999,
    "Ġmetres": 7000,
    "ĠFerdinand": 7001,
    "Ġfilled": 7002,
    "Ġshoes": 7003,
    "Ġworth": 7004,
    "ĠBre": 7005,
    "Ġinternal": 7006,
    "olester": 7007,
    "ĠMer": 7008,
    "Ġnovels": 7009,
    "ĠAlzheimer": 7010,
    "Ġleads": 7011,
    "Ġstor": 7012,
    "iler": 7013,
    "Ġhouseh": 7014,
    "Ġcheese": 7015,
    "ĠStat": 7016,
    "Ġhappening": 7017,
    "Ġcontroversial": 7018,
    "Christ": 7019,
    "ĠAthens": 7020,
    "Ġroot": 7021,
    "Ġmovements": 7022,
    "Ġtourism": 7023,
    "Ġcab": 7024,
    "Ġlegislature": 7025,
    "Ġbattery": 7026,
    "Ġtourist": 7027,
    "Ġlibraries": 7028,
    "Ġequator": 7029,
    "Even": 7030,
    "Ġconfirmed": 7031,
    "ĠTurkish": 7032,
    "ĠSlav": 7033,
    "Ġsentences": 7034,
    "ĠFriday": 7035,
    "Ġ75": 7036,
    "itarian": 7037,
    "ĠEst": 7038,
    "awn": 7039,
    "Ġfeeling": 7040,
    "shaped": 7041,
    "ĠHa": 7042,
    "Ġtreaty": 7043,
    "mm": 7044,
    "Ġshut": 7045,
    "Ġmate": 7046,
    "Ġtoward": 7047,
    "Ġadvent": 7048,
    "Ġsexually": 7049,
    "sterdam": 7050,
    "ĠAmsterdam": 7051,
    "obbes": 7052,
    "Ġtheme": 7053,
    "oz": 7054,
    "Ġarrested": 7055,
    "Ġrival": 7056,
    "ĠJoe": 7057,
    "Ġenzyme": 7058,
    "Ġcamps": 7059,
    "fox": 7060,
    "Ġchess": 7061,
    "kansas": 7062,
    "Ġdiagnosed": 7063,
    "ĠMust": 7064,
    "ĠComput": 7065,
    "Ġdetail": 7066,
    "mitted": 7067,
    "Ġsusp": 7068,
    "Ġharvest": 7069,
    "aging": 7070,
    "Ġsovereign": 7071,
    "Ġworse": 7072,
    "Ġclimates": 7073,
    "Ġstanding": 7074,
    "Ġtransportation": 7075,
    "Ġvariable": 7076,
    "Ġsupplies": 7077,
    "Here": 7078,
    "ĠHuman": 7079,
    "Ġcourts": 7080,
    "ĠDifferent": 7081,
    "Ġdwarf": 7082,
    "Ġdrinks": 7083,
    "ordin": 7084,
    "ĠPut": 7085,
    "Ġempt": 7086,
    "Ġcharges": 7087,
    "Ġattraction": 7088,
    "Ġpositions": 7089,
    "law": 7090,
    "Ġsud": 7091,
    "Ġsudden": 7092,
    "Ġclosest": 7093,
    "ellar": 7094,
    "ĠClassical": 7095,
    "Ġdates": 7096,
    "ooth": 7097,
    "Ġsituation": 7098,
    "aden": 7099,
    "Ġtypical": 7100,
    "ĠVer": 7101,
    "Ġstandards": 7102,
    "itors": 7103,
    "Ġprocesses": 7104,
    "Ġpurch": 7105,
    "ĠPier": 7106,
    "Ġrom": 7107,
    "ĠAdvent": 7108,
    "sc": 7109,
    "Ġsolution": 7110,
    "Ġbrief": 7111,
    "aven": 7112,
    "Ġlisten": 7113,
    "osl": 7114,
    "ĠOxford": 7115,
    "mond": 7116,
    "inals": 7117,
    "Ġrhyth": 7118,
    "Ġbanned": 7119,
    "ĠNorweg": 7120,
    "Ġadditional": 7121,
    "Ġrestaurants": 7122,
    "Ġofficers": 7123,
    "Ġshark": 7124,
    "Ġsales": 7125,
    "mel": 7126,
    "Ġgall": 7127,
    "Ġtitles": 7128,
    "Ġpermission": 7129,
    "Ġalle": 7130,
    "ka": 7131,
    "ĠPop": 7132,
    "Ġcopy": 7133,
    "Ġenfor": 7134,
    "Ġrooms": 7135,
    "andard": 7136,
    "aret": 7137,
    "Ġshortly": 7138,
    "ĠJersey": 7139,
    "ĠSomalia": 7140,
    "Ġbull": 7141,
    "imir": 7142,
    "attle": 7143,
    "Ġchildhood": 7144,
    "rague": 7145,
    "ĠHarrison": 7146,
    "ĠSail": 7147,
    "ĠSailor": 7148,
    "ĠWal": 7149,
    "ga": 7150,
    "oids": 7151,
    "Ġcontinents": 7152,
    "ĠCapital": 7153,
    "Ġvictory": 7154,
    "Ġ1952": 7155,
    "Ġequip": 7156,
    "Ġequipment": 7157,
    "ithm": 7158,
    "Ġoverall": 7159,
    "ĠBob": 7160,
    "Ġimportance": 7161,
    "Ġconstitutional": 7162,
    "Ġrainfall": 7163,
    "Ġstones": 7164,
    "prise": 7165,
    "Ġcricket": 7166,
    "ĠOp": 7167,
    "Ġreduced": 7168,
    "Ġvaries": 7169,
    "Ġap": 7170,
    "Ġviolent": 7171,
    "Ġpreviously": 7172,
    "Ġspiritual": 7173,
    "down": 7174,
    "Ġforming": 7175,
    "Ġfarther": 7176,
    "Ġstrongly": 7177,
    "Ġseconds": 7178,
    "Ġreaches": 7179,
    "Ġproperly": 7180,
    "apse": 7181,
    "crete": 7182,
    "Ġkid": 7183,
    "Ġ600": 7184,
    "Ġclassified": 7185,
    "Ġconflict": 7186,
    "Ġexpanded": 7187,
    "ĠGh": 7188,
    "Ġpolicies": 7189,
    "ĠHungarian": 7190,
    "Ġtransform": 7191,
    "Ġsupports": 7192,
    "Ġinterpret": 7193,
    "Ġboot": 7194,
    "Ġdebt": 7195,
    "ĠLi": 7196,
    "after": 7197,
    "Ġbases": 7198,
    "ĠFestival": 7199,
    "Ġholding": 7200,
    "Ġeconomics": 7201,
    "Ġmor": 7202,
    "adition": 7203,
    "Ġattend": 7204,
    "Ġwritings": 7205,
    "ĠThus": 7206,
    "Ġheads": 7207,
    "Ġsequence": 7208,
    "Ġbone": 7209,
    "Ġstro": 7210,
    "Ġrespectively": 7211,
    "itz": 7212,
    "Ġdropped": 7213,
    "ĠDetroit": 7214,
    "Ġdebate": 7215,
    "iders": 7216,
    "Ġpairs": 7217,
    "Ġelephant": 7218,
    "Ġwebsites": 7219,
    "Ġcrew": 7220,
    "Ġbons": 7221,
    "Ġbonsai": 7222,
    "Ġchromos": 7223,
    "ucky": 7224,
    "ersh": 7225,
    "ĠiP": 7226,
    "ĠPennsylvania": 7227,
    "ĠHobbes": 7228,
    "ĠCroatia": 7229,
    "Ġanch": 7230,
    "Ġmaster": 7231,
    "imbab": 7232,
    "imbabwe": 7233,
    "orbache": 7234,
    "orbachev": 7235,
    "ĠMunich": 7236,
    "Ġpatients": 7237,
    "ĠFame": 7238,
    "ĠFA": 7239,
    "Ġdiabetes": 7240,
    "Roman": 7241,
    "iting": 7242,
    "Ġfigures": 7243,
    "Ġtriang": 7244,
    "ĠAbbey": 7245,
    "Ġmessages": 7246,
    "anted": 7247,
    "Ġcommitted": 7248,
    "Ġnur": 7249,
    "Ġpointed": 7250,
    "Ġcollected": 7251,
    "Ġtribe": 7252,
    "eless": 7253,
    "ĠSuch": 7254,
    "Ġstops": 7255,
    "Ġvirt": 7256,
    "Ġcommunicate": 7257,
    "Ġmeasurements": 7258,
    "ĠMilky": 7259,
    "Ġphen": 7260,
    "Ġlights": 7261,
    "Ġdepth": 7262,
    "Ġdesigns": 7263,
    "yram": 7264,
    "aning": 7265,
    "ĠTrade": 7266,
    "Ġinstitutions": 7267,
    "ĠAnton": 7268,
    "ĠYoung": 7269,
    "Ġadministrative": 7270,
    "Ġpublish": 7271,
    "ĠVik": 7272,
    "Ġrevealed": 7273,
    "Ġbankrupt": 7274,
    "Ġens": 7275,
    "Ġsodium": 7276,
    "Ġdigest": 7277,
    "Modern": 7278,
    "ennes": 7279,
    "ĠBetween": 7280,
    "ani": 7281,
    "amental": 7282,
    "English": 7283,
    "Ġderived": 7284,
    "ĠSong": 7285,
    "Ġsuccessfully": 7286,
    "Ġdefense": 7287,
    "Ġreference": 7288,
    "Ġbeans": 7289,
    "Ġhill": 7290,
    "Ġliberal": 7291,
    "Ġputting": 7292,
    "Ġprofessor": 7293,
    "earch": 7294,
    "Ġargued": 7295,
    "Ġentertainment": 7296,
    "ĠJamaica": 7297,
    "Ġ1958": 7298,
    "lan": 7299,
    "Ġearn": 7300,
    "ĠCanal": 7301,
    "Ġwheat": 7302,
    "Ġbeaches": 7303,
    "umes": 7304,
    "ĠHob": 7305,
    "ĠHamilton": 7306,
    "Ġ43": 7307,
    "Ġink": 7308,
    "Ġrenamed": 7309,
    "Ġpromised": 7310,
    "Ġfashion": 7311,
    "Ġ38": 7312,
    "Ġcrisis": 7313,
    "Ġglucose": 7314,
    "resent": 7315,
    "Ġattached": 7316,
    "zuel": 7317,
    "enezuel": 7318,
    "ĠKh": 7319,
    "anton": 7320,
    "ĠNem": 7321,
    "aron": 7322,
    "ĠFrodo": 7323,
    "Ġunc": 7324,
    "Ġinteresting": 7325,
    "ĠSur": 7326,
    "enic": 7327,
    "ĠDoug": 7328,
    "imals": 7329,
    "ĠRoad": 7330,
    "ĠDub": 7331,
    "Ġregarded": 7332,
    "Ġacted": 7333,
    "Ġsang": 7334,
    "Ġsaus": 7335,
    "Ġintens": 7336,
    "Ġimproved": 7337,
    "Ġcryst": 7338,
    "iginal": 7339,
    "ĠStra": 7340,
    "ĠUntil": 7341,
    "Ġgrain": 7342,
    "Ġgoverned": 7343,
    "ĠGall": 7344,
    "Ġpeaceful": 7345,
    "who": 7346,
    "Ġ1942": 7347,
    "arring": 7348,
    "ĠChampionship": 7349,
    "Ġdialect": 7350,
    "unci": 7351,
    "Ġoccasion": 7352,
    "Ġflying": 7353,
    "Ġapply": 7354,
    "Ġdescend": 7355,
    "ĠAlaska": 7356,
    "Ġapples": 7357,
    "formula": 7358,
    "Ġaxis": 7359,
    "Ġimpossible": 7360,
    "Ġ1905": 7361,
    "Ġsmell": 7362,
    "Ġshooting": 7363,
    "Ġbreaks": 7364,
    "Ġnatur": 7365,
    "Ġbackground": 7366,
    "Ġsciences": 7367,
    "Ġmir": 7368,
    "Ġbridges": 7369,
    "Ġcontrols": 7370,
    "ĠMaced": 7371,
    "Ġ1919": 7372,
    "Ġrebell": 7373,
    "ĠSalt": 7374,
    "Ġinvolves": 7375,
    "Ġhistoric": 7376,
    "mission": 7377,
    "organ": 7378,
    "ograp": 7379,
    "ES": 7380,
    "CO": 7381,
    "Ġexpression": 7382,
    "ĠChannel": 7383,
    "Ġabol": 7384,
    "verty": 7385,
    "Ġpoverty": 7386,
    "ĠEcuador": 7387,
    "Ġclock": 7388,
    "Ġvacuum": 7389,
    "Ġgraphics": 7390,
    "Ġprogress": 7391,
    "Ġroute": 7392,
    "pread": 7393,
    "Ġwidespread": 7394,
    "Ġlawy": 7395,
    "Ġburning": 7396,
    "ĠWestminster": 7397,
    "ĠTe": 7398,
    "chen": 7399,
    "Ġbasketball": 7400,
    "leum": 7401,
    "etroleum": 7402,
    "Ġdimensions": 7403,
    "Ġdu": 7404,
    "ĠGreenland": 7405,
    "ĠArm": 7406,
    "ĠPhilip": 7407,
    "ilson": 7408,
    "Ġut": 7409,
    "Ġguilty": 7410,
    "33": 7411,
    "ora": 7412,
    "ĠDomin": 7413,
    "Ġhandle": 7414,
    "egas": 7415,
    "ĠMur": 7416,
    "Ġpushed": 7417,
    "ĠVis": 7418,
    "Ġvapor": 7419,
    "ĠEv": 7420,
    "%,": 7421,
    "ĠBen": 7422,
    "aka": 7423,
    "ĠAI": 7424,
    "ĠPot": 7425,
    "Ġbirthday": 7426,
    "Ġprefectures": 7427,
    "olve": 7428,
    "Ġspr": 7429,
    "ĠAssembly": 7430,
    "ĠMend": 7431,
    "Ġreality": 7432,
    "ĪĴ": 7433,
    "Ġfold": 7434,
    "ĠSociety": 7435,
    "ĠAztecs": 7436,
    "celona": 7437,
    "ila": 7438,
    "Ġresigned": 7439,
    "ĠChel": 7440,
    "oker": 7441,
    "elson": 7442,
    "Ġorgasm": 7443,
    "ĠKubrick": 7444,
    "cluding": 7445,
    "Ġpret": 7446,
    "Ġangle": 7447,
    "Ġcreates": 7448,
    "Ġlungs": 7449,
    "ĠMes": 7450,
    "Ġdistribution": 7451,
    "inea": 7452,
    "ĠTasman": 7453,
    "ĠWomen": 7454,
    "Hung": 7455,
    "Ġheavily": 7456,
    "ĠGard": 7457,
    "Ġdoesn": 7458,
    "ĠMess": 7459,
    "Ġholy": 7460,
    "come": 7461,
    "Ġopinion": 7462,
    "Ġestablish": 7463,
    "akh": 7464,
    "Ġhelping": 7465,
    "Ġperiodic": 7466,
    "ĠEle": 7467,
    "aac": 7468,
    "Ġprofession": 7469,
    "Ġfacts": 7470,
    "Ġcheap": 7471,
    "ĠBu": 7472,
    "uns": 7473,
    "Ġenjoyed": 7474,
    "Ġshares": 7475,
    "Ġfiles": 7476,
    "ĠWinter": 7477,
    "berry": 7478,
    "Ġgenetics": 7479,
    "68": 7480,
    "EFA": 7481,
    "ĠUEFA": 7482,
    "ĠUkrainian": 7483,
    "Ġbits": 7484,
    "North": 7485,
    "Ġadjective": 7486,
    "Ġconnects": 7487,
    "resp": 7488,
    "Ġeffective": 7489,
    "Ġgrammar": 7490,
    "Ġcapac": 7491,
    "Ġkit": 7492,
    "ĠRay": 7493,
    "Ġresear": 7494,
    "Ġrectang": 7495,
    "Ġobservations": 7496,
    "Ġlanded": 7497,
    "ĠWikipedia": 7498,
    "Ġhur": 7499,
    "ĠGreater": 7500,
    "ĠHell": 7501,
    "Ġ1943": 7502,
    "raid": 7503,
    "Ġ48": 7504,
    "ĠEU": 7505,
    "Ġign": 7506,
    "Ġic": 7507,
    "Ġsharks": 7508,
    "ucation": 7509,
    "ĠHindus": 7510,
    "ansion": 7511,
    "ologist": 7512,
    "ĠPublic": 7513,
    "Ġinches": 7514,
    "Ġ--": 7515,
    "ĠGDP": 7516,
    "ĠCambod": 7517,
    "ĠStock": 7518,
    "ĠTro": 7519,
    "Ġdepartment": 7520,
    "Ġmouse": 7521,
    "Ġcontest": 7522,
    "Ġvibr": 7523,
    "ĠBrook": 7524,
    "ĠKuwait": 7525,
    "Ġsupporting": 7526,
    "Ġdestruction": 7527,
    "Ġserf": 7528,
    "adimir": 7529,
    "Ġvalley": 7530,
    "ĠWy": 7531,
    "ĠUtah": 7532,
    "Ġaged": 7533,
    "ĠJeff": 7534,
    "Ġtracks": 7535,
    "ĠWork": 7536,
    "olling": 7537,
    "ĠTruman": 7538,
    "ishn": 7539,
    "ĠNemo": 7540,
    "gl": 7541,
    "Ġscientist": 7542,
    "Ġfounder": 7543,
    "ĠUl": 7544,
    "Ġpresented": 7545,
    "You": 7546,
    "Her": 7547,
    "Ġproducing": 7548,
    "ĠHosp": 7549,
    "ĠSyria": 7550,
    "Ġagricultural": 7551,
    "Ġanywhere": 7552,
    "ĠTerrit": 7553,
    "Ġgather": 7554,
    "Ġsettlement": 7555,
    "Ġlimits": 7556,
    "adio": 7557,
    "Ġwalking": 7558,
    "Ġkingdoms": 7559,
    "Ġseed": 7560,
    "ders": 7561,
    "roc": 7562,
    "Ġ1932": 7563,
    "Ġ1937": 7564,
    "Ġquarks": 7565,
    "ĠEarly": 7566,
    "Ġaccurate": 7567,
    "Ġphenomen": 7568,
    "Ġsignal": 7569,
    "iology": 7570,
    "ĠDel": 7571,
    "TO": 7572,
    "ĠUr": 7573,
    "eo": 7574,
    "ĠArmen": 7575,
    "Ġchief": 7576,
    "Ġingredients": 7577,
    "Ġlegend": 7578,
    "Ġadministration": 7579,
    "Ġcuis": 7580,
    "Ġdaughters": 7581,
    "Ġresidents": 7582,
    "rence": 7583,
    "48": 7584,
    "cape": 7585,
    "Ġcartoon": 7586,
    "Ġchloride": 7587,
    "Ġwrites": 7588,
    "Ġvon": 7589,
    "Ġsurf": 7590,
    "uci": 7591,
    "ĠHong": 7592,
    "adays": 7593,
    "Ġresulting": 7594,
    "Ġalloy": 7595,
    "Ġsight": 7596,
    "Ġinterpre": 7597,
    "Ġmeasuring": 7598,
    "la": 7599,
    "Ġprices": 7600,
    "Ġmeanings": 7601,
    "ĠBooth": 7602,
    "Two": 7603,
    "Ġcategories": 7604,
    "oys": 7605,
    "ĠTun": 7606,
    "Ġinherit": 7607,
    "ĠWood": 7608,
    "Ġmeets": 7609,
    "\"\"": 7610,
    "inity": 7611,
    "Ġmuseums": 7612,
    "Ġinherited": 7613,
    "asma": 7614,
    "Ġsuffered": 7615,
    "Ġbaseball": 7616,
    "eer": 7617,
    "ĠRNA": 7618,
    "Ġceremon": 7619,
    "ĠVegas": 7620,
    "ĠNevada": 7621,
    "ĠThames": 7622,
    "ĠPalest": 7623,
    "Ġcomponents": 7624,
    "Like": 7625,
    "ollowing": 7626,
    "others": 7627,
    "Ġnewly": 7628,
    "ĠLower": 7629,
    "tit": 7630,
    "Ġstruggle": 7631,
    "ĠRepresent": 7632,
    "rical": 7633,
    "ĠSahara": 7634,
    "BA": 7635,
    "Ã¼r": 7636,
    "enburg": 7637,
    "ssel": 7638,
    "ĠFirefox": 7639,
    "orkshire": 7640,
    "ĠYorkshire": 7641,
    "ĠVancouver": 7642,
    "ĠMustang": 7643,
    "Ġfestivals": 7644,
    "Ġbow": 7645,
    "Ġruling": 7646,
    "Ġinfluences": 7647,
    "ously": 7648,
    "Ġmathematician": 7649,
    "tra": 7650,
    "Ġmax": 7651,
    "Ġsubs": 7652,
    "300": 7653,
    "ĠBlue": 7654,
    "Ġrug": 7655,
    "ĠLeg": 7656,
    "Ġsingers": 7657,
    "Ġnumerous": 7658,
    "Ġswimming": 7659,
    "Ġmatches": 7660,
    "Ġfestival": 7661,
    "Ġfrequently": 7662,
    "ĠLouisiana": 7663,
    "onym": 7664,
    "Ġargument": 7665,
    "using": 7666,
    "Ġidentify": 7667,
    "Ġbreaking": 7668,
    "ĠAny": 7669,
    "Ġdirections": 7670,
    "inoc": 7671,
    "ĠKarl": 7672,
    "Ġbelt": 7673,
    "inction": 7674,
    "Ġwolves": 7675,
    "ĠBCE": 7676,
    "ĠSuf": 7677,
    "Ġaccused": 7678,
    "Ġdishes": 7679,
    "eland": 7680,
    "ĠEconom": 7681,
    "Ġow": 7682,
    "Ġjourney": 7683,
    "zen": 7684,
    "mingham": 7685,
    "irmingham": 7686,
    "ĠBeijing": 7687,
    "Ġ1928": 7688,
    "ĠSquare": 7689,
    "Ġov": 7690,
    "Ġdistingu": 7691,
    "Ġmush": 7692,
    "Ġ\"-": 7693,
    "64": 7694,
    "Ã¨": 7695,
    "ĠJean": 7696,
    "Ġauthors": 7697,
    "ĠWell": 7698,
    "Ġ1910": 7699,
    "ĠMach": 7700,
    "Ġtub": 7701,
    "Ġpoisonous": 7702,
    "Ġpush": 7703,
    "Ġminority": 7704,
    "ĠMao": 7705,
    "Ġranges": 7706,
    "Ġprinting": 7707,
    "Ġusual": 7708,
    "umb": 7709,
    "Ġteachings": 7710,
    "Ġexchange": 7711,
    "Ġcollapsed": 7712,
    "Ġdespite": 7713,
    "Ġrhythm": 7714,
    "Ġupd": 7715,
    "ĠKir": 7716,
    "ashed": 7717,
    "Ġrept": 7718,
    "fl": 7719,
    "Ġaid": 7720,
    "ĠGN": 7721,
    "ĠFound": 7722,
    "Ġphotograph": 7723,
    "ĠGoogle": 7724,
    "Ġ65": 7725,
    "itnesses": 7726,
    "cell": 7727,
    "ĠIdo": 7728,
    "Ġpowered": 7729,
    "ĠCir": 7730,
    "TML": 7731,
    "ĠUnderground": 7732,
    "ĠMadrid": 7733,
    "iece": 7734,
    "ĠPet": 7735,
    "ĠLaozi": 7736,
    "Ġmines": 7737,
    "ĠSher": 7738,
    "ĠSus": 7739,
    "Ġleadership": 7740,
    "ĠFranklin": 7741,
    "Ġabuse": 7742,
    "West": 7743,
    "Ġheir": 7744,
    "ĠVenezuel": 7745,
    "Ġnest": 7746,
    "Ġwire": 7747,
    "ĠNick": 7748,
    "lymouth": 7749,
    "ĠEssen": 7750,
    "Ġhammer": 7751,
    "Reagan": 7752,
    "ĠLisa": 7753,
    "Ġequivalent": 7754,
    "Ġeighth": 7755,
    "No": 7756,
    "umans": 7757,
    "ĠLittle": 7758,
    "ĠPict": 7759,
    "ĠLeban": 7760,
    "Ġwider": 7761,
    "Ġoperations": 7762,
    "arey": 7763,
    "asters": 7764,
    "fish": 7765,
    "ĠOut": 7766,
    "ĠJerusalem": 7767,
    "Each": 7768,
    "Ġsuggests": 7769,
    "69": 7770,
    "comm": 7771,
    "Ġphilosoph": 7772,
    "tto": 7773,
    "Ġcomets": 7774,
    "Ġcathedral": 7775,
    "ĠNear": 7776,
    "Ġtomb": 7777,
    "Ġreaching": 7778,
    "Ġopposed": 7779,
    "Ġbeef": 7780,
    "Ġ1955": 7781,
    "Ġfalling": 7782,
    "inth": 7783,
    "inated": 7784,
    "Ġaim": 7785,
    "Ġforg": 7786,
    "Ġfactor": 7787,
    "isms": 7788,
    "Ġdepart": 7789,
    "Ġimpr": 7790,
    "vador": 7791,
    "isons": 7792,
    "Ġremembered": 7793,
    "ĠConn": 7794,
    "Ġplatform": 7795,
    "orters": 7796,
    "gu": 7797,
    "prus": 7798,
    "Ġparad": 7799,
    "ucks": 7800,
    "Ġmoral": 7801,
    "ĠRel": 7802,
    "ova": 7803,
    "ambling": 7804,
    "ĠMark": 7805,
    "Ġsacred": 7806,
    "arta": 7807,
    "Ġsale": 7808,
    "ĠEis": 7809,
    "Ġdetails": 7810,
    "ĠMuch": 7811,
    "Ġnor": 7812,
    "ĠIsles": 7813,
    "Ġpsychology": 7814,
    "Ġdetermine": 7815,
    "Ġconvert": 7816,
    "Ġadvertising": 7817,
    "ĠLas": 7818,
    "Ġconcentration": 7819,
    "icester": 7820,
    "ĠMilan": 7821,
    "aj": 7822,
    "Ġborough": 7823,
    "Ġkilogr": 7824,
    "195": 7825,
    "uration": 7826,
    "Ġdollar": 7827,
    "geria": 7828,
    "ĠMr": 7829,
    "Ġreview": 7830,
    "oming": 7831,
    "ĠEntertainment": 7832,
    "Ġtank": 7833,
    "Ġtradem": 7834,
    "Cola": 7835,
    "umps": 7836,
    "Ġpowder": 7837,
    "ĠZimbabwe": 7838,
    "ĠCur": 7839,
    "ĠGorbachev": 7840,
    "Bill": 7841,
    "sseld": 7842,
    "Ã¼sseld": 7843,
    "Ã¼sseldorf": 7844,
    "ĠDer": 7845,
    "ĠEverton": 7846,
    "owa": 7847,
    "ĠNancy": 7848,
    "Ġsperm": 7849,
    "Ġgraphite": 7850,
    "Carter": 7851,
    "Ġcannabis": 7852,
    "ĠNight": 7853,
    "Ġdetermined": 7854,
    "Ġstim": 7855,
    "Ġwish": 7856,
    "Ġbelongs": 7857,
    "ĠEvent": 7858,
    "Ġpromin": 7859,
    "ĠAnglo": 7860,
    "Ġintelligence": 7861,
    "Ġpossibly": 7862,
    "Us": 7863,
    "Ġton": 7864,
    "Ġwool": 7865,
    "inding": 7866,
    "Ġdemand": 7867,
    "Ġtrouble": 7868,
    "TV": 7869,
    "Ġhockey": 7870,
    "ĠForm": 7871,
    "Ġathletes": 7872,
    "Ġsends": 7873,
    "Ġangels": 7874,
    "archy": 7875,
    "ĠAp": 7876,
    "Ġlists": 7877,
    "Ġplague": 7878,
    "Ġfaces": 7879,
    "ados": 7880,
    "oma": 7881,
    "Ġbud": 7882,
    "Ġmythology": 7883,
    "ipping": 7884,
    "Ġresistance": 7885,
    "ylon": 7886,
    "Ġphone": 7887,
    "43": 7888,
    "Ġinvestig": 7889,
    "ogether": 7890,
    "Later": 7891,
    "Ġblindness": 7892,
    "ĠLight": 7893,
    "but": 7894,
    "Ġnotice": 7895,
    "Ġspeeds": 7896,
    "oned": 7897,
    "European": 7898,
    "Ġpoliticians": 7899,
    "Ġdictator": 7900,
    "Ġvector": 7901,
    "Ġdisk": 7902,
    "Ġpopulous": 7903,
    "atoes": 7904,
    "fare": 7905,
    "ĠHeritage": 7906,
    "Ġ1500": 7907,
    "Ã£": 7908,
    "Ã£o": 7909,
    "ĠFI": 7910,
    "ktop": 7911,
    "Ġinstall": 7912,
    "Ġregime": 7913,
    "Ġdictionary": 7914,
    "Ġdrawn": 7915,
    "century": 7916,
    "Ġconstructed": 7917,
    "ĠEp": 7918,
    "Ġcriminal": 7919,
    "ĠLife": 7920,
    "Ġtrig": 7921,
    "ĠObama": 7922,
    "olas": 7923,
    "ĠStadium": 7924,
    "Ġvideos": 7925,
    "Over": 7926,
    "Ġwinner": 7927,
    "Ġamb": 7928,
    "Britannica": 7929,
    "Ġhired": 7930,
    "Ġfu": 7931,
    "Ġfuels": 7932,
    "Ġsevere": 7933,
    "Ġcountryside": 7934,
    "Ġdocuments": 7935,
    "Ġotherwise": 7936,
    "ohydr": 7937,
    "bohydr": 7938,
    "amps": 7939,
    "Ġhat": 7940,
    "Ġghost": 7941,
    "Ġserving": 7942,
    "Ġfict": 7943,
    "allel": 7944,
    "rad": 7945,
    "Ġtemporary": 7946,
    "ĠThrough": 7947,
    "Ġdisagre": 7948,
    "ĠHistor": 7949,
    "Ġserver": 7950,
    "Sc": 7951,
    "ĠDepartment": 7952,
    "owers": 7953,
    "Ġcylinder": 7954,
    "Ġfastest": 7955,
    "ĠMalay": 7956,
    "Ġferment": 7957,
    "Ġamino": 7958,
    "Ġqual": 7959,
    "ĠMonke": 7960,
    "Ġlyrics": 7961,
    "Ġdepos": 7962,
    "Ġmomentum": 7963,
    "ĠTu": 7964,
    "ĠConfederate": 7965,
    "Ġjournal": 7966,
    "ĠLaos": 7967,
    "Ġtitled": 7968,
    "quit": 7969,
    "uat": 7970,
    "Ġpresidents": 7971,
    "pill": 7972,
    "Ġpartners": 7973,
    "ĠPrincess": 7974,
    "isexual": 7975,
    "ĠBilbo": 7976,
    "Ġhemisphere": 7977,
    "ĠDouglas": 7978,
    "asions": 7979,
    "Ġtect": 7980,
    "offic": 7981,
    "Ġengineer": 7982,
    "Ġsaved": 7983,
    "ĠCambr": 7984,
    "Ġpunishment": 7985,
    "Ġbreasts": 7986,
    "ĠHospital": 7987,
    "Ġraw": 7988,
    "Ġbreeding": 7989,
    "Ġdigits": 7990,
    "Austr": 7991,
    "Ġeleven": 7992,
    "Ġblacksmith": 7993,
    "ĠTim": 7994,
    "ĠLine": 7995,
    "Ġsword": 7996,
    "Ġpra": 7997,
    "akespe": 7998,
    "akespeare": 7999,
    "ĠChristopher": 8000,
    "Ġ51": 8001,
    "Ġidentified": 8002,
    "Ġarranged": 8003,
    "Ġcentimet": 8004,
    "Ġgenus": 8005,
    "Ġsteps": 8006,
    "42": 8007,
    "Ġuniversal": 8008,
    "ometers": 8009,
    "Ġsatellite": 8010,
    "ĠLow": 8011,
    "ĠCentury": 8012,
    "Ġliver": 8013,
    "ademic": 8014,
    "Ġ170": 8015,
    "Ġadvantage": 8016,
    "Ġallies": 8017,
    "ĠNam": 8018,
    "Ġseventh": 8019,
    "ĠPeace": 8020,
    "Ġinfluential": 8021,
    "ĠDanube": 8022,
    "abs": 8023,
    "Ġrepublics": 8024,
    "dys": 8025,
    "Ġsimpler": 8026,
    "Ġphones": 8027,
    "Ġchap": 8028,
    "fast": 8029,
    "Ġbees": 8030,
    "ĠAlmost": 8031,
    "Ġsuff": 8032,
    "Ġrubber": 8033,
    "Ġlie": 8034,
    "ĠLes": 8035,
    "Ġrevol": 8036,
    "ris": 8037,
    "resident": 8038,
    "ĠSalvador": 8039,
    "ĠCO": 8040,
    "udal": 8041,
    "Ġreforms": 8042,
    "ĠCommission": 8043,
    "Ġparent": 8044,
    "Ġmonaster": 8045,
    "Ġcup": 8046,
    "okes": 8047,
    "Ġmarine": 8048,
    "Ġmarks": 8049,
    "ĠNich": 8050,
    "Ġexercise": 8051,
    "Ġmal": 8052,
    "Ġinfections": 8053,
    "Ġeffic": 8054,
    "Ġaf": 8055,
    "Ġdriving": 8056,
    "En": 8057,
    "ĠWilson": 8058,
    "uces": 8059,
    "Ġreproduce": 8060,
    "ĠMonday": 8061,
    "sticks": 8062,
    "Ġreptiles": 8063,
    "Ġpalace": 8064,
    "ĠProv": 8065,
    "Ġtong": 8066,
    "Ġcapitalist": 8067,
    "iations": 8068,
    "igious": 8069,
    "Ġimperial": 8070,
    "hall": 8071,
    "Ġnavy": 8072,
    "38": 8073,
    "Ġanthem": 8074,
    "ĠHel": 8075,
    "ĠpH": 8076,
    "Ġ1921": 8077,
    "Ġjew": 8078,
    "Ġweapon": 8079,
    "ĠTel": 8080,
    "ima": 8081,
    "Ġexplanation": 8082,
    "But": 8083,
    "Ġcham": 8084,
    "dr": 8085,
    "zant": 8086,
    "ĠByzant": 8087,
    "ershwin": 8088,
    "Mic": 8089,
    "Ġgreenhouse": 8090,
    "Ġ800": 8091,
    "Ġplot": 8092,
    "Ġbehaviour": 8093,
    "agers": 8094,
    "ĠRepresentatives": 8095,
    "unction": 8096,
    "Ġworker": 8097,
    "ĠGlobe": 8098,
    "Ġfemin": 8099,
    "Ed": 8100,
    "Ġagents": 8101,
    "ĠVladimir": 8102,
    "ĠHo": 8103,
    "ologne": 8104,
    "ori": 8105,
    "ĠDie": 8106,
    "ĠTaylor": 8107,
    "ĠLoren": 8108,
    "ennessee": 8109,
    "ĠArkansas": 8110,
    "zig": 8111,
    "á»": 8112,
    "including": 8113,
    "Ġtransition": 8114,
    "uma": 8115,
    "ĠPho": 8116,
    "\":": 8117,
    "Ġ1912": 8118,
    "ette": 8119,
    "Ġmaximum": 8120,
    "Ġwashing": 8121,
    "ĠQueens": 8122,
    "ĠOper": 8123,
    "Ġpronunci": 8124,
    "onaut": 8125,
    "ĠAss": 8126,
    "Ġaccounts": 8127,
    "Ġsin": 8128,
    "izo": 8129,
    "Ġexperienced": 8130,
    "Ġcolder": 8131,
    "Ġdedicated": 8132,
    "Ġlin": 8133,
    "Ġradioactive": 8134,
    "Ġempty": 8135,
    "Ġisotope": 8136,
    "Ġconverted": 8137,
    "ption": 8138,
    "Ġpole": 8139,
    "Ġlithium": 8140,
    "Ġsphere": 8141,
    "Ġdistant": 8142,
    "Ġuns": 8143,
    "Ġcopied": 8144,
    "Ġcollapse": 8145,
    "Ġhospitals": 8146,
    "ĠRights": 8147,
    "Ġgeography": 8148,
    "Ġunited": 8149,
    "Ġfounding": 8150,
    "Ġstrict": 8151,
    "Ġcoastline": 8152,
    "ĠCommunity": 8153,
    "Ġbordered": 8154,
    "ĠSanta": 8155,
    "Russ": 8156,
    "Ġconstit": 8157,
    "claim": 8158,
    "Ġseas": 8159,
    "Ġdeals": 8160,
    "Ġtissues": 8161,
    "illing": 8162,
    "Ġlinks": 8163,
    "olesterol": 8164,
    "British": 8165,
    "Ġcontainer": 8166,
    "anas": 8167,
    "Ġfear": 8168,
    "Ġantib": 8169,
    "Ġwarfare": 8170,
    "ĠJac": 8171,
    "Ġcontained": 8172,
    "Ġapproach": 8173,
    "Ġstorage": 8174,
    "tained": 8175,
    "Japan": 8176,
    "Ġmild": 8177,
    "Ġtube": 8178,
    "Ġautomob": 8179,
    "Ġmeetings": 8180,
    "ĠLive": 8181,
    "Ġmetaphor": 8182,
    "uctive": 8183,
    "ewis": 8184,
    "Ġride": 8185,
    "enhower": 8186,
    "venue": 8187,
    "Ġcert": 8188,
    "Ġorange": 8189,
    "ĠNorwegian": 8190,
    "Ġcuisine": 8191,
    "Ġtraditionally": 8192,
    "ĠChildren": 8193,
    "Ġdiesel": 8194,
    "ĠTw": 8195,
    "Ġvolcanic": 8196,
    "Ġoffs": 8197,
    "Ġcutting": 8198,
    "Sw": 8199,
    "Ġwearing": 8200,
    "Ġ55": 8201,
    "ensed": 8202,
    "Ġcriticized": 8203,
    "Ġpersonality": 8204,
    "asy": 8205,
    "ception": 8206,
    "Ġfictional": 8207,
    "Ġfift": 8208,
    "Ġquart": 8209,
    "Ġlifetime": 8210,
    "Ġsoldier": 8211,
    "Ġplanes": 8212,
    "Ġhobb": 8213,
    "Ġreproduction": 8214,
    "Ġdecimal": 8215,
    "Ġcanal": 8216,
    "Ġmelting": 8217,
    "chestr": 8218,
    "ffice": 8219,
    "Ġwait": 8220,
    "Internet": 8221,
    "Ġaccom": 8222,
    "Ġamphibians": 8223,
    "Ġhearing": 8224,
    "Ġwore": 8225,
    "oca": 8226,
    "Ġgraduated": 8227,
    "ĠKenya": 8228,
    "ĠLatvia": 8229,
    "icut": 8230,
    "ĠBal": 8231,
    "aterpill": 8232,
    "furt": 8233,
    "ĠMargaret": 8234,
    "Ġcuts": 8235,
    "ĠNelson": 8236,
    "ĠPresidential": 8237,
    "Mary": 8238,
    "urai": 8239,
    "uppet": 8240,
    "artney": 8241,
    "ishnu": 8242,
    "Ġdating": 8243,
    "Ġrespond": 8244,
    "ĠÎ": 8245,
    "Ġsmoke": 8246,
    "Ġash": 8247,
    "atically": 8248,
    "ĠCatal": 8249,
    "Ġtested": 8250,
    "Ġepisodes": 8251,
    "rigation": 8252,
    "lication": 8253,
    "Ġexponent": 8254,
    "ĠGuinea": 8255,
    "ypus": 8256,
    "Ġaffects": 8257,
    "Ġhorizon": 8258,
    "Ġsending": 8259,
    "ĠPatrick": 8260,
    "Ġneighbour": 8261,
    "viation": 8262,
    "Different": 8263,
    "Ġdeliver": 8264,
    "ĠAdam": 8265,
    "ĠTemple": 8266,
    "Ġprepared": 8267,
    "ĠShakespeare": 8268,
    "Ġdoub": 8269,
    "ĠBolivia": 8270,
    "Ġ44": 8271,
    "Ġtons": 8272,
    "Ġcircular": 8273,
    "ĠVery": 8274,
    "Ġnaturally": 8275,
    "ocent": 8276,
    "Ġisol": 8277,
    "Ġ1957": 8278,
    "Great": 8279,
    "Ġconcrete": 8280,
    "Ġske": 8281,
    "ĠTy": 8282,
    "Ġvalu": 8283,
    "Ġvaluable": 8284,
    "meaning": 8285,
    "Ġcorrupt": 8286,
    "Ã¤": 8287,
    "ĠOrganization": 8288,
    "ceans": 8289,
    "Ġsubd": 8290,
    "Ġherbivores": 8291,
    "ĠBav": 8292,
    "sometimes": 8293,
    "city": 8294,
    "kins": 8295,
    "Ġbudget": 8296,
    "ĠCla": 8297,
    "Ġanymore": 8298,
    "ĠAllies": 8299,
    "Ġtort": 8300,
    "Ġfundamental": 8301,
    "35": 8302,
    "Ġmulti": 8303,
    "Ġyoungest": 8304,
    "Ġunif": 8305,
    "Ġnone": 8306,
    "iests": 8307,
    "Ġcrus": 8308,
    "opy": 8309,
    "Ġdescript": 8310,
    "Cal": 8311,
    "Old": 8312,
    "Ġquarter": 8313,
    "Ġpetroleum": 8314,
    "Ġdances": 8315,
    "Ġfeelings": 8316,
    "ĠGarfield": 8317,
    "ĠSwedish": 8318,
    "Ġafraid": 8319,
    "Ġclearly": 8320,
    "Ġsemen": 8321,
    "Ġtreatments": 8322,
    "pring": 8323,
    "iac": 8324,
    "Ġnose": 8325,
    "Ġgross": 8326,
    "ĠRomance": 8327,
    "ta": 8328,
    "Ġ1924": 8329,
    "Ġstock": 8330,
    "Ġstrike": 8331,
    "Ġselected": 8332,
    "ikh": 8333,
    "Ġvul": 8334,
    "Ġgenerations": 8335,
    "ĠHon": 8336,
    "ih": 8337,
    "upted": 8338,
    "Ġamm": 8339,
    "acing": 8340,
    "ĠRus": 8341,
    "Ġzones": 8342,
    "Ġputs": 8343,
    "ĠiPod": 8344,
    "ĠSony": 8345,
    "Ġemph": 8346,
    "ĠAlgeria": 8347,
    "Ġenzymes": 8348,
    "Ġfocused": 8349,
    "Ġflies": 8350,
    "ĠForest": 8351,
    "Ġinjured": 8352,
    "Ġgradually": 8353,
    "Ġlord": 8354,
    "Ġrealized": 8355,
    "ĠTheatre": 8356,
    "ĠHarold": 8357,
    "ĠCont": 8358,
    "isia": 8359,
    "ĠShel": 8360,
    "onna": 8361,
    "Ġsalamanders": 8362,
    "Ġemergency": 8363,
    "ĠPlymouth": 8364,
    "ĠHeart": 8365,
    "Ġlad": 8366,
    "Ġfired": 8367,
    "ĠAtlanta": 8368,
    "Don": 8369,
    "Ġcartoons": 8370,
    "Ġfinishes": 8371,
    "Ġdisagree": 8372,
    "Ġcreative": 8373,
    "Ġthoughts": 8374,
    "Ġitem": 8375,
    "ĠMill": 8376,
    "Ġmerch": 8377,
    "Ġgay": 8378,
    "ĠTele": 8379,
    "ordan": 8380,
    "athe": 8381,
    "lain": 8382,
    "Ġequals": 8383,
    "alian": 8384,
    "istory": 8385,
    "General": 8386,
    "Ġcycl": 8387,
    "Ġplains": 8388,
    "Ġ1600": 8389,
    "Ġvoy": 8390,
    "ĠCaptain": 8391,
    "ĠCook": 8392,
    "ĠGib": 8393,
    "ocal": 8394,
    "Ġessential": 8395,
    "Ġstatues": 8396,
    "Ġcreatures": 8397,
    "oves": 8398,
    "asht": 8399,
    "Ġancestry": 8400,
    "67": 8401,
    "Ġfirm": 8402,
    "ĠSmall": 8403,
    "55": 8404,
    "ĠTogether": 8405,
    "Ġrays": 8406,
    "Ġphysicists": 8407,
    "strong": 8408,
    "Ġrequires": 8409,
    "Ġmetall": 8410,
    "ĠNorman": 8411,
    "ĠBruce": 8412,
    "Ġtravels": 8413,
    "ĠCer": 8414,
    "Ġspreading": 8415,
    "Ġdisput": 8416,
    "ĠLie": 8417,
    "vo": 8418,
    "ĠHay": 8419,
    "Ġorganisation": 8420,
    "ĠBirmingham": 8421,
    "Ġnoted": 8422,
    "?\"": 8423,
    "Ġlandscape": 8424,
    "anna": 8425,
    "ĠPaulo": 8426,
    "Ġbrand": 8427,
    "Ġindex": 8428,
    "poration": 8429,
    "ĠDespite": 8430,
    "Ġwhereas": 8431,
    "ĠCyprus": 8432,
    "Ġexception": 8433,
    "Ġseats": 8434,
    "Ġmile": 8435,
    "ucture": 8436,
    "irty": 8437,
    "Ġplanning": 8438,
    "iginally": 8439,
    "Ġcere": 8440,
    "Ġstarch": 8441,
    "Ġvision": 8442,
    "po": 8443,
    "acco": 8444,
    "Ġcash": 8445,
    "Ġangles": 8446,
    "Ġpor": 8447,
    "Ġstatistics": 8448,
    "ĠZeus": 8449,
    "Ġevapor": 8450,
    "Ġtissue": 8451,
    "Ġcapacity": 8452,
    "Ġexecution": 8453,
    "Ġcarbohydr": 8454,
    "Ġchop": 8455,
    "nish": 8456,
    "Ġtongue": 8457,
    "ko": 8458,
    "Ġcharts": 8459,
    "ĠVers": 8460,
    "DL": 8461,
    "ovah": 8462,
    "hovah": 8463,
    "Ġpercentage": 8464,
    "Ġadvertis": 8465,
    "ĠBelize": 8466,
    "Ġopposition": 8467,
    "Ġdominant": 8468,
    "Ġheavier": 8469,
    "Ġalk": 8470,
    "Ġ/": 8471,
    "oga": 8472,
    "ĠVenice": 8473,
    "ĠKyoto": 8474,
    "employ": 8475,
    "ĠTrojan": 8476,
    "Ġoxidation": 8477,
    "ĠConvention": 8478,
    "ÅĤ": 8479,
    "ĠHispan": 8480,
    "stric": 8481,
    "striches": 8482,
    "Ġflex": 8483,
    "Ġmagazines": 8484,
    "ĠBroad": 8485,
    "Ġpeng": 8486,
    "ĠStandard": 8487,
    "Ġconcerts": 8488,
    "Pal": 8489,
    "Ġobserver": 8490,
    "29": 8491,
    "Ġcontaining": 8492,
    "ĠCamp": 8493,
    "ĠDa": 8494,
    "inson": 8495,
    "Ġtrademark": 8496,
    "William": 8497,
    "ĠBishop": 8498,
    "ĠVenezuela": 8499,
    "Ġrecommended": 8500,
    "olshe": 8501,
    "Ġsubmar": 8502,
    "Ġmyths": 8503,
    "Ġunable": 8504,
    "Ġles": 8505,
    "ĠIV": 8506,
    "ĠFilm": 8507,
    "oking": 8508,
    "ĠMotown": 8509,
    "ĠIowa": 8510,
    "ĠAllende": 8511,
    "ĠPrague": 8512,
    "ĠMinh": 8513,
    "ĠFri": 8514,
    "ĠIOC": 8515,
    "oolidge": 8516,
    "ĠGandalf": 8517,
    "Ġautumn": 8518,
    "Ġmechanical": 8519,
    "Ġenvironmental": 8520,
    "Ġshad": 8521,
    ".âĢĿ": 8522,
    "Ġshortened": 8523,
    "ĠOttawa": 8524,
    "German": 8525,
    "Ġvarieties": 8526,
    "Ġmetric": 8527,
    "Ġoperation": 8528,
    "Ġcombine": 8529,
    "Ġmonot": 8530,
    "Ġplatypus": 8531,
    "ĠIndo": 8532,
    "ĠHead": 8533,
    "Ġmanagement": 8534,
    "ĠSnow": 8535,
    "ĠCarey": 8536,
    "ĠSteve": 8537,
    "Ġtennis": 8538,
    "Ġmars": 8539,
    "Ġoccasionally": 8540,
    "ologies": 8541,
    "Ġresc": 8542,
    "crim": 8543,
    "Ġancestors": 8544,
    "ĠCape": 8545,
    "Ġunf": 8546,
    "tropical": 8547,
    "Ġcoordin": 8548,
    "Ġmeasures": 8549,
    "Ġbalance": 8550,
    "uls": 8551,
    "Ġcounted": 8552,
    "oyager": 8553,
    "Ġcathed": 8554,
    "rals": 8555,
    "Ġcheaper": 8556,
    "oyd": 8557,
    "ĠKhan": 8558,
    "contin": 8559,
    "edom": 8560,
    "Ġspending": 8561,
    "ĠBronze": 8562,
    "ĠFranz": 8563,
    "llor": 8564,
    "Ġce": 8565,
    "Ġvertebrates": 8566,
    "Ġchips": 8567,
    "Ġvegetable": 8568,
    "Ġkills": 8569,
    "rooms": 8570,
    "ĠBelgian": 8571,
    "Ġoceanic": 8572,
    "Ġimprison": 8573,
    "Ġdescent": 8574,
    "Ġreleases": 8575,
    "Ġprocessing": 8576,
    "helm": 8577,
    "Several": 8578,
    "enge": 8579,
    "Ġpeas": 8580,
    "Ġrid": 8581,
    "Col": 8582,
    "Ġpriests": 8583,
    "Ġserfs": 8584,
    "aders": 8585,
    "Ġsurrendered": 8586,
    "Ġfault": 8587,
    "ĠResearch": 8588,
    "Ġhorizont": 8589,
    "ĠPrincip": 8590,
    "ĠEisenhower": 8591,
    "And": 8592,
    "Ġdiversity": 8593,
    "ĠConserv": 8594,
    "Ġoffspring": 8595,
    "Ġrebuilt": 8596,
    "28": 8597,
    "Ġcoloured": 8598,
    "Ġtanks": 8599,
    "ĠCount": 8600,
    "ĠEstonia": 8601,
    "Sax": 8602,
    "Ġvoting": 8603,
    "Ġlenses": 8604,
    "Ġspecifically": 8605,
    "ati": 8606,
    "Ġparallel": 8607,
    "ha": 8608,
    "ĠHolland": 8609,
    "Ġere": 8610,
    "Ġtowers": 8611,
    "ĠFilip": 8612,
    "Hind": 8613,
    "Ġlions": 8614,
    "Ind": 8615,
    "aughter": 8616,
    "Ġthirteen": 8617,
    "Ġbag": 8618,
    "Ġorchestr": 8619,
    "ĠPresley": 8620,
    "Ġformat": 8621,
    "fred": 8622,
    "essor": 8623,
    "Ġfourteen": 8624,
    "ĠBrooklyn": 8625,
    "Ġhip": 8626,
    "Ġeducational": 8627,
    "ĠRoger": 8628,
    "gow": 8629,
    "Ġarmed": 8630,
    "Ġtraveling": 8631,
    "ĠPharaoh": 8632,
    "Ġ1923": 8633,
    "Ġbroadcasting": 8634,
    "uin": 8635,
    "ĠBarcelona": 8636,
    "Ġpornography": 8637,
    "Ġawards": 8638,
    "ĠDerby": 8639,
    "Ġ#": 8640,
    "ĠTennessee": 8641,
    "ipzig": 8642,
    "agle": 8643,
    "chi": 8644,
    "ĠGil": 8645,
    "Ġejac": 8646,
    "affeine": 8647,
    "ĠBand": 8648,
    "ĠCornish": 8649,
    "ĠMonkees": 8650,
    "ĨĲ": 8651,
    "âĨĲ": 8652,
    "apton": 8653,
    "Billboard": 8654,
    "Ġperforming": 8655,
    "Ġarrange": 8656,
    "Ġcivilizations": 8657,
    "ĠCountry": 8658,
    "):": 8659,
    "Ġjail": 8660,
    "Ġduties": 8661,
    "ĠLar": 8662,
    "Ġconfused": 8663,
    "Ġtectonic": 8664,
    "Ġgolden": 8665,
    "ĠAbor": 8666,
    "wig": 8667,
    "ĠHoward": 8668,
    "ĠFederation": 8669,
    "seas": 8670,
    "Ġsoccer": 8671,
    "Ġpronunciation": 8672,
    "Ġabbre": 8673,
    "Ġobey": 8674,
    "abr": 8675,
    "itic": 8676,
    "Ġwheels": 8677,
    "Ġfaced": 8678,
    "eenth": 8679,
    "Ġmentioned": 8680,
    "atem": 8681,
    "ĠGuatem": 8682,
    "ĠKaz": 8683,
    "Ġ49": 8684,
    "Ġflavor": 8685,
    "equ": 8686,
    "ibn": 8687,
    "37": 8688,
    "59": 8689,
    "ĠUsing": 8690,
    "Ġnoble": 8691,
    "ĠOtto": 8692,
    "uclear": 8693,
    "Ġca": 8694,
    "Ġpriest": 8695,
    "ĠIsaac": 8696,
    "eda": 8697,
    "Ġtechni": 8698,
    "Ġtechniques": 8699,
    "ĠCass": 8700,
    "Ġ1890": 8701,
    "Ġnerv": 8702,
    "alib": 8703,
    "igers": 8704,
    "Ġalongside": 8705,
    "ni": 8706,
    "ĠAh": 8707,
    "Ġemp": 8708,
    "Ġpresence": 8709,
    "Ġvia": 8710,
    "cap": 8711,
    "Ġrepresenting": 8712,
    "ĠShort": 8713,
    "Ġreco": 8714,
    "usually": 8715,
    "Ġbankruptcy": 8716,
    "Ġwax": 8717,
    "burn": 8718,
    "bourg": 8719,
    "andal": 8720,
    "reas": 8721,
    "Ġ1860": 8722,
    "Ġ1911": 8723,
    "ĠJava": 8724,
    "Ġprojects": 8725,
    "Ġbare": 8726,
    "Ġcarries": 8727,
    "Ġfing": 8728,
    "strial": 8729,
    "restrial": 8730,
    "Ġloyal": 8731,
    "Ġrelatives": 8732,
    "Ġreun": 8733,
    "Ġbear": 8734,
    "Ġreadings": 8735,
    "ospel": 8736,
    "Ġfacing": 8737,
    "crib": 8738,
    "ecies": 8739,
    "Ġdomain": 8740,
    "imensional": 8741,
    "dimensional": 8742,
    "Ġ1898": 8743,
    "Ġmissiles": 8744,
    "Ġhorn": 8745,
    "Con": 8746,
    "bul": 8747,
    "ynthesis": 8748,
    "Ġthinks": 8749,
    "Ġchalleng": 8750,
    "Ġhide": 8751,
    "Ġmi": 8752,
    "Ġregister": 8753,
    "ĠTs": 8754,
    "uchy": 8755,
    "pron": 8756,
    "Ġpromoted": 8757,
    "ĠEducation": 8758,
    "ĠFoundation": 8759,
    "bow": 8760,
    "Ġphotons": 8761,
    "Ġreserves": 8762,
    "Ġarc": 8763,
    "ĠMedia": 8764,
    "ogs": 8765,
    "Ġ1861": 8766,
    "Ġlingu": 8767,
    "Ġmedals": 8768,
    "Ġunemploy": 8769,
    "Ġserves": 8770,
    "Ġlawyer": 8771,
    "Ġcas": 8772,
    "Ġchalk": 8773,
    "Ġloud": 8774,
    "Ġsilk": 8775,
    "uto": 8776,
    "ĠPower": 8777,
    "October": 8778,
    "olled": 8779,
    "Ġtranslation": 8780,
    "Ġ1865": 8781,
    "Ġpets": 8782,
    "Am": 8783,
    "Ġtrunk": 8784,
    "they": 8785,
    "Ġofficer": 8786,
    "ĠSU": 8787,
    "ĠSUV": 8788,
    "Ġgro": 8789,
    "ĠHolmes": 8790,
    "Ġresign": 8791,
    "ĠBolshe": 8792,
    "ĠAviv": 8793,
    "TC": 8794,
    "aws": 8795,
    "ĠSel": 8796,
    "ĠCologne": 8797,
    "Ġcaterpill": 8798,
    "vae": 8799,
    "ĠMaria": 8800,
    "Ġannivers": 8801,
    "Ġanniversary": 8802,
    "ĠGirl": 8803,
    "Ġherself": 8804,
    "eves": 8805,
    "ĠAbu": 8806,
    "Ġyouth": 8807,
    "ĠBros": 8808,
    "opper": 8809,
    "Ġpyram": 8810,
    "Bush": 8811,
    "amurai": 8812,
    "Ġdrummer": 8813,
    "Ġguitarist": 8814,
    "ĠRommel": 8815,
    "Ġvamp": 8816,
    "Ġdrama": 8817,
    "Ġblocks": 8818,
    "Ġprominent": 8819,
    "Ġ41": 8820,
    "Ġethics": 8821,
    "Ġcitizen": 8822,
    "Ġsorts": 8823,
    "French": 8824,
    "Ġsheep": 8825,
    "aks": 8826,
    "Ġconce": 8827,
    "Ġcounting": 8828,
    "Ġbelonged": 8829,
    "emen": 8830,
    "Ġcarefully": 8831,
    "Ġ1914": 8832,
    "ession": 8833,
    "Ġencouraged": 8834,
    "ounty": 8835,
    "food": 8836,
    "ounce": 8837,
    "asks": 8838,
    "Ġprophe": 8839,
    "Ġattempted": 8840,
    "ĠEventually": 8841,
    "iled": 8842,
    "Ġtrust": 8843,
    "ĠIndians": 8844,
    "Ġrac": 8845,
    "Ġju": 8846,
    "ĠBabylon": 8847,
    "Äģ": 8848,
    "Ġconst": 8849,
    "Ġproton": 8850,
    "Ġlaboratory": 8851,
    "ĠAstr": 8852,
    "olar": 8853,
    "Ġmuscles": 8854,
    "abul": 8855,
    "400": 8856,
    "Ġprobe": 8857,
    "Ġwinters": 8858,
    "Ġthirty": 8859,
    "ĠRos": 8860,
    "ĠSlovakia": 8861,
    "Ġadopt": 8862,
    "Ġrepeated": 8863,
    "ties": 8864,
    "Ġsituations": 8865,
    "Ġstuff": 8866,
    "Ġheated": 8867,
    "Ġpan": 8868,
    "Ġoffers": 8869,
    "ĠDeath": 8870,
    "Three": 8871,
    "Ġclassic": 8872,
    "Ġlegally": 8873,
    "ĠFIFA": 8874,
    "Ġscen": 8875,
    "Ġsuddenly": 8876,
    "Ġears": 8877,
    "his": 8878,
    "Ġvast": 8879,
    "Ġwel": 8880,
    "Ġclimb": 8881,
    "Ġsubur": 8882,
    "Ġsuburbs": 8883,
    "astructure": 8884,
    "Ġairports": 8885,
    "ouses": 8886,
    "Ġcommission": 8887,
    "Ġdecides": 8888,
    "Ġcontext": 8889,
    "Ġ\"(": 8890,
    "amas": 8891,
    "ĠCastro": 8892,
    "avian": 8893,
    "inking": 8894,
    "Ġdefine": 8895,
    "Ġpasses": 8896,
    "Ġpassing": 8897,
    "Ġlady": 8898,
    "ĠVice": 8899,
    "Ġrestaurant": 8900,
    "Ġcow": 8901,
    "Ġweigh": 8902,
    "Ġeuro": 8903,
    "Ġ1903": 8904,
    "udes": 8905,
    "Ġadver": 8906,
    "ednes": 8907,
    "ĠFather": 8908,
    "atab": 8909,
    "Ġdatab": 8910,
    "Ġhered": 8911,
    "Ġexpansion": 8912,
    "graph": 8913,
    "Ġ1859": 8914,
    "ĠDef": 8915,
    "ĠWitnesses": 8916,
    "ĠGra": 8917,
    "SO": 8918,
    "Ġ37": 8919,
    "ĠNet": 8920,
    "Ġlightning": 8921,
    "esty": 8922,
    "Ġlying": 8923,
    "Ġwooden": 8924,
    "aming": 8925,
    "Ġchair": 8926,
    "iot": 8927,
    "Ġextended": 8928,
    "ĠSub": 8929,
    "Ġ42": 8930,
    "hai": 8931,
    "ĠMarxist": 8932,
    "Ġtap": 8933,
    "ulgar": 8934,
    "ĠKentucky": 8935,
    "ĠWho": 8936,
    "etah": 8937,
    "ideo": 8938,
    "Ġpatient": 8939,
    "urich": 8940,
    "ĠReserve": 8941,
    "bishop": 8942,
    "Ġedition": 8943,
    "Ġassistant": 8944,
    "regon": 8945,
    "Ġshorts": 8946,
    "ĠDanny": 8947,
    "Ġaud": 8948,
    "ĠMaryland": 8949,
    "ĠGuild": 8950,
    "ĠRobin": 8951,
    "Ġfleet": 8952,
    "Ġvowel": 8953,
    "Ġtriangle": 8954,
    "Ġwing": 8955,
    "Water": 8956,
    "ĠDublin": 8957,
    "ĠAlexand": 8958,
    "Ġimaginary": 8959,
    "ĠEngine": 8960,
    "ysical": 8961,
    "ertile": 8962,
    "Ġcrop": 8963,
    "Ġexpressed": 8964,
    "Ġparliamentary": 8965,
    "ĠDi": 8966,
    "ĠFle": 8967,
    "Ġshore": 8968,
    "ĠMajor": 8969,
    "Ġtravelled": 8970,
    "Ġachieved": 8971,
    "oan": 8972,
    "ulture": 8973,
    "Ġpracticed": 8974,
    "Ġheaven": 8975,
    "ĠCommand": 8976,
    "Ġprotects": 8977,
    "ĠDaniel": 8978,
    "related": 8979,
    "ortion": 8980,
    "angered": 8981,
    "kl": 8982,
    "Ġforever": 8983,
    "ĠEll": 8984,
    "lesh": 8985,
    "Ġproducers": 8986,
    "Ġobvious": 8987,
    "Ġdefinitions": 8988,
    "Ġwidth": 8989,
    "Ġstrongest": 8990,
    "Ġphenomena": 8991,
    "Ġexpos": 8992,
    "Ġanalysis": 8993,
    "Ġlymph": 8994,
    "Ġpharaoh": 8995,
    "Ġcam": 8996,
    "ĠNATO": 8997,
    "ĠLu": 8998,
    "Ġdecline": 8999,
    "ĠSecurity": 9000,
    "ĠArts": 9001,
    "Ġoceans": 9002,
    "Ġedges": 9003,
    "Black": 9004,
    "Ġreducing": 9005,
    "Ġbrings": 9006,
    "free": 9007,
    "Ġcontrast": 9008,
    "pes": 9009,
    "ĠDue": 9010,
    "two": 9011,
    "Ġrod": 9012,
    "Ġmicro": 9013,
    "embourg": 9014,
    "uxembourg": 9015,
    "Ġ1908": 9016,
    "Ġ34": 9017,
    "Ġtip": 9018,
    "ĠRain": 9019,
    "ĠSÃ£o": 9020,
    "atinum": 9021,
    "Ġkeyboard": 9022,
    "Ġtheater": 9023,
    "Ġrocket": 9024,
    "Ġafterwards": 9025,
    "Ġopinions": 9026,
    "Ġ().": 9027,
    "teenth": 9028,
    "Ġexisting": 9029,
    "Ġnotably": 9030,
    "Ġpill": 9031,
    "ĠMilton": 9032,
    "ĠTroy": 9033,
    "ĠTol": 9034,
    "ĠLabour": 9035,
    "Ġsurvey": 9036,
    "Ġdollars": 9037,
    "Ġgambling": 9038,
    "What": 9039,
    "ĠCharl": 9040,
    "ricane": 9041,
    "Ġtur": 9042,
    "Ġcelebration": 9043,
    "Ġconnection": 9044,
    "ĠKat": 9045,
    "Ġbicycle": 9046,
    "Ġrituals": 9047,
    "Ġkick": 9048,
    "Ġstorms": 9049,
    "Ġexperimental": 9050,
    "standing": 9051,
    "Ġanthrop": 9052,
    "iedrich": 9053,
    "Jan": 9054,
    "ĠFinnish": 9055,
    "Ġcommunists": 9056,
    "Ġconnections": 9057,
    "Ġfavour": 9058,
    "ĠLawrence": 9059,
    "ĠGNU": 9060,
    "var": 9061,
    "da": 9062,
    "ulated": 9063,
    "Go": 9064,
    "Ġcondoms": 9065,
    "ĠCambodia": 9066,
    "uten": 9067,
    "ĠDavis": 9068,
    "ĠMalt": 9069,
    "Ġshopping": 9070,
    "Ġcourses": 9071,
    "cipitation": 9072,
    "Ġblues": 9073,
    "illy": 9074,
    "ĠKÃ¶ppen": 9075,
    "Ġdin": 9076,
    "Ġsitting": 9077,
    "Ġeruption": 9078,
    "Ġfifteen": 9079,
    "Ġcapt": 9080,
    "Ġdrawings": 9081,
    "Geor": 9082,
    "ĠStation": 9083,
    "ittee": 9084,
    "ĠCommittee": 9085,
    "Ġpassenger": 9086,
    "Ġassembly": 9087,
    "ilica": 9088,
    "ĠGene": 9089,
    "ĠHTML": 9090,
    "Ġ1848": 9091,
    "Ġphase": 9092,
    "ĠSenator": 9093,
    "ĠConnect": 9094,
    "ĠEnd": 9095,
    "ricks": 9096,
    "gart": 9097,
    "Ġ\"\",": 9098,
    "aganda": 9099,
    "atar": 9100,
    "ĠHus": 9101,
    "ĠPutin": 9102,
    "ĠConfederacy": 9103,
    "ĠChelsea": 9104,
    "aho": 9105,
    "hler": 9106,
    "ĠMedici": 9107,
    "ĠMendel": 9108,
    "adp": 9109,
    "Ġautistic": 9110,
    "ĠPom": 9111,
    "Ġvisual": 9112,
    "Ġartistic": 9113,
    "Ġcave": 9114,
    "Ġwarming": 9115,
    "hips": 9116,
    "Ġasteroids": 9117,
    "term": 9118,
    "ĠSar": 9119,
    "Ġnom": 9120,
    "vant": 9121,
    "Ġtechnical": 9122,
    "Ġirrigation": 9123,
    "Ġmultiplication": 9124,
    "Ġpens": 9125,
    "elly": 9126,
    "Ġnetworks": 9127,
    "Ġ1938": 9128,
    "FL": 9129,
    "Ġcenters": 9130,
    "Ġfrequent": 9131,
    "Ġloose": 9132,
    "Ġaspects": 9133,
    "Ġguard": 9134,
    "thew": 9135,
    "Ġdiscrim": 9136,
    "Ġsubtropical": 9137,
    "Ġswe": 9138,
    "ĠCE": 9139,
    "mag": 9140,
    "Ġacceleration": 9141,
    "anium": 9142,
    "Ġrelation": 9143,
    "lower": 9144,
    "Ġprobability": 9145,
    "Ġmagnet": 9146,
    "yscra": 9147,
    "Ġstrik": 9148,
    "perors": 9149,
    "Ġgrandfather": 9150,
    "Ġthreatened": 9151,
    "ĠSoviets": 9152,
    "common": 9153,
    "Ġgolf": 9154,
    "Ġ),": 9155,
    "ĠArn": 9156,
    "Ġoral": 9157,
    "ĠDown": 9158,
    "Ġcalculated": 9159,
    "py": 9160,
    "Ġprofit": 9161,
    "person": 9162,
    "Ġstraw": 9163,
    "Ġbananas": 9164,
    "Ġlip": 9165,
    "ĠGi": 9166,
    "Ġ39": 9167,
    "Ġvalle": 9168,
    "Ġvalleys": 9169,
    "ĠRegion": 9170,
    "Br": 9171,
    "ESCO": 9172,
    "Ġfame": 9173,
    "Ġcomics": 9174,
    "Ġseparately": 9175,
    "Ġraces": 9176,
    "ĠSpani": 9177,
    "ĠÂ": 9178,
    "ĠBeing": 9179,
    "ĠInt": 9180,
    "Ġhousehold": 9181,
    "eries": 9182,
    "ĠUSB": 9183,
    "Ġcakes": 9184,
    "ishops": 9185,
    "Ġfires": 9186,
    "first": 9187,
    "Ġcrow": 9188,
    "ĠFamous": 9189,
    "jo": 9190,
    "illas": 9191,
    "Ġslower": 9192,
    "rors": 9193,
    "Ġcomedian": 9194,
    "ĠLewis": 9195,
    "oted": 9196,
    "Ġpaying": 9197,
    "Ġinvade": 9198,
    "ĠBase": 9199,
    "ĠHealth": 9200,
    "Ġopponent": 9201,
    "hea": 9202,
    "Ġ(),": 9203,
    "this": 9204,
    "Ġneighb": 9205,
    "ĠEarl": 9206,
    "electric": 9207,
    "Ġexplosion": 9208,
    "gers": 9209,
    "Ġprior": 9210,
    "Ġscales": 9211,
    "aration": 9212,
    "Ġdiary": 9213,
    "Ġstroke": 9214,
    "umed": 9215,
    "Ġdisorders": 9216,
    "Ġhiding": 9217,
    "Ġ36": 9218,
    "ednesday": 9219,
    "ĠLakes": 9220,
    "Ġopport": 9221,
    "ĠAdv": 9222,
    "ailand": 9223,
    "ican": 9224,
    "ĠLibr": 9225,
    "Ġshel": 9226,
    "ĠAragon": 9227,
    "Ġammonia": 9228,
    "rets": 9229,
    "Ġid": 9230,
    "Ġstatements": 9231,
    "Ġsticks": 9232,
    "ĠArabian": 9233,
    "Ġexposed": 9234,
    "ĠWalter": 9235,
    "Ġairplanes": 9236,
    "Ġ360": 9237,
    "Ġ52": 9238,
    "</": 9239,
    "lando": 9240,
    "ĠRail": 9241,
    "ĠBlues": 9242,
    "ĠGershwin": 9243,
    "Mon": 9244,
    "Ġcomfort": 9245,
    "Ġapparent": 9246,
    "ĠRod": 9247,
    "idal": 9248,
    "ixed": 9249,
    "Ġnoticed": 9250,
    "ĠCarolina": 9251,
    "ĠMaine": 9252,
    "Ġchannel": 9253,
    "Ġnumeral": 9254,
    "Ġillnesses": 9255,
    "Ġbenefits": 9256,
    "Ġintended": 9257,
    "Ġapartment": 9258,
    "anner": 9259,
    "Ġtribut": 9260,
    "Ġdanger": 9261,
    "White": 9262,
    "ĠCIA": 9263,
    "ammers": 9264,
    "rac": 9265,
    "Ġblow": 9266,
    "ĠZurich": 9267,
    "nesota": 9268,
    "ĠDiego": 9269,
    "ĠHarry": 9270,
    "onely": 9271,
    "Ġmagic": 9272,
    "ambique": 9273,
    "ĠEdo": 9274,
    "ĠOdys": 9275,
    "Ġwound": 9276,
    "ĠWalt": 9277,
    "nius": 9278,
    "ilnius": 9279,
    "Ġnomination": 9280,
    "Ġpartner": 9281,
    "ĠJesse": 9282,
    "ĠTony": 9283,
    "Pope": 9284,
    "Ġbisexual": 9285,
    "ĠBarbados": 9286,
    "ĠOrchestra": 9287,
    "ĠHoboken": 9288,
    "ĠJulius": 9289,
    "Ġemotions": 9290,
    "ĠPersia": 9291,
    "Ġnotation": 9292,
    "La": 9293,
    "ĠPhoenic": 9294,
    "Ġteachers": 9295,
    "ĠJordan": 9296,
    "ĠNon": 9297,
    "Ġsubt": 9298,
    "Ġdiamonds": 9299,
    "ĠTasmania": 9300,
    "Ġsailed": 9301,
    "icts": 9302,
    "Ġprepare": 9303,
    "Ġvoices": 9304,
    "amous": 9305,
    "Ġoutdo": 9306,
    "gae": 9307,
    "uter": 9308,
    "alo": 9309,
    "Ġdescendants": 9310,
    "Ġgrouped": 9311,
    "Ġrates": 9312,
    "Ġancestor": 9313,
    "Ġflesh": 9314,
    "ĠFa": 9315,
    "87": 9316,
    "Ġsomewhat": 9317,
    "Ġstuck": 9318,
    "Ġdecay": 9319,
    "Elect": 9320,
    "epending": 9321,
    "stable": 9322,
    "ĠArabs": 9323,
    "ubble": 9324,
    "Ġdisapp": 9325,
    "Ġconstantly": 9326,
    "Ġdwarves": 9327,
    "ĠIndustr": 9328,
    "Ġcathedrals": 9329,
    "ĠChe": 9330,
    "ĠGe": 9331,
    "Ġnervous": 9332,
    "Ġintern": 9333,
    "Ġleop": 9334,
    "erts": 9335,
    "oro": 9336,
    "Ġprotests": 9337,
    "Between": 9338,
    "Ġsuccessor": 9339,
    "Ġ1934": 9340,
    "Ġrejected": 9341,
    "Ã¡n": 9342,
    "ĠFe": 9343,
    "Ġslang": 9344,
    "Ġmembr": 9345,
    "France": 9346,
    "Ġhistorically": 9347,
    "Ġanswers": 9348,
    "Ġdepartments": 9349,
    "Bel": 9350,
    "ographical": 9351,
    "ĠMedical": 9352,
    "Ġscene": 9353,
    "Ġfights": 9354,
    "Ġmine": 9355,
    "Ġcalculate": 9356,
    "Ġdesktop": 9357,
    "orph": 9358,
    "ipe": 9359,
    "ĠThird": 9360,
    "Ġcreator": 9361,
    "Ġcounter": 9362,
    "Ġdescription": 9363,
    "ĠKeynes": 9364,
    "edo": 9365,
    "Ġinfr": 9366,
    "Ġhousing": 9367,
    "Ġworst": 9368,
    "Ġresearchers": 9369,
    "Ġcomet": 9370,
    "idel": 9371,
    "Ġprepar": 9372,
    "Ġdancing": 9373,
    "')": 9374,
    "rem": 9375,
    "ĠDevil": 9376,
    "Ġspelled": 9377,
    "Ġtopic": 9378,
    "Ġpotatoes": 9379,
    "keys": 9380,
    "Ġvessels": 9381,
    "ocy": 9382,
    "Ġapproved": 9383,
    "ĠSix": 9384,
    "celled": 9385,
    "Ġmature": 9386,
    "Ġsells": 9387,
    "Ġinheritance": 9388,
    "inki": 9389,
    "elsinki": 9390,
    "ĠLap": 9391,
    "Me": 9392,
    "Ġseemed": 9393,
    "Ġmanufacturing": 9394,
    "Ġefforts": 9395,
    "Ġlibert": 9396,
    "Ġell": 9397,
    "Ġadvice": 9398,
    "Ġcaptain": 9399,
    "Ġlava": 9400,
    "Ġboundary": 9401,
    "Ġwatched": 9402,
    "Ġacademic": 9403,
    "olini": 9404,
    "ĠScience": 9405,
    "ĠNep": 9406,
    "ĠNepal": 9407,
    "power": 9408,
    "utenant": 9409,
    "Ġcritical": 9410,
    "vy": 9411,
    "Ġyeast": 9412,
    "Ġcorresp": 9413,
    "Ġflexible": 9414,
    "Ġrecre": 9415,
    "Ġprecipitation": 9416,
    "Ġlitre": 9417,
    "Ġinterview": 9418,
    "ĠProvince": 9419,
    "Ġvaried": 9420,
    "Ġrises": 9421,
    "Ġpromise": 9422,
    "Ġpupils": 9423,
    "Ġemphas": 9424,
    "Ġinvited": 9425,
    "eed": 9426,
    "That": 9427,
    "ogy": 9428,
    "Ġpolar": 9429,
    "52": 9430,
    "Ġprayers": 9431,
    "Ġbeauty": 9432,
    "Ġbullet": 9433,
    "valu": 9434,
    "\"'": 9435,
    "ĠTimes": 9436,
    "Ġexplo": 9437,
    "Ġhumidity": 9438,
    "asgow": 9439,
    "ĠGlasgow": 9440,
    "ĠCart": 9441,
    "ĠCoca": 9442,
    "aceous": 9443,
    "usten": 9444,
    "imary": 9445,
    "Ġ1929": 9446,
    "otten": 9447,
    "ĠOrange": 9448,
    "ĠRussians": 9449,
    "ĠConnecticut": 9450,
    "Robert": 9451,
    "Ġaddresses": 9452,
    "Ġwins": 9453,
    "ĠSeoul": 9454,
    "press": 9455,
    "ki": 9456,
    "opl": 9457,
    "Ġlarvae": 9458,
    "ĠDÃ¼sseldorf": 9459,
    "ĠBrand": 9460,
    "ĠOregon": 9461,
    "senal": 9462,
    "Ġfeat": 9463,
    "pswich": 9464,
    "ebraska": 9465,
    "ĠStev": 9466,
    "ĠJong": 9467,
    "Ùİ": 9468,
    "arasht": 9469,
    "arashtra": 9470,
    "ĠMTV": 9471,
    "ĠBuffy": 9472,
    "ĠVishnu": 9473,
    "ĠBowie": 9474,
    "auron": 9475,
    "Ġ700": 9476,
    "Ġquantities": 9477,
    "Ġbreathe": 9478,
    "Ġhormones": 9479,
    "Ġgranted": 9480,
    "Ġtwin": 9481,
    "istence": 9482,
    "ugs": 9483,
    "ithmetic": 9484,
    "ĠMelbourne": 9485,
    "Ġinland": 9486,
    "Ġvoyage": 9487,
    "Ġsailors": 9488,
    "Ġroast": 9489,
    "oli": 9490,
    "ĠFall": 9491,
    "Ġstarring": 9492,
    "oston": 9493,
    "ĠBoston": 9494,
    "Ġoriginated": 9495,
    "ĠEve": 9496,
    "Ġappearances": 9497,
    "Ġglac": 9498,
    "ĠGuatemala": 9499,
    "Ġtemperate": 9500,
    "Ġinput": 9501,
    "Ġsquares": 9502,
    "54": 9503,
    "82": 9504,
    "Ġ1925": 9505,
    "ĠFreder": 9506,
    "Ġneutron": 9507,
    "Ġuranium": 9508,
    "Ġmyster": 9509,
    "62": 9510,
    "ydrogen": 9511,
    "andom": 9512,
    "ĠEgyptians": 9513,
    "ĠJohannes": 9514,
    "away": 9515,
    "Ġobservation": 9516,
    "Ġskyscra": 9517,
    "Ġaband": 9518,
    "leton": 9519,
    "ĠTalib": 9520,
    "Ġsummers": 9521,
    "continent": 9522,
    "Ġ1880": 9523,
    "ĠZam": 9524,
    "November": 9525,
    "East": 9526,
    "ĠAustrian": 9527,
    "Ġcake": 9528,
    "Ġunderwater": 9529,
    "Ġinterpretation": 9530,
    "ĠThough": 9531,
    "Ġdrunk": 9532,
    "Ġfrozen": 9533,
    "Ġbee": 9534,
    "Ġexceptions": 9535,
    "Ġspots": 9536,
    "ĠBurg": 9537,
    "ĠYears": 9538,
    "Ġwealthy": 9539,
    "Ġsmooth": 9540,
    "Ġ46": 9541,
    "Ġdefence": 9542,
    "ĠMedal": 9543,
    "Ġromantic": 9544,
    "inem": 9545,
    "Ġdriver": 9546,
    "Ġabolished": 9547,
    "Ġlighter": 9548,
    "Ġburns": 9549,
    "++": 9550,
    "fri": 9551,
    "ication": 9552,
    "Ġsupporters": 9553,
    "ĠBapt": 9554,
    "Ġmeal": 9555,
    "Ġbelieves": 9556,
    "Ġritual": 9557,
    "Ġbishops": 9558,
    "ĠConstant": 9559,
    "ĠDemocrat": 9560,
    "Ġboiling": 9561,
    "echn": 9562,
    "Ġknowing": 9563,
    ")\"": 9564,
    "Ġracial": 9565,
    "ĠGet": 9566,
    "Ġdice": 9567,
    "Ġcosts": 9568,
    "Ġhunted": 9569,
    "Ġsacr": 9570,
    "ĠBall": 9571,
    "ĠReformation": 9572,
    "Ġ1935": 9573,
    "ĠHamlet": 9574,
    "ĠTradition": 9575,
    "outheastern": 9576,
    "Ġsilic": 9577,
    "Ġlaid": 9578,
    "Ġmethane": 9579,
    "Ġsurfaces": 9580,
    "Ġcandidates": 9581,
    "Ġinteraction": 9582,
    "olds": 9583,
    "ĠFriedrich": 9584,
    "Ġauthorities": 9585,
    "ĠThurs": 9586,
    "ĠThursday": 9587,
    "Ġpassage": 9588,
    "ĠDoctors": 9589,
    "ĠBon": 9590,
    "Ġ1870": 9591,
    "Ġjoint": 9592,
    "Ġcriticism": 9593,
    "Ġassociation": 9594,
    "Ġestimates": 9595,
    "Ġsections": 9596,
    "Ġvulner": 9597,
    "Ġrepresentative": 9598,
    "Ġemotional": 9599,
    "Ġpromote": 9600,
    "aching": 9601,
    "ella": 9602,
    "mail": 9603,
    "ĠAIDS": 9604,
    "ĠHir": 9605,
    "net": 9606,
    "ifts": 9607,
    "Ġadaptation": 9608,
    "Ġenforce": 9609,
    "ĠBorough": 9610,
    "ĠSI": 9611,
    "Des": 9612,
    "Ġastronaut": 9613,
    "ibl": 9614,
    "Ġcharity": 9615,
    "Ġstem": 9616,
    "Ġpredicted": 9617,
    "Ġinaug": 9618,
    "More": 9619,
    "ĠVo": 9620,
    "Ġtesting": 9621,
    "ĠAlong": 9622,
    "abilities": 9623,
    "Ġhatch": 9624,
    "Ġexternal": 9625,
    "Ġbatteries": 9626,
    "\"\",": 9627,
    "Ġfavorite": 9628,
    "Ġfreezing": 9629,
    "ĠPalestine": 9630,
    "ĠMacedonia": 9631,
    "nament": 9632,
    "Ġnerve": 9633,
    "ĠWalk": 9634,
    "Ġwed": 9635,
    "ayed": 9636,
    "ĠWednesday": 9637,
    "Ġconductor": 9638,
    "Ġwires": 9639,
    "olis": 9640,
    "ĠLeipzig": 9641,
    "ĠBud": 9642,
    "ĠRiga": 9643,
    "Ġpencils": 9644,
    "ĠWorkers": 9645,
    "Ġsamurai": 9646,
    "Ġsushi": 9647,
    "ubercul": 9648,
    "uberculosis": 9649,
    "pson": 9650,
    "ĠClapton": 9651,
    "Ġcalendars": 9652,
    "Ġdying": 9653,
    "histor": 9654,
    "London": 9655,
    "Ġeducated": 9656,
    "ĠCambridge": 9657,
    "Ġillustr": 9658,
    "prod": 9659,
    "Ġcomplain": 9660,
    "Ġ85": 9661,
    "mass": 9662,
    "urance": 9663,
    "ĠAboriginal": 9664,
    "Ġexplore": 9665,
    "ĠLud": 9666,
    "ushes": 9667,
    "Ġrichest": 9668,
    "group": 9669,
    "Ġaccent": 9670,
    "reams": 9671,
    "ĠRap": 9672,
    "Ġcovering": 9673,
    "ĠKings": 9674,
    "uing": 9675,
    "Ġpink": 9676,
    "ria": 9677,
    "Ġcure": 9678,
    "stract": 9679,
    "Ġfusion": 9680,
    "Ġwilling": 9681,
    "ĠSimilar": 9682,
    "ĠPeriod": 9683,
    "Ġbin": 9684,
    "Ġrising": 9685,
    "rose": 9686,
    "Ġpurs": 9687,
    "Ġwithd": 9688,
    "agon": 9689,
    "ilding": 9690,
    "ĠList": 9691,
    "ĠNamib": 9692,
    "ĠDevelop": 9693,
    "za": 9694,
    "ĠPlate": 9695,
    "ĠArea": 9696,
    "ĠColon": 9697,
    "ĠAnimals": 9698,
    "Ġrespiration": 9699,
    "Ġcarn": 9700,
    "ĠHomer": 9701,
    "Of": 9702,
    "Ġdish": 9703,
    "trib": 9704,
    "Ġble": 9705,
    "Ġ('": 9706,
    "class": 9707,
    "Ġ1951": 9708,
    "Ġfertile": 9709,
    "ĠUNESCO": 9710,
    "ĠRub": 9711,
    "Ġ1889": 9712,
    "astics": 9713,
    "leg": 9714,
    "ĠTao": 9715,
    "Ġtied": 9716,
    "Ġlatter": 9717,
    "Ġinfrastructure": 9718,
    "Ġconsequ": 9719,
    "Ġprev": 9720,
    "Ġcub": 9721,
    "Ġhidden": 9722,
    "Ġkern": 9723,
    "Ġhorizontal": 9724,
    "airy": 9725,
    "bacco": 9726,
    "Ġtobacco": 9727,
    "Ġprimarily": 9728,
    "Ġdisaster": 9729,
    "atever": 9730,
    "Ġfairly": 9731,
    "sal": 9732,
    "Ġprec": 9733,
    "cription": 9734,
    "hol": 9735,
    "Ġcabinet": 9736,
    "sch": 9737,
    "Ġpresents": 9738,
    "mia": 9739,
    "Ġcalci": 9740,
    "Ġcalcium": 9741,
    "ĠSlavic": 9742,
    "Ġtouching": 9743,
    "ystem": 9744,
    "Also": 9745,
    "Ġlift": 9746,
    "Ġcarbohydrates": 9747,
    "Ġgills": 9748,
    "Ġcircles": 9749,
    "Ġindo": 9750,
    "clus": 9751,
    "Ġ101": 9752,
    "Ġol": 9753,
    "ymn": 9754,
    "Ġmoose": 9755,
    "Ġadjectives": 9756,
    "Ġvariations": 9757,
    "Ġgift": 9758,
    "ĠBrah": 9759,
    "ĠThailand": 9760,
    "ĠAdolf": 9761,
    "Ġprogrammes": 9762,
    "Big": 9763,
    "Ġshield": 9764,
    "Ġperformances": 9765,
    "Ġexplorer": 9766,
    "number": 9767,
    "Ġtin": 9768,
    "uberty": 9769,
    "Ġpuberty": 9770,
    "ussolini": 9771,
    "when": 9772,
    "Ġ79": 9773,
    "Ġimmunity": 9774,
    "39": 9775,
    "Ġscor": 9776,
    "June": 9777,
    "uesday": 9778,
    "cm": 9779,
    "Ġkilogram": 9780,
    "Ġquiet": 9781,
    "ĠOffice": 9782,
    "world": 9783,
    "ĠPython": 9784,
    "Ġcanals": 9785,
    "ĠAlfred": 9786,
    "ĠmacOS": 9787,
    "irts": 9788,
    "Ġchains": 9789,
    "aints": 9790,
    "isdom": 9791,
    "Ġsheet": 9792,
    "ĠStanley": 9793,
    "Les": 9794,
    "ronic": 9795,
    "anghai": 9796,
    "ĠIndiana": 9797,
    "Ġmurdered": 9798,
    "Ġexped": 9799,
    "ifted": 9800,
    "Ġprisoners": 9801,
    "ffield": 9802,
    "My": 9803,
    "inn": 9804,
    "Ġcheetah": 9805,
    "kim": 9806,
    "Es": 9807,
    "Ġbricks": 9808,
    "Co": 9809,
    "DR": 9810,
    "ĠHoloc": 9811,
    "ĠHolocaust": 9812,
    "Ã¼rich": 9813,
    "ĠZÃ¼rich": 9814,
    "ĠBavaria": 9815,
    "Ġbid": 9816,
    "ĠMinnesota": 9817,
    "aguar": 9818,
    "ĠAlba": 9819,
    "Ġ1899": 9820,
    "ĠFred": 9821,
    "ĠUnix": 9822,
    "Ġtwins": 9823,
    "ĠArchbishop": 9824,
    "Ġeditor": 9825,
    "ĠTrek": 9826,
    "ĠIl": 9827,
    "ĠGrey": 9828,
    "Ġswallow": 9829,
    "urassic": 9830,
    "ĠHusse": 9831,
    "ĠHussein": 9832,
    "oshi": 9833,
    "ĠBrothers": 9834,
    "ilda": 9835,
    "ĠMcCartney": 9836,
    "enson": 9837,
    "ĠBoley": 9838,
    "Ġfeaturing": 9839,
    "ĠCoolidge": 9840,
    "adpoles": 9841,
    "Ġhope": 9842,
    "ĠVinci": 9843,
    "ieth": 9844,
    "Ġhydrocar": 9845,
    "Ġoccasions": 9846,
    "Ġcomposition": 9847,
    "Ġtheoretical": 9848,
    "gram": 9849,
    "May": 9850,
    "Ġsongwriter": 9851,
    "Ġteenager": 9852,
    "Ġpork": 9853,
    "Ġsausages": 9854,
    "Ġarithmetic": 9855,
    "Ġcarp": 9856,
    "umbers": 9857,
    "Ġment": 9858,
    "Ġconcepts": 9859,
    "Ġbillions": 9860,
    "ĠStrait": 9861,
    "Ġthrown": 9862,
    "Ġescaped": 9863,
    "language": 9864,
    "Ġoverseas": 9865,
    "ĠHome": 9866,
    "ĠKid": 9867,
    "Ġcompetitions": 9868,
    "lete": 9869,
    "Ġsurviving": 9870,
    "sters": 9871,
    "Ġtrick": 9872,
    "Ġpipes": 9873,
    "Ġservants": 9874,
    "ĠStill": 9875,
    "Muslim": 9876,
    "ĠMatthew": 9877,
    "Ġlogical": 9878,
    "ĠLast": 9879,
    "while": 9880,
    "Ġendangered": 9881,
    "akhstan": 9882,
    "Ġjuice": 9883,
    "Ġknife": 9884,
    "ĠAbrahamic": 9885,
    "ĠBag": 9886,
    "49": 9887,
    "Do": 9888,
    "Ġphilosophical": 9889,
    "rons": 9890,
    "Ġshells": 9891,
    "sts": 9892,
    "Ġastronomical": 9893,
    "Arch": 9894,
    "Ġglands": 9895,
    "Ġcircul": 9896,
    "United": 9897,
    "Ġwal": 9898,
    "avid": 9899,
    "irates": 9900,
    "Ġterrorist": 9901,
    "Ġtouches": 9902,
    "Ġrainy": 9903,
    "popular": 9904,
    "Ġdissolved": 9905,
    "van": 9906,
    "Ġmetab": 9907,
    "thetic": 9908,
    "Ġcredit": 9909,
    "Ġdivisions": 9910,
    "Ġfinds": 9911,
    "Ġcholesterol": 9912,
    "Ġhoney": 9913,
    "Ġsupernatural": 9914,
    "asp": 9915,
    "Ġinfected": 9916,
    "Ġmushrooms": 9917,
    "Ġbehave": 9918,
    "ĠLuxembourg": 9919,
    "ynam": 9920,
    "Ġpainter": 9921,
    "Ġfan": 9922,
    "ĠMaur": 9923,
    "Ġimprisoned": 9924,
    "president": 9925,
    "Ġmasses": 9926,
    "Ġcircuits": 9927,
    "Ġargue": 9928,
    "Ġadj": 9929,
    "ĠWilhelm": 9930,
    "Ġrepair": 9931,
    "Ġexperts": 9932,
    "ĠEurasia": 9933,
    "Ġterrestrial": 9934,
    "eration": 9935,
    "heres": 9936,
    "Ġrebellion": 9937,
    "Ġjumping": 9938,
    "Ġdisp": 9939,
    "Ġpap": 9940,
    "nost": 9941,
    "Ġtoler": 9942,
    "case": 9943,
    "ĠChurches": 9944,
    "ĠRichmond": 9945,
    "Ġod": 9946,
    "irit": 9947,
    "ĠYouth": 9948,
    "Ġrestrict": 9949,
    "Ġissued": 9950,
    "Ġprimitive": 9951,
    "iring": 9952,
    "Ġthrowing": 9953,
    "portant": 9954,
    "Ġbanana": 9955,
    "elfare": 9956,
    "Ġabund": 9957,
    "Ġattractions": 9958,
    "opa": 9959,
    "%).": 9960,
    "Ġpoles": 9961,
    "Ġstorm": 9962,
    "Ġvacc": 9963,
    "Ġneighborhood": 9964,
    "Ġsector": 9965,
    "Ġsyllables": 9966,
    "January": 9967,
    "ivate": 9968,
    "Ġmuscle": 9969,
    "ĠDuchy": 9970,
    "Ġembry": 9971,
    "Ġtense": 9972,
    "ĠMontreal": 9973,
    "Ġcompete": 9974,
    "Ġelder": 9975,
    "Ġparadox": 9976,
    "Ġtick": 9977,
    "Ġanarch": 9978,
    "alaxy": 9979,
    "olls": 9980,
    "Ġsailor": 9981,
    "Ġerect": 9982,
    "Ġabdom": 9983,
    "ĠLeicester": 9984,
    "Ġsailing": 9985,
    "Ġexposure": 9986,
    "Ġoun": 9987,
    "ĠChampions": 9988,
    "Ġgerm": 9989,
    "Ġ...": 9990,
    "aki": 9991,
    "Ġunemployment": 9992,
    "ĠWind": 9993,
    "Ġgor": 9994,
    "Ġchromosomes": 9995,
    "Ġprinciples": 9996,
    "ĠCircle": 9997,
    "opoly": 9998,
    "fortun": 9999,
    "ĠCross": 10000,
    "Cf": 10001,
    "ĠÃĹ": 10002,
    "oque": 10003,
    "Ġtone": 10004,
    "Ġstood": 10005,
    "aken": 10006,
    "Ġlion": 10007,
    "ĠWord": 10008,
    "Ġfellow": 10009,
    ".).": 10010,
    "Ġmagnitude": 10011,
    "ĠâĪĴ": 10012,
    "Ġplasma": 10013,
    "ĠByzantine": 10014,
    "Ġfibers": 10015,
    "ĠCreek": 10016,
    "isenberg": 10017,
    "ambo": 10018,
    "Once": 10019,
    "Ġwarning": 10020,
    "ĠBalk": 10021,
    "Their": 10022,
    "stream": 10023,
    "owship": 10024,
    "retaceous": 10025,
    "ĠCretaceous": 10026,
    "ĠCommons": 10027,
    "ĠGeneva": 10028,
    "Ġengaged": 10029,
    "Ġoccupation": 10030,
    "ĠTunisia": 10031,
    "viks": 10032,
    "Ġmagma": 10033,
    "itimate": 10034,
    "emberg": 10035,
    "Ã¼rtt": 10036,
    "Ã¼rttemberg": 10037,
    "Ġchampionship": 10038,
    "ĠAthlet": 10039,
    "pass": 10040,
    "ĠLanc": 10041,
    "George": 10042,
    "Ġpencil": 10043,
    "ĠBlair": 10044,
    "Ġmedication": 10045,
    "ĠCBS": 10046,
    "ĠFrances": 10047,
    "Ġinjury": 10048,
    "ĠTon": 10049,
    "ĠTong": 10050,
    "Ġhomosexuality": 10051,
    "ĠMaharashtra": 10052,
    "seus": 10053,
    "ĠCole": 10054,
    "ĠSauron": 10055,
    "rodite": 10056,
    "ĠUpper": 10057,
    "Ġtwent": 10058,
    "Earth": 10059,
    "Ġ78": 10060,
    "Ġautonomous": 10061,
    "run": 10062,
    "Can": 10063,
    "ĠLebanon": 10064,
    "athered": 10065,
    "Ġmarkets": 10066,
    "Ġanimation": 10067,
    "Ġ1901": 10068,
    "fire": 10069,
    "MS": 10070,
    "Ġbrick": 10071,
    "ĠFront": 10072,
    "Ġattacking": 10073,
    "ĠOscar": 10074,
    "Ġrugby": 10075,
    "ĠOpen": 10076,
    "Ġcustomers": 10077,
    "Ġspell": 10078,
    "ĠNASA": 10079,
    "Ġhitting": 10080,
    "Ġdiscussed": 10081,
    "Ġjustice": 10082,
    "Ġelsewhere": 10083,
    "omo": 10084,
    "Ġarguments": 10085,
    "ĠSiber": 10086,
    "Ġnuts": 10087,
    "Ġsomewhere": 10088,
    "Washington": 10089,
    "going": 10090,
    "75": 10091,
    "76": 10092,
    "Ġrecip": 10093,
    "Ġsolids": 10094,
    "Ġmicroscope": 10095,
    "Ġdried": 10096,
    "Ġstays": 10097,
    "Ġbeta": 10098,
    "Ġemit": 10099,
    "esium": 10100,
    "isations": 10101,
    "Ġdiscoveries": 10102,
    "Ġthanks": 10103,
    "ples": 10104,
    "Ġarches": 10105,
    "Ġextinction": 10106,
    "Af": 10107,
    "oroastr": 10108,
    "some": 10109,
    "Ġconquest": 10110,
    "Ġoverthrow": 10111,
    "Ġrecognize": 10112,
    "ĠPent": 10113,
    "Ġbombing": 10114,
    "Ġnortheastern": 10115,
    "ĠCatholicism": 10116,
    "ĠSloven": 10117,
    "ancellor": 10118,
    "locked": 10119,
    "claimed": 10120,
    "Ġbiologists": 10121,
    "Ġoperate": 10122,
    "Ġborrow": 10123,
    "orous": 10124,
    "keep": 10125,
    "Ġextensive": 10126,
    "agasc": 10127,
    "agascar": 10128,
    "Ġmerged": 10129,
    "ographer": 10130,
    "ĠGer": 10131,
    "63": 10132,
    "Ġcorrectly": 10133,
    "phones": 10134,
    "def": 10135,
    "AD": 10136,
    "ĠHard": 10137,
    "Ġfeudal": 10138,
    "Ġfled": 10139,
    "Ġreserve": 10140,
    "owned": 10141,
    "ĠSomeone": 10142,
    "Ġsoup": 10143,
    "rove": 10144,
    "Ġhoped": 10145,
    "Ġcapable": 10146,
    "Ġjoins": 10147,
    "ognitive": 10148,
    "Ġdarker": 10149,
    "Ġsouls": 10150,
    "Ġsched": 10151,
    "ĠBahamas": 10152,
    "ĠCuban": 10153,
    "Ġfriendly": 10154,
    "ĠWide": 10155,
    "agen": 10156,
    "ĠBorn": 10157,
    "ĠInuit": 10158,
    "issions": 10159,
    "nap": 10160,
    "stanbul": 10161,
    "Ġ365": 10162,
    "Ġphotosynthesis": 10163,
    "ĠBeach": 10164,
    "Ġinteractions": 10165,
    "Ã©t": 10166,
    "Ġswing": 10167,
    "Ġwhale": 10168,
    "Ġrib": 10169,
    "Ġcod": 10170,
    "earing": 10171,
    "Latin": 10172,
    "lighten": 10173,
    "lightenment": 10174,
    "Ġinfl": 10175,
    "Ġ2024": 10176,
    "mother": 10177,
    "ĠDisneyland": 10178,
    "ipel": 10179,
    "pronounced": 10180,
[...]
