{
  "vocab": {
    "<pad>": 0,
    "<unk>": 1,
    "<bos>": 2,
    "<eos>": 3,
    "!": 4,
    "\"": 5,
    "#": 6,
    "$": 7,
    "%": 8,
    "&": 9,
    "'": 10,
    "(": 11,
    ")": 12,
    "*": 13,
    "+": 14,
    ",": 15,
    "-": 16,
    ".": 17,
    "/": 18,
    "0": 19,
    "1": 20,
    "2": 21,
    "3": 22,
    "4": 23,
    "5": 24,
    "6": 25,
    "7": 26,
    "8": 27,
    "9": 28,
    ":": 29,
    ";": 30,
    "<": 31,
    "=": 32,
    ">": 33,
    "?": 34,
    "@": 35,
    "A": 36,
    "B": 37,
    "C": 38,
    "D": 39,
    "E": 40,
    "F": 41,
    "G": 42,
    "H": 43,
    "I": 44,
    "J": 45,
    "K": 46,
    "L": 47,
    "M": 48,
    "N": 49,
    "O": 50,
    "P": 51,
    "Q": 52,
    "R": 53,
    "S": 54,
    "T": 55,
    "U": 56,
    "V": 57,
    "W": 58,
    "X": 59,
    "Y": 60,
    "Z": 61,
    "[": 62,
    "\\": 63,
    "]": 64,
    "^": 65,
    "_": 66,
    "`": 67,
    "a": 68,
    "b": 69,
    "c": 70,
    "d": 71,
    "e": 72,
    "f": 73,
    "g": 74,
    "h": 75,
    "i": 76,
    "j": 77,
    "k": 78,
    "l": 79,
    "m": 80,
    "n": 81,
    "o": 82,
    "p": 83,
    "q": 84,
    "r": 85,
    "s": 86,
    "t": 87,
    "u": 88,
    "v": 89,
    "w": 90,
    "x": 91,
    "y": 92,
    "z": 93,
    "{": 94,
    "|": 95,
    "}": 96,
    "~": 97,
    "¡": 98,
    "¢": 99,
    "£": 100,
    "¤": 101,
    "¥": 102,
    "¦": 103,
    "§": 104,
    "¨": 105,
    "©": 106,
    "ª": 107,
    "«": 108,
    "¬": 109,
    "®": 110,
    "¯": 111,
    "°": 112,
    "±": 113,
    "²": 114,
    "³": 115,
    "´": 116,
    "µ": 117,
    "¶": 118,
    "·": 119,
    "¸": 120,
    "¹": 121,
    "º": 122,
    "»": 123,
    "¼": 124,
    "½": 125,
    "¾": 126,
    "¿": 127,
    "À": 128,
    "Á": 129,
    "Â": 130,
    "Ã": 131,
    "Ä": 132,
    "Å": 133,
    "Æ": 134,
    "Ç": 135,
    "È": 136,
    "É": 137,
    "Ê": 138,
    "Ë": 139,
    "Ì": 140,
    "Í": 141,
    "Î": 142,
    "Ï": 143,
    "Ð": 144,
    "Ñ": 145,
    "Ò": 146,
    "Ó": 147,
    "Ô": 148,
    "Õ": 149,
    "Ö": 150,
    "×": 151,
    "Ø": 152,
    "Ù": 153,
    "Ú": 154,
    "Û": 155,
    "Ü": 156,
    "Ý": 157,
    "Þ": 158,
    "ß": 159,
    "à": 160,
    "á": 161,
    "â": 162,
    "ã": 163,
    "ä": 164,
    "å": 165,
    "æ": 166,
    "ç": 167,
    "è": 168,
    "é": 169,
    "ê": 170,
    "ë": 171,
    "ì": 172,
    "í": 173,
    "î": 174,
    "ï": 175,
    "ð": 176,
    "ñ": 177,
    "ò": 178,
    "ó": 179,
    "ô": 180,
    "õ": 181,
    "ö": 182,
    "÷": 183,
    "ø": 184,
    "ù": 185,
    "ú": 186,
    "û": 187,
    "ü": 188,
    "ý": 189,
    "þ": 190,
    "ÿ": 191,
    "Ā": 192,
    "ā": 193,
    "Ă": 194,
    "ă": 195,
    "Ą": 196,
    "ą": 197,
    "Ć": 198,
    "ć": 199,
    "Ĉ": 200,
    "ĉ": 201,
    "Ċ": 202,
    "ċ": 203,
    "Č": 204,
    "č": 205,
    "Ď": 206,
    "ď": 207,
    "Đ": 208,
    "đ": 209,
    "Ē": 210,
    "ē": 211,
    "Ĕ": 212,
    "ĕ": 213,
    "Ė": 214,
    "ė": 215,
    "Ę": 216,
    "ę": 217,
    "Ě": 218,
    "ě": 219,
    "Ĝ": 220,
    "ĝ": 221,
    "Ğ": 222,
    "ğ": 223,
    "Ġ": 224,
    "ġ": 225,
    "Ģ": 226,
    "ģ": 227,
    "Ĥ": 228,
    "ĥ": 229,
    "Ħ": 230,
    "ħ": 231,
    "Ĩ": 232,
    "ĩ": 233,
    "Ī": 234,
    "ī": 235,
    "Ĭ": 236,
    "ĭ": 237,
    "Į": 238,
    "į": 239,
    "İ": 240,
    "ı": 241,
    "Ĳ": 242,
    "ĳ": 243,
    "Ĵ": 244,
    "ĵ": 245,
    "Ķ": 246,
    "ķ": 247,
    "ĸ": 248,
    "Ĺ": 249,
    "ĺ": 250,
    "Ļ": 251,
    "ļ": 252,
    "Ľ": 253,
    "ľ": 254,
    "Ŀ": 255,
    "ŀ": 256,
    "Ł": 257,
    "ł": 258,
    "Ń": 259,
    "Ġt": 260,
    "he": 261,
    "Ġa": 262,
    "Ġthe": 263,
    "in": 264,
    "Ġo": 265,
    "re": 266,
    "er": 267,
    "Ġs": 268,
    "Ġw": 269,
    "is": 270,
    "an": 271,
    "Ġc": 272,
    "nd": 273,
    "Ġb": 274,
    "es": 275,
    "at": 276,
    "Ġof": 277,
    "on": 278,
    "Ġm": 279,
    "ed": 280,
    "Ġp": 281,
    "it": 282,
    "or": 283,
    "Ġin": 284,
    "Ġf": 285,
    "en": 286,
    "al": 287,
    "ar": 288,
    "Ġand": 289,
    "as": 290,
    "ou": 291,
    "Ġto": 292,
    "om": 293,
    "ic": 294,
    "Ġis": 295,
    "le": 296,
    "Ġh": 297,
    "ing": 298,
    "Ġd": 299,
    "Ġl": 300,
    "Ġth": 301,
    "ĠT": 302,
    "us": 303,
    "Ġn": 304,
    "ion": 305,
    "Ġbe": 306,
    "Ġe": 307,
    "ent": 308,
    "il": 309,
    "ĠThe": 310,
    "am": 311,
    "ot": 312,
    "Ġare": 313,
    "ve": 314,
    "Ġg": 315,
    "st": 316,
    "ĠI": 317,
    "ĠS": 318,
    "op": 319,
    "ow": 320,
    "ĠA": 321,
    "ver": 322,
    "et": 323,
    "ol": 324,
    "ly": 325,
    "Ġon": 326,
    "ct": 327,
    "ad": 328,
    "her": 329,
    "Ġre": 330,
    "im": 331,
    "Ġfor": 332,
    "Ġwas": 333,
    "id": 334,
    "ur": 335,
    "Ġ\"": 336,
    "ce": 337,
    "Ġ1": 338,
    "ay": 339,
    "Ġthat": 340,
    "ir": 341,
    "ch": 342,
    "Ġst": 343,
    "ut": 344,
    "nt": 345,
    "Ġ(": 346,
    "Ġal": 347,
    "Ġor": 348,
    "ig": 349,
    "Ġit": 350,
    "Ġwh": 351,
    "ĠC": 352,
    "Ġas": 353,
    "th": 354,
    "Ġmo": 355,
    "ĠM": 356,
    "ere": 357,
    "ro": 358,
    "ĠE": 359,
    "all": 360,
    "se": 361,
    "Ġus": 362,
    "and": 363,
    "ul": 364,
    "Ġan": 365,
    "ith": 366,
    "ies": 367,
    "ld": 368,
    "ers": 369,
    "Ġfr": 370,
    "Ġby": 371,
    "ation": 372,
    "Ġwith": 373,
    "ke": 374,
    "if": 375,
    "ĠB": 376,
    "Ġr": 377,
    "ist": 378,
    "ĠH": 379,
    "ain": 380,
    "eop": 381,
    "ge": 382,
    "ave": 383,
    "eople": 384,
    "Ġfrom": 385,
    "Ġcom": 386,
    "um": 387,
    "ter": 388,
    "ther": 389,
    "ap": 390,
    "el": 391,
    "un": 392,
    "Ġhe": 393,
    "art": 394,
    "Ġwor": 395,
    "ome": 396,
    "od": 397,
    "Ġnot": 398,
    "Ġpeople": 399,
    "ĠP": 400,
    "ĠW": 401,
    "Ġcan": 402,
    "The": 403,
    "ĠIt": 404,
    "any": 405,
    "est": 406,
    "ich": 407,
    "Ġat": 408,
    "Ġhave": 409,
    "em": 410,
    "ill": 411,
    "ĠG": 412,
    "so": 413,
    "Ġse": 414,
    "ame": 415,
    "Ġcou": 416,
    "ĠF": 417,
    "Ġ2": 418,
    "'s": 419,
    "ĠN": 420,
    "Ġ19": 421,
    "ia": 422,
    "pe": 423,
    "ity": 424,
    "Ġpl": 425,
    "ht": 426,
    "Ġex": 427,
    "Ġli": 428,
    "ĠR": 429,
    "ant": 430,
    "Ġk": 431,
    "Ġhas": 432,
    "Ġde": 433,
    "Ġwhich": 434,
    "ac": 435,
    "Ġalso": 436,
    "Ġother": 437,
    "Ġcall": 438,
    "Ġbec": 439,
    "Ġcon": 440,
    "res": 441,
    "ĠU": 442,
    "ĠL": 443,
    "Ġsu": 444,
    "Ġthey": 445,
    "Ġy": 446,
    "Ġwere": 447,
    "rou": 448,
    "Ġch": 449,
    "ear": 450,
    "os": 451,
    "Ġcalled": 452,
    "ate": 453,
    "Ġma": 454,
    "ud": 455,
    "Ġle": 456,
    "ci": 457,
    "ans": 458,
    "00": 459,
    "ĠJ": 460,
    "ĠTh": 461,
    "ish": 462,
    "ally": 463,
    "qu": 464,
    "ort": 465,
    "Ġv": 466,
    "Ġwhe": 467,
    "ĠIn": 468,
    "out": 469,
    "Ġpro": 470,
    "Ġcount": 471,
    "Ġtr": 472,
    "ew": 473,
    "ĠO": 474,
    "ight": 475,
    "ĠD": 476,
    "Ġmany": 477,
    "Ġpart": 478,
    "iv": 479,
    "Ġab": 480,
    "Ġsh": 481,
    "ment": 482,
    "Ġu": 483,
    "ast": 484,
    "aus": 485,
    "very": 486,
    "land": 487,
    "ber": 488,
    "ore": 489,
    "ong": 490,
    "Ġused": 491,
    "Ġbut": 492,
    "Ġone": 493,
    "Ġtheir": 494,
    "ade": 495,
    "Ġcountr": 496,
    "Ġgo": 497,
    "ag": 498,
    "ure": 499,
    "ide": 500,
    "ang": 501,
    "Ġme": 502,
    "Ġso": 503,
    "ab": 504,
    "Ġpr": 505,
    "Ġyear": 506,
    "Ġdo": 507,
    "ĠThis": 508,
    "Ġall": 509,
    "ive": 510,
    "ell": 511,
    ").": 512,
    "ater": 513,
    "Ġhis": 514,
    "rit": 515,
    "iff": 516,
    "Ġmost": 517,
    "ie": 518,
    "ian": 519,
    "ust": 520,
    "Ġcomp": 521,
    "ĠUn": 522,
    "Ġthis": 523,
    "ause": 524,
    "ions": 525,
    "gh": 526,
    "ect": 527,
    "Ġwho": 528,
    "own": 529,
    "Ġdiff": 530,
    "ess": 531,
    "Ġint": 532,
    "ĠCh": 533,
    "ok": 534,
    "ng": 535,
    "ical": 536,
    "ĠK": 537,
    "ime": 538,
    "ree": 539,
    "cl": 540,
    "ds": 541,
    "Ġmade": 542,
    "Ġsome": 543,
    "our": 544,
    "Ġabout": 545,
    "\".": 546,
    "Ġmore": 547,
    "ary": 548,
    "pl": 549,
    "ĠThey": 550,
    "Ġcl": 551,
    "port": 552,
    "irst": 553,
    "ous": 554,
    "ings": 555,
    "age": 556,
    "Ġdiffere": 557,
    "Ġhad": 558,
    "ub": 559,
    "ates": 560,
    "act": 561,
    "ten": 562,
    "ak": 563,
    "ĠHe": 564,
    "Ġform": 565,
    "ond": 566,
    "Ġfirst": 567,
    "av": 568,
    "ĠSt": 569,
    "ace": 570,
    "ated": 571,
    "ple": 572,
    "Ġthere": 573,
    "Ġele": 574,
    "per": 575,
    "Ġlike": 576,
    "one": 577,
    "In": 578,
    "Ġthem": 579,
    "fter": 580,
    "Ġdifferent": 581,
    "Ġtw": 582,
    "Ġspe": 583,
    "Ġits": 584,
    "ost": 585,
    "pt": 586,
    "iver": 587,
    "Ġthan": 588,
    "ass": 589,
    "Ġen": 590,
    "are": 591,
    "ound": 592,
    "Ġkn": 593,
    "Ġvery": 594,
    "Ġwe": 595,
    "ĠEng": 596,
    "ine": 597,
    "Ġne": 598,
    "Ġinto": 599,
    "ited": 600,
    "Ġbecause": 601,
    "Ġwhen": 602,
    "clud": 603,
    "),": 604,
    "Ġim": 605,
    "ard": 606,
    "Ġlar": 607,
    "ue": 608,
    "Ġsp": 609,
    "ib": 610,
    "Ġcont": 611,
    "Ġtime": 612,
    "ire": 613,
    "Ġinclud": 614,
    "ays": 615,
    "ult": 616,
    "mer": 617,
    "Ġar": 618,
    "als": 619,
    "ied": 620,
    "oc": 621,
    "Ġtwo": 622,
    "Ġuse": 623,
    "âĢ": 624,
    "Ġag": 625,
    "ack": 626,
    "Ġwork": 627,
    "Ġsy": 628,
    "iz": 629,
    "ach": 630,
    "Ġun": 631,
    "erm": 632,
    "Ġgr": 633,
    "ind": 634,
    "Ġcent": 635,
    "Ġyears": 636,
    "omet": 637,
    "Ġcomm": 638,
    "ons": 639,
    "Ġsuch": 640,
    "Ġmake": 641,
    "Ġ20": 642,
    "ually": 643,
    "Ġworld": 644,
    "ould": 645,
    "angu": 646,
    "ip": 647,
    "ved": 648,
    "og": 649,
    "ance": 650,
    "Ġj": 651,
    "ope": 652,
    "Ġlangu": 653,
    "Ġcity": 654,
    "Ġad": 655,
    "\",": 656,
    "Ġbet": 657,
    "aw": 658,
    "round": 659,
    "imes": 660,
    "ĠV": 661,
    "Ġbeen": 662,
    "Ġexam": 663,
    "een": 664,
    "Ġnum": 665,
    "ĠUnited": 666,
    "Ġup": 667,
    "Ġcountry": 668,
    "Ġonly": 669,
    "ook": 670,
    "ric": 671,
    "Ġte": 672,
    "ice": 673,
    "ial": 674,
    "Ġsm": 675,
    "Ġ18": 676,
    "Ġcol": 677,
    "vern": 678,
    "ory": 679,
    "Ġev": 680,
    "Ġmay": 681,
    "cc": 682,
    "Ġelect": 683,
    "Ġcountries": 684,
    "ence": 685,
    "ose": 686,
    "ood": 687,
    "Ġout": 688,
    "Ġbecame": 689,
    "reat": 690,
    "uc": 691,
    "outh": 692,
    "wn": 693,
    "lish": 694,
    "ations": 695,
    "other": 696,
    "ord": 697,
    "Ġ200": 698,
    "Ġoften": 699,
    "Ġdis": 700,
    "Ġsmall": 701,
    "ry": 702,
    "Ġexample": 703,
    "ild": 704,
    "ics": 705,
    "Ġrel": 706,
    "ep": 707,
    "Ġwill": 708,
    "Ġgovern": 709,
    "stem": 710,
    "orm": 711,
    "Ġwrit": 712,
    "low": 713,
    "uring": 714,
    "Ġbu": 715,
    "ween": 716,
    "les": 717,
    "ount": 718,
    "Ġafter": 719,
    "meric": 720,
    "ury": 721,
    "hen": 722,
    "Ġpop": 723,
    "Ġmet": 724,
    "Ġsame": 725,
    "Ġwhere": 726,
    "Ġph": 727,
    "Ġover": 728,
    "Ġknown": 729,
    "ĠEnglish": 730,
    "ces": 731,
    "ĠEur": 732,
    "ks": 733,
    "tern": 734,
    "erson": 735,
    "gest": 736,
    "Ġoff": 737,
    "orth": 738,
    "Ġthese": 739,
    "Ġbetween": 740,
    "ĠThere": 741,
    "Ġpopul": 742,
    "ĠAmeric": 743,
    "Ġperson": 744,
    "ough": 745,
    "Ġwould": 746,
    "red": 747,
    "Ġ3": 748,
    "nder": 749,
    "ile": 750,
    "Ġfam": 751,
    "ubl": 752,
    "ents": 753,
    "ĠSome": 754,
    "Ġnew": 755,
    "ens": 756,
    "Ġro": 757,
    "ove": 758,
    "Ġgovernment": 759,
    "Ġbr": 760,
    "Ġusually": 761,
    "ern": 762,
    "ght": 763,
    "ren": 764,
    "ĠEurope": 765,
    "ite": 766,
    "gan": 767,
    "Ġwater": 768,
    "Ġper": 769,
    "Ġpres": 770,
    "ru": 771,
    "Ġhow": 772,
    "ft": 773,
    "Ġget": 774,
    "Ġstart": 775,
    "ra": 776,
    "ff": 777,
    "Ġqu": 778,
    "Ġthings": 779,
    "Ġap": 780,
    "cial": 781,
    "Ġlong": 782,
    "old": 783,
    "ĠFr": 784,
    "arth": 785,
    "ĠStates": 786,
    "hed": 787,
    "ower": 788,
    "ars": 789,
    "ign": 790,
    "ational": 791,
    "Ġsomet": 792,
    "Ġpo": 793,
    "Ġres": 794,
    "Ġsystem": 795,
    "uch": 796,
    "Ġfound": 797,
    "Ġact": 798,
    "fore": 799,
    "ities": 800,
    "Ġcap": 801,
    "mp": 802,
    "Ġmak": 803,
    "ists": 804,
    "ors": 805,
    "ase": 806,
    "hem": 807,
    "Ġher": 808,
    "oth": 809,
    "ath": 810,
    "ident": 811,
    "ition": 812,
    "ne": 813,
    "ĠAn": 814,
    "ince": 815,
    "Ġbel": 816,
    "Ġnumber": 817,
    "Ġty": 818,
    "ĠAl": 819,
    "ever": 820,
    "Ġsa": 821,
    "ict": 822,
    "Ġno": 823,
    "Ġhig": 824,
    "ral": 825,
    "Ġlanguage": 826,
    "roup": 827,
    "Ġind": 828,
    "Ġimport": 829,
    "Ġpol": 830,
    "Ġco": 831,
    "ines": 832,
    "ife": 833,
    "Ġname": 834,
    "Ġany": 835,
    "Ġword": 836,
    "oman": 837,
    "vel": 838,
    "000": 839,
    "Ġplay": 840,
    "ism": 841,
    "Ġthen": 842,
    "Ġcommon": 843,
    "ĠAr": 844,
    "ages": 845,
    "rough": 846,
    "gy": 847,
    "ĠThese": 848,
    "Ġunder": 849,
    "arch": 850,
    "iet": 851,
    "ames": 852,
    "ject": 853,
    "ital": 854,
    "hes": 855,
    "ec": 856,
    "Ġgroup": 857,
    "Ġaround": 858,
    "Ġsec": 859,
    "ows": 860,
    "Ġimportant": 861,
    "Ġstud": 862,
    "ert": 863,
    "Ġbl": 864,
    "ĠFor": 865,
    "Ġmain": 866,
    "Ġstate": 867,
    "orn": 868,
    "Ġthrough": 869,
    "Ġhel": 870,
    "ĠGerm": 871,
    "Ġmeans": 872,
    "Ġeach": 873,
    "Ġob": 874,
    "ublic": 875,
    "Ġagain": 876,
    "int": 877,
    "Ġ201": 878,
    "ark": 879,
    "Ġcentury": 880,
    "Ġbig": 881,
    "io": 882,
    "urn": 883,
    "ange": 884,
    "ix": 885,
    "Ġdes": 886,
    "cient": 887,
    "Ġwar": 888,
    "Ġend": 889,
    "Ġmus": 890,
    "Ġser": 891,
    "ium": 892,
    "Ġown": 893,
    "onom": 894,
    "ov": 895,
    "Ġdid": 896,
    "Ġevery": 897,
    "ether": 898,
    "Ġif": 899,
    "Ġway": 900,
    "uss": 901,
    "ĠKing": 902,
    "ĠBrit": 903,
    "Ġlarge": 904,
    "Ġwhat": 905,
    "Ġcould": 906,
    "Ġcar": 907,
    "Ġhum": 908,
    "Ġmuch": 909,
    "Ġlight": 910,
    "ily": 911,
    "Ġdr": 912,
    "Ġgen": 913,
    "Ġam": 914,
    "Ġreg": 915,
    "illion": 916,
    "Ġ4": 917,
    "ants": 918,
    "Ġcre": 919,
    "ĠNew": 920,
    "Ġland": 921,
    "Ġold": 922,
    "Ġprod": 923,
    "Ġinf": 924,
    "ather": 925,
    "Âł": 926,
    "Ġsur": 927,
    "ered": 928,
    "Ġmon": 929,
    "ink": 930,
    "ĠEarth": 931,
    "ĠInd": 932,
    "ake": 933,
    "Ġplan": 934,
    "ĠY": 935,
    "ves": 936,
    "Ġmat": 937,
    "ased": 938,
    "Ġhelp": 939,
    "Ġinv": 940,
    "Ġhim": 941,
    "ivers": 942,
    "ought": 943,
    "hing": 944,
    "ving": 945,
    "Ġsim": 946,
    "Ġbelie": 947,
    "Ġ5": 948,
    "Ġear": 949,
    "Ġwell": 950,
    "able": 951,
    "pen": 952,
    "Ġatt": 953,
    "Ġpower": 954,
    "Ġ199": 955,
    "Ġstr": 956,
    "Ġac": 957,
    "ĠWhen": 958,
    "Ġthree": 959,
    "Ġinst": 960,
    "Ġfl": 961,
    "Ġlive": 962,
    "Ġsecond": 963,
    "Ġcapital": 964,
    "olog": 965,
    "ail": 966,
    "li": 967,
    "sel": 968,
    "ys": 969,
    "ures": 970,
    "ction": 971,
    "Ġrec": 972,
    "ious": 973,
    "ula": 974,
    "Ġduring": 975,
    "Ġpre": 976,
    "ĠSp": 977,
    "Ġshe": 978,
    "Ġfe": 979,
    "Ġlife": 980,
    "ote": 981,
    "Ġlaw": 982,
    "ains": 983,
    "Ġinclude": 984,
    "rist": 985,
    "ĠWar": 986,
    "ĠRoman": 987,
    "pend": 988,
    "Ġcomput": 989,
    "ick": 990,
    "ians": 991,
    "ature": 992,
    "ress": 993,
    "owever": 994,
    "bers": 995,
    "its": 996,
    "ĠAs": 997,
    "Ġmean": 998,
    "gen": 999,
    "ergy": 1000,
    "thern": 1001,
    "ful": 1002,
    "Ġstill": 1003,
    "ĠNorth": 1004,
    "ale": 1005,
    "Ġanim": 1006,
    "eral": 1007,
    "Ġide": 1008,
    "Ġadd": 1009,
    "ina": 1010,
    "Ġchang": 1011,
    "ution": 1012,
    "Ġlargest": 1013,
    "ble": 1014,
    "Ġair": 1015,
    "ĠWor": 1016,
    "Ġsaid": 1017,
    "Ġbod": 1018,
    "Ġmod": 1019,
    "Ġcontr": 1020,
    "Ġdoes": 1021,
    "up": 1022,
    "ural": 1023,
    "Ġneed": 1024,
    "ative": 1025,
    "Ġyou": 1026,
    "the": 1027,
    "Ġbefore": 1028,
    "ĠPr": 1029,
    "ĠSouth": 1030,
    "Ġparts": 1031,
    "ĠMany": 1032,
    "Ġarea": 1033,
    "way": 1034,
    "ph": 1035,
    "There": 1036,
    "Ġke": 1037,
    "Ġcons": 1038,
    "ntil": 1039,
    "Ġday": 1040,
    "ts": 1041,
    "Ġdec": 1042,
    "Ġstarted": 1043,
    "Ġ-": 1044,
    "Ġanother": 1045,
    "Ġmusic": 1046,
    "Ġplace": 1047,
    "Ġenergy": 1048,
    "ob": 1049,
    "âĢĵ": 1050,
    "ĠChrist": 1051,
    "ĠHowever": 1052,
    "Ġ'": 1053,
    "ĠAf": 1054,
    "Ġsup": 1055,
    "ĠWorld": 1056,
    "apan": 1057,
    "Ġlater": 1058,
    "Ġboth": 1059,
    "ific": 1060,
    "tle": 1061,
    "Ġlead": 1062,
    "Ġdef": 1063,
    "Ġeven": 1064,
    "ĠEngland": 1065,
    "Ġver": 1066,
    "ible": 1067,
    "Ġwords": 1068,
    "Ġbeing": 1069,
    "ĠIs": 1070,
    "ool": 1071,
    "Ġfol": 1072,
    "ĠAust": 1073,
    "Ġnow": 1074,
    "Ġuntil": 1075,
    "Ġfour": 1076,
    "Ġrul": 1077,
    "ets": 1078,
    "aces": 1079,
    "dom": 1080,
    "Ġrelig": 1081,
    "Ġhist": 1082,
    "day": 1083,
    "Ġelectr": 1084,
    "Ġsometimes": 1085,
    "Ġgood": 1086,
    "side": 1087,
    "ton": 1088,
    "Ġpos": 1089,
    "Ġbook": 1090,
    "Ġcr": 1091,
    "Ġfood": 1092,
    "Ġwant": 1093,
    "ments": 1094,
    "Ġgiv": 1095,
    "ĠJapan": 1096,
    "Ġbuild": 1097,
    "Ġsch": 1098,
    "Ġdist": 1099,
    "Ġlook": 1100,
    "Ġtog": 1101,
    "Ġtogether": 1102,
    "Ġ6": 1103,
    "ĠGree": 1104,
    "Ġmakes": 1105,
    "Ġchar": 1106,
    "ĠSe": 1107,
    "ĠAt": 1108,
    "Ġhigh": 1109,
    "Ġoffic": 1110,
    "ĠUnion": 1111,
    "Ġhap": 1112,
    "Ġsub": 1113,
    "velop": 1114,
    "eag": 1115,
    "Ġfollow": 1116,
    "lands": 1117,
    "Ġnear": 1118,
    "Ġcell": 1119,
    "ins": 1120,
    "Ġman": 1121,
    "Ġchem": 1122,
    "Ġfamous": 1123,
    "Ġback": 1124,
    "Ġmem": 1125,
    "ĠRuss": 1126,
    "Ġfew": 1127,
    "Ġtyp": 1128,
    "ĠMost": 1129,
    "Ġdevelop": 1130,
    "Ġmillion": 1131,
    "gr": 1132,
    "Ġbir": 1133,
    "Ġpopular": 1134,
    "Ġref": 1135,
    "Ġsee": 1136,
    "Ġsc": 1137,
    "Ġlot": 1138,
    "ĠDe": 1139,
    "Ġincluding": 1140,
    "mber": 1141,
    "Ġagainst": 1142,
    "Ġformula": 1143,
    "ug": 1144,
    "Ġlanguages": 1145,
    "Ġbody": 1146,
    "here": 1147,
    "Ġmove": 1148,
    "Ġmil": 1149,
    "Ġrem": 1150,
    "Ġorgan": 1151,
    "Ġpartic": 1152,
    "ced": 1153,
    "Ġmin": 1154,
    "Ġatom": 1155,
    "amed": 1156,
    "Ġrep": 1157,
    "Ġusing": 1158,
    "Ġright": 1159,
    "te": 1160,
    "Ġeas": 1161,
    "Ġobject": 1162,
    "led": 1163,
    "Ġfar": 1164,
    "ork": 1165,
    "gs": 1166,
    "Ġec": 1167,
    "iss": 1168,
    "hip": 1169,
    "ided": 1170,
    "ilt": 1171,
    "ger": 1172,
    "Ġtak": 1173,
    "Ġpolit": 1174,
    "Ġspec": 1175,
    "Ġcame": 1176,
    "Ġcontrol": 1177,
    "Ġkill": 1178,
    "Ġsay": 1179,
    "ĠCom": 1180,
    "Ġlet": 1181,
    "ĠFrance": 1182,
    "oh": 1183,
    "ĠBritish": 1184,
    "mpire": 1185,
    "Ġprodu": 1186,
    "ĠChina": 1187,
    "air": 1188,
    "ax": 1189,
    "Ġequ": 1190,
    "ual": 1191,
    "Ġthought": 1192,
    "Ġwritten": 1193,
    "Ġbegan": 1194,
    "Ġdied": 1195,
    "ĠAmerican": 1196,
    "Ġdiv": 1197,
    "Ġbecome": 1198,
    "Ġtimes": 1199,
    "ms": 1200,
    "Ġcommun": 1201,
    "oy": 1202,
    "Ġset": 1203,
    "oot": 1204,
    "Ġwr": 1205,
    "ĠAfric": 1206,
    "Ġpopulation": 1207,
    "ese": 1208,
    "une": 1209,
    "ular": 1210,
    "oney": 1211,
    "ĠIf": 1212,
    "idd": 1213,
    "ases": 1214,
    "Ġstudy": 1215,
    "Ġcontin": 1216,
    "Ġ197": 1217,
    "rench": 1218,
    "Ġpresident": 1219,
    "Ġchange": 1220,
    "Ġ198": 1221,
    "ision": 1222,
    "Ġking": 1223,
    "Ġthink": 1224,
    "Ġlast": 1225,
    "Ġart": 1226,
    "Ġsever": 1227,
    "Ġseveral": 1228,
    "Ġanimals": 1229,
    "Ġwhile": 1230,
    "ros": 1231,
    "yd": 1232,
    "ĠShe": 1233,
    "Ġeconom": 1234,
    "Ġcult": 1235,
    "pos": 1236,
    "cess": 1237,
    "Ġ194": 1238,
    "Ġgrow": 1239,
    "Ġmeas": 1240,
    "Ġknow": 1241,
    "Ġmed": 1242,
    "ĠPeople": 1243,
    "ield": 1244,
    "Ġdown": 1245,
    "ĠRep": 1246,
    "mb": 1247,
    "Ġprov": 1248,
    "Ġ196": 1249,
    "br": 1250,
    "Ġcities": 1251,
    "ĠOn": 1252,
    "Ġ10": 1253,
    "Ġtrad": 1254,
    "ai": 1255,
    "Ġ7": 1256,
    "ting": 1257,
    "Ġmass": 1258,
    "Ġchild": 1259,
    "oun": 1260,
    "Ġnamed": 1261,
    "xt": 1262,
    "Ġ17": 1263,
    "ĠSc": 1264,
    "Ġexpl": 1265,
    "Ġacc": 1266,
    "ared": 1267,
    "oviet": 1268,
    "Ġshow": 1269,
    "gram": 1270,
    "Ġhu": 1271,
    "Ġpoint": 1272,
    "Ġjust": 1273,
    "Ġfamily": 1274,
    "ĠMar": 1275,
    "der": 1276,
    "iam": 1277,
    "Ġtown": 1278,
    "Ġearly": 1279,
    "ology": 1280,
    "ĠJan": 1281,
    "ning": 1282,
    "Ġchemical": 1283,
    "ĠFrench": 1284,
    "Ġ9": 1285,
    "Ġterm": 1286,
    "ouse": 1287,
    "Ġsupport": 1288,
    "Ġcomputer": 1289,
    "ason": 1290,
    "Ġhuman": 1291,
    "Ġless": 1292,
    "Ġlit": 1293,
    "Ġrun": 1294,
    "cept": 1295,
    "Ġtem": 1296,
    "ĠEuropean": 1297,
    "Ġtrans": 1298,
    "ffect": 1299,
    "Ġvar": 1300,
    "Ġsince": 1301,
    "aves": 1302,
    "ĠSoviet": 1303,
    "Ġmoney": 1304,
    "Ġsk": 1305,
    "pr": 1306,
    "Ġliving": 1307,
    "urch": 1308,
    "epend": 1309,
    "ĠQ": 1310,
    "Ġdisc": 1311,
    "iod": 1312,
    "aph": 1313,
    "ntern": 1314,
    "ished": 1315,
    "Ġsl": 1316,
    "Ġcreated": 1317,
    "Ġsouth": 1318,
    "not": 1319,
    "ier": 1320,
    "Ġput": 1321,
    "ize": 1322,
    "Ġprogram": 1323,
    "Ġbuilt": 1324,
    "ined": 1325,
    "Ġprot": 1326,
    "Ġtypes": 1327,
    "Ġmar": 1328,
    "ocr": 1329,
    "Ġeat": 1330,
    "ĠAfter": 1331,
    "igin": 1332,
    "ĠRepublic": 1333,
    "Ġcomes": 1334,
    "ĠLat": 1335,
    "Ġox": 1336,
    "Ġschool": 1337,
    "Ġtook": 1338,
    "Ġdeath": 1339,
    "ĠKore": 1340,
    "Ġcaus": 1341,
    "ertain": 1342,
    "Ġrad": 1343,
    "Ġplaces": 1344,
    "iverse": 1345,
    "jor": 1346,
    "Ġwon": 1347,
    "cr": 1348,
    "anc": 1349,
    "ĠItal": 1350,
    "most": 1351,
    "Ġtype": 1352,
    "Ġtheory": 1353,
    "Ġprop": 1354,
    "ĠII": 1355,
    "ball": 1356,
    "Ġsomething": 1357,
    "ĠAmerica": 1358,
    "ondon": 1359,
    "Ġcur": 1360,
    "Ġ8": 1361,
    "Ġspecial": 1362,
    "Ġfin": 1363,
    "read": 1364,
    "ĠGermany": 1365,
    "Ġsol": 1366,
    "ĠKingdom": 1367,
    "Ġspace": 1368,
    "ands": 1369,
    "ank": 1370,
    "Ġphys": 1371,
    "lear": 1372,
    "ways": 1373,
    "Ġinc": 1374,
    "ĠEmpire": 1375,
    "orthern": 1376,
    "Ġproble": 1377,
    "Ġsign": 1378,
    "Ġnorth": 1379,
    "Ġshould": 1380,
    "oph": 1381,
    "Ġthose": 1382,
    "ories": 1383,
    "ven": 1384,
    "Ġleft": 1385,
    ".\"": 1386,
    "ont": 1387,
    "ĠAustral": 1388,
    "ples": 1389,
    "Ġhead": 1390,
    "Ġclass": 1391,
    "Ġmodern": 1392,
    "ĠGerman": 1393,
    "Ġtake": 1394,
    "Ġmaking": 1395,
    "Some": 1396,
    "iddle": 1397,
    "ĠOther": 1398,
    "Ġgre": 1399,
    "Ġmust": 1400,
    "hest": 1401,
    "ĠHis": 1402,
    "ĠScot": 1403,
    "my": 1404,
    "Ġstrong": 1405,
    "Ġallow": 1406,
    "alth": 1407,
    "Ġmeaning": 1408,
    "Ġgreat": 1409,
    "Ġhome": 1410,
    "Ġmeasure": 1411,
    "Ġperiod": 1412,
    "iversity": 1413,
    "Ġsing": 1414,
    "self": 1415,
    "Ġmajor": 1416,
    "Ġwin": 1417,
    "atic": 1418,
    "Ġred": 1419,
    "Ġhistory": 1420,
    "ĠLondon": 1421,
    "ex": 1422,
    "au": 1423,
    "Ġloc": 1424,
    "ones": 1425,
    "Ġ(\"": 1426,
    "Ġent": 1427,
    "Ġborn": 1428,
    "overed": 1429,
    "Ġspeak": 1430,
    "form": 1431,
    "Ġmov": 1432,
    "ĠIntern": 1433,
    "Ġamount": 1434,
    "estern": 1435,
    "Ġcome": 1436,
    "ll": 1437,
    "Ġscient": 1438,
    "Ġnumbers": 1439,
    "Ġlear": 1440,
    "ĠLatin": 1441,
    "Ġfind": 1442,
    "Ġalways": 1443,
    "ats": 1444,
    "str": 1445,
    "Ġothers": 1446,
    "eb": 1447,
    "ilar": 1448,
    "ĠSun": 1449,
    "Ġgroups": 1450,
    "anish": 1451,
    "Ġrele": 1452,
    "par": 1453,
    "ĠBut": 1454,
    "ense": 1455,
    "ck": 1456,
    "alk": 1457,
    "Ġjo": 1458,
    "Ġwrote": 1459,
    "Ġdire": 1460,
    "Ġmonth": 1461,
    "inese": 1462,
    "Ġocc": 1463,
    "Ġaway": 1464,
    "Ġhard": 1465,
    "Ġindepend": 1466,
    "Ġtoo": 1467,
    "Ġwithout": 1468,
    "ead": 1469,
    "ĠâĢ": 1470,
    "Ġsold": 1471,
    "ted": 1472,
    "ales": 1473,
    "eagan": 1474,
    "Ġes": 1475,
    "Ġmount": 1476,
    "ices": 1477,
    "Ġtemper": 1478,
    "ament": 1479,
    "ross": 1480,
    "atural": 1481,
    "uary": 1482,
    "Ġ195": 1483,
    "Ġfield": 1484,
    "bs": 1485,
    "Ġsent": 1486,
    "ĠGod": 1487,
    "Ġresult": 1488,
    "Ġnuc": 1489,
    "ward": 1490,
    "ise": 1491,
    "ĠOne": 1492,
    "Ġcomple": 1493,
    "Ġspecies": 1494,
    "Ġcond": 1495,
    "ĠGreek": 1496,
    "Ġorigin": 1497,
    "ĠCan": 1498,
    "Ġdescr": 1499,
    "Ġcannot": 1500,
    "Ġconst": 1501,
    "ĠEx": 1502,
    "Ġoper": 1503,
    "cean": 1504,
    "Ġexp": 1505,
    "Ġ15": 1506,
    "Ġbased": 1507,
    "cy": 1508,
    "Ġkeep": 1509,
    "ĠComm": 1510,
    "Ġtoday": 1511,
    "Ġgiven": 1512,
    "Ġsepar": 1513,
    "ecause": 1514,
    "Ġways": 1515,
    "Ġstates": 1516,
    "ues": 1517,
    "zer": 1518,
    "Ġsocial": 1519,
    "Ġsimilar": 1520,
    "Ġwent": 1521,
    "aper": 1522,
    "ĠZ": 1523,
    "Ġop": 1524,
    "ĠChinese": 1525,
    "Ġpolitical": 1526,
    "Ġteam": 1527,
    "amp": 1528,
    "Ġdays": 1529,
    "Ġcop": 1530,
    "Ġshap": 1531,
    "Ġareas": 1532,
    "Ġvis": 1533,
    "ating": 1534,
    "Ġgas": 1535,
    "els": 1536,
    "Ġmight": 1537,
    "Ġprocess": 1538,
    "Ġed": 1539,
    "ĠSo": 1540,
    "Ġfact": 1541,
    "Ġside": 1542,
    "ĠPol": 1543,
    "Ġbus": 1544,
    "ĠCity": 1545,
    "Ġreal": 1546,
    "Ġreact": 1547,
    "rogen": 1548,
    "Ġidea": 1549,
    "Ġvers": 1550,
    "lect": 1551,
    "reed": 1552,
    "Ġappe": 1553,
    "ĠIndia": 1554,
    "ges": 1555,
    "ards": 1556,
    "omen": 1557,
    "Ġbelieve": 1558,
    "illiam": 1559,
    "ĠAfrica": 1560,
    "pro": 1561,
    "ĠSw": 1562,
    "ober": 1563,
    "Ġtop": 1564,
    "Ġregion": 1565,
    "Ġexper": 1566,
    "itary": 1567,
    "ruct": 1568,
    "Ġbeg": 1569,
    "Ġopen": 1570,
    "Ġrest": 1571,
    "Ġkin": 1572,
    "Ġblack": 1573,
    "Ġpain": 1574,
    "Ġsci": 1575,
    "though": 1576,
    "ole": 1577,
    "nce": 1578,
    "ilos": 1579,
    "Ġstop": 1580,
    "ĠJanuary": 1581,
    "ĠJoh": 1582,
    "Ġhappen": 1583,
    "cially": 1584,
    "Ġled": 1585,
    "Ġdescrib": 1586,
    "Ġturn": 1587,
    "az": 1588,
    "Ġfree": 1589,
    "Ġuses": 1590,
    "Ġfun": 1591,
    "Ġfight": 1592,
    "Ġmater": 1593,
    "Ġ16": 1594,
    "Ġem": 1595,
    "ĠCol": 1596,
    "itions": 1597,
    "Ġpie": 1598,
    "Ġbo": 1599,
    "imate": 1600,
    "emocr": 1601,
    "ik": 1602,
    "resident": 1603,
    "Ġwee": 1604,
    "Ġsmaller": 1605,
    "abet": 1606,
    "Ġlived": 1607,
    "Ġpass": 1608,
    "ootball": 1609,
    "Ġcertain": 1610,
    "Ġgive": 1611,
    "ĠQue": 1612,
    "Many": 1613,
    "Ġplants": 1614,
    "Ġmostly": 1615,
    "Ġconsid": 1616,
    "cember": 1617,
    "ides": 1618,
    "Ġread": 1619,
    "Ġhol": 1620,
    "eng": 1621,
    "Ġcells": 1622,
    "cul": 1623,
    "Ġprev": 1624,
    "ounds": 1625,
    "An": 1626,
    "ĠYork": 1627,
    "Ġshort": 1628,
    "Ġalmost": 1629,
    "Ġclub": 1630,
    "Ġval": 1631,
    "Ġisland": 1632,
    "Ġwanted": 1633,
    "ĠBe": 1634,
    "osp": 1635,
    "Ġseen": 1636,
    "Ġchanged": 1637,
    "Ġnational": 1638,
    "mbol": 1639,
    "Ġenough": 1640,
    "ĠReagan": 1641,
    "cts": 1642,
    "Ġbetter": 1643,
    "Ġphilos": 1644,
    "ĠLe": 1645,
    "ĠSpanish": 1646,
    "Ġlist": 1647,
    "reland": 1648,
    "Ġaut": 1649,
    "olution": 1650,
    "Ġlaws": 1651,
    "Ġkinds": 1652,
    "like": 1653,
    "Ġexist": 1654,
    "Ġplanet": 1655,
    "eor": 1656,
    "avel": 1657,
    "\")": 1658,
    "ches": 1659,
    "Ġchildren": 1660,
    "ĠDecember": 1661,
    "ented": 1662,
    "ĠWilliam": 1663,
    "Ġter": 1664,
    "Ġattack": 1665,
    "Ġbas": 1666,
    "alf": 1667,
    "Ġmen": 1668,
    "Ġsymbol": 1669,
    "Ġhyd": 1670,
    "Ġintern": 1671,
    "alt": 1672,
    "erv": 1673,
    "Ġgod": 1674,
    "ither": 1675,
    "Ġstand": 1676,
    "âĢĻ": 1677,
    "Ġnext": 1678,
    "Ġpublic": 1679,
    "Ġbiggest": 1680,
    "Ġinside": 1681,
    "Ġriver": 1682,
    "Ġthir": 1683,
    "Ġgener": 1684,
    "Ġthough": 1685,
    "ĠGreat": 1686,
    "pecially": 1687,
    "aving": 1688,
    "Ġbest": 1689,
    "Ġplant": 1690,
    "rent": 1691,
    "ized": 1692,
    "ĠPresident": 1693,
    "ĠIreland": 1694,
    "It": 1695,
    "Ġvol": 1696,
    "ried": 1697,
    "ison": 1698,
    "Ġserv": 1699,
    "Ġinter": 1700,
    "Ġtele": 1701,
    "ned": 1702,
    "face": 1703,
    "Ġmilitary": 1704,
    "ĠAustralia": 1705,
    "Ġnatural": 1706,
    "Ġpen": 1707,
    "Ġposs": 1708,
    "ister": 1709,
    "Ġeffect": 1710,
    "ometimes": 1711,
    "Ġideas": 1712,
    "ĠRussia": 1713,
    "Ġant": 1714,
    "ivil": 1715,
    "Ġalong": 1716,
    "Ġofficial": 1717,
    "ĠKorea": 1718,
    "ygen": 1719,
    "Ġtell": 1720,
    "amm": 1721,
    "Ġsport": 1722,
    "ember": 1723,
    "Ġimm": 1724,
    "Ġmoved": 1725,
    "ĠAll": 1726,
    "Ġbooks": 1727,
    "ccess": 1728,
    "Ġline": 1729,
    "bon": 1730,
    "Ġtre": 1731,
    "ony": 1732,
    "istan": 1733,
    "Ġscience": 1734,
    "Ġcat": 1735,
    "Ġstars": 1736,
    "ĠMus": 1737,
    "Ġdone": 1738,
    "ĠCanad": 1739,
    "Ġve": 1740,
    "end": 1741,
    "Ġincludes": 1742,
    "indows": 1743,
    "Ġleg": 1744,
    "Ġmetal": 1745,
    "ording": 1746,
    "Ġunderst": 1747,
    "Ġuniverse": 1748,
    "Ġdivided": 1749,
    "Ġsuccess": 1750,
    "Ġest": 1751,
    "Ġnever": 1752,
    "Ġdise": 1753,
    "thing": 1754,
    "ained": 1755,
    "Ġgl": 1756,
    "Ġmathem": 1757,
    "Ġlow": 1758,
    "ĠEast": 1759,
    "akes": 1760,
    "Ġgame": 1761,
    "Ġindust": 1762,
    "Ġvi": 1763,
    "Ġfather": 1764,
    "Ġforce": 1765,
    "Ġ12": 1766,
    "Ġship": 1767,
    "ĠMarch": 1768,
    "ugust": 1769,
    "Ġproduc": 1770,
    "Ġespecially": 1771,
    "ule": 1772,
    "ĠRiver": 1773,
    "Ġorb": 1774,
    "Ġtemperature": 1775,
    "Ġeither": 1776,
    "ĠThat": 1777,
    "Ġchanges": 1778,
    "ĠMay": 1779,
    "Ġincre": 1780,
    "Ġstat": 1781,
    "Ġcurrent": 1782,
    "acter": 1783,
    "ran": 1784,
    "igh": 1785,
    "Ġkind": 1786,
    "Ġfore": 1787,
    "Ġsea": 1788,
    "ĠAsia": 1789,
    "Ġ192": 1790,
    "Ġhumans": 1791,
    "Ġsou": 1792,
    "iron": 1793,
    "Ġfive": 1794,
    "Ġ.": 1795,
    "Ġkilled": 1796,
    "ĠUS": 1797,
    "Ġsoft": 1798,
    "Ġcir": 1799,
    "Ġhalf": 1800,
    "cle": 1801,
    "inc": 1802,
    "ĠBC": 1803,
    "ĠJohn": 1804,
    "Ġorder": 1805,
    "Ġgot": 1806,
    "Ġwriting": 1807,
    "ĠBritain": 1808,
    "Ġcause": 1809,
    "aced": 1810,
    "Ġ191": 1811,
    "ĠSy": 1812,
    "Ġ202": 1813,
    "ĠChristian": 1814,
    "Th": 1815,
    "Ġinfl": 1816,
    "Ġeng": 1817,
    "Ġwhite": 1818,
    "lymp": 1819,
    "iter": 1820,
    "Ġgeneral": 1821,
    "uly": 1822,
    "ids": 1823,
    "Ġ193": 1824,
    "ĠGeor": 1825,
    "Ġbat": 1826,
    "ebru": 1827,
    "ebruary": 1828,
    "Ġrepres": 1829,
    "now": 1830,
    "Ġsour": 1831,
    "gn": 1832,
    "ĠAugust": 1833,
    "ret": 1834,
    "ived": 1835,
    "Ġret": 1836,
    "Ġyoung": 1837,
    "iness": 1838,
    "Ġdirect": 1839,
    "Ġspeed": 1840,
    "pril": 1841,
    "Ġarch": 1842,
    "Ġbirds": 1843,
    "ĠPar": 1844,
    "rum": 1845,
    "oms": 1846,
    "Ġbord": 1847,
    "Ġheld": 1848,
    "Ġbro": 1849,
    "When": 1850,
    "Ġhot": 1851,
    "ĠJapanese": 1852,
    "ĠOlymp": 1853,
    "ĠJew": 1854,
    "Ġflow": 1855,
    "ĠMin": 1856,
    "Ġeast": 1857,
    "Ġable": 1858,
    "Ġstar": 1859,
    "Ġgames": 1860,
    "Ġweap": 1861,
    "Ġnorm": 1862,
    "ĠEd": 1863,
    "Ġcour": 1864,
    "ops": 1865,
    "Ġinform": 1866,
    "ria": 1867,
    "Ġrules": 1868,
    "Ġmonarch": 1869,
    "Ġthird": 1870,
    "ĠCath": 1871,
    "ĠOr": 1872,
    "Ġpict": 1873,
    "Ġoxygen": 1874,
    "Ġlittle": 1875,
    "lim": 1876,
    "Ġdat": 1877,
    "rod": 1878,
    "Ġelectric": 1879,
    "Ġplayed": 1880,
    "ĠBecause": 1881,
    "nds": 1882,
    "ength": 1883,
    "ĠCon": 1884,
    "Ġmark": 1885,
    "Ġproblems": 1886,
    "Ġcoast": 1887,
    "Ġpast": 1888,
    "Ġwomen": 1889,
    "Ġnon": 1890,
    "Ġsurface": 1891,
    "ĠScotland": 1892,
    "ĠAb": 1893,
    "Ġforms": 1894,
    "Ġinstead": 1895,
    "Ġatoms": 1896,
    "Ġground": 1897,
    "Ġthemsel": 1898,
    "Ġthemselves": 1899,
    "Ġlevel": 1900,
    "Ġpaper": 1901,
    "ĠDuring": 1902,
    "Ġconsidered": 1903,
    "Ġmole": 1904,
    "Ġdet": 1905,
    "Ġsomeone": 1906,
    "Ġrock": 1907,
    "etic": 1908,
    "ock": 1909,
    "Ġmeth": 1910,
    "Ġclose": 1911,
    "oken": 1912,
    "Ġmatter": 1913,
    "Ġrain": 1914,
    "Ġinflu": 1915,
    "Ġage": 1916,
    "Ġtry": 1917,
    "ĠSpain": 1918,
    "ĠApril": 1919,
    "ĠPl": 1920,
    "ĠIts": 1921,
    "ull": 1922,
    "Ġobs": 1923,
    "Ġmembers": 1924,
    "ĠFebruary": 1925,
    "ĠCent": 1926,
    "ety": 1927,
    "Ġge": 1928,
    "Ġtreat": 1929,
    "liament": 1930,
    "Ġleader": 1931,
    "ĠArab": 1932,
    "Ġsix": 1933,
    "Ġancient": 1934,
    "que": 1935,
    "Ġthous": 1936,
    "Ġdiscovered": 1937,
    "Ġsug": 1938,
    "Ġ11": 1939,
    "Ġinformation": 1940,
    "erc": 1941,
    "ĠJuly": 1942,
    "to": 1943,
    "Ġsays": 1944,
    "Ġgrav": 1945,
    "ptember": 1946,
    "Ġfollowing": 1947,
    "Ġdesign": 1948,
    "vision": 1949,
    "Ġsize": 1950,
    "Ġtradition": 1951,
    "ĠCathol": 1952,
    "ĠSea": 1953,
    "Ġseason": 1954,
    "ummer": 1955,
    "Ġworks": 1956,
    "Ġmix": 1957,
    "ĠItaly": 1958,
    "Ġonce": 1959,
    "Most": 1960,
    "Ġreligion": 1961,
    "Ġhand": 1962,
    "Ġevent": 1963,
    "nect": 1964,
    "Ġsoci": 1965,
    "Ġspoken": 1966,
    "ĠâĢĵ": 1967,
    "Ġdepend": 1968,
    "Ġobjects": 1969,
    "Ġbecom": 1970,
    "by": 1971,
    "Ġwrite": 1972,
    "Ġcor": 1973,
    "Ġpat": 1974,
    "Ġhydrogen": 1975,
    "Ġcomputers": 1976,
    "ĠBr": 1977,
    "ĠPh": 1978,
    "Ġago": 1979,
    "Ġext": 1980,
    "Ġgave": 1981,
    "Ġtaken": 1982,
    "me": 1983,
    "Ġcolor": 1984,
    "ĠRussian": 1985,
    "Ġweapons": 1986,
    "Ġfall": 1987,
    "Ġmach": 1988,
    "Ġbre": 1989,
    "ĠViet": 1990,
    "ĠInternet": 1991,
    "ctober": 1992,
    "ĠCanada": 1993,
    "Ġcaused": 1994,
    "orer": 1995,
    "wh": 1996,
    "Ġradio": 1997,
    "Ġsqu": 1998,
    "Ġ14": 1999,
    "und": 2000,
    "Ġprotect": 2001,
    "Ġdeveloped": 2002,
    "ances": 2003,
    "Ġpar": 2004,
    "ply": 2005,
    "Ġwide": 2006,
    "stronom": 2007,
    "ĠUniversity": 2008,
    "ogr": 2009,
    "Ġcarbon": 2010,
    "Ġrecord": 2011,
    "Ġfish": 2012,
    "ised": 2013,
    "Ġamong": 2014,
    "ush": 2015,
    "Ġdest": 2016,
    "Ġliqu": 2017,
    "Ġnuclear": 2018,
    "ĠJune": 2019,
    "ĠSeptember": 2020,
    "aster": 2021,
    "ired": 2022,
    "Ġconnect": 2023,
    "Ġmult": 2024,
    "Ġwest": 2025,
    "Ġtravel": 2026,
    "Ġbusiness": 2027,
    "Ġarmy": 2028,
    "Ġformed": 2029,
    "Ġhapp": 2030,
    "Ġplanets": 2031,
    "ĠWest": 2032,
    "Ġphot": 2033,
    "utch": 2034,
    "Ġeconomy": 2035,
    "Ġrepl": 2036,
    "\").": 2037,
    "Ġitself": 2038,
    "ĠCl": 2039,
    "Ġwithin": 2040,
    "ware": 2041,
    "Ġbegin": 2042,
    "Ġlonger": 2043,
    "On": 2044,
    "iers": 2045,
    "Ġmethod": 2046,
    "acy": 2047,
    "Ġice": 2048,
    "Ġunderstand": 2049,
    "lam": 2050,
    "be": 2051,
    "ĠWh": 2052,
    "Ġbuildings": 2053,
    "Ġthing": 2054,
    "Ġelements": 2055,
    "ĠQueen": 2056,
    "atures": 2057,
    "bia": 2058,
    "Ġtelevision": 2059,
    "arent": 2060,
    "Ġjob": 2061,
    "ped": 2062,
    "ien": 2063,
    "ovember": 2064,
    "cent": 2065,
    "Ġhealth": 2066,
    "Ġmother": 2067,
    "Ġcomb": 2068,
    "cil": 2069,
    "Ġculture": 2070,
    "ĠCal": 2071,
    "Ġfem": 2072,
    "Ġpress": 2073,
    "arty": 2074,
    "After": 2075,
    "Ġweek": 2076,
    "ele": 2077,
    "ture": 2078,
    "Ġhouse": 2079,
    "ĠOcean": 2080,
    "Ġlim": 2081,
    "udd": 2082,
    "Ġdata": 2083,
    "Ġfil": 2084,
    "ĠRom": 2085,
    "Ġperform": 2086,
    "ĠMiddle": 2087,
    "Ġlate": 2088,
    "Ġseparate": 2089,
    "ĠVietn": 2090,
    "Ġstay": 2091,
    "dam": 2092,
    "exic": 2093,
    "Ġcivil": 2094,
    "ung": 2095,
    "Ġbad": 2096,
    "Ġbuilding": 2097,
    "Ġlost": 2098,
    "Ġearth": 2099,
    "Ġsystems": 2100,
    "Ġtree": 2101,
    "ility": 2102,
    "Ġelectron": 2103,
    "Ġleast": 2104,
    "Ġallowed": 2105,
    "Ġour": 2106,
    "Ġsingle": 2107,
    "Ġtest": 2108,
    "ode": 2109,
    "Ġcho": 2110,
    "Ġmovie": 2111,
    "ĠOctober": 2112,
    "Ġalph": 2113,
    "Ġreturn": 2114,
    "Ġindependent": 2115,
    "Ġ13": 2116,
    "Ġletter": 2117,
    "Ġabove": 2118,
    "ming": 2119,
    "chn": 2120,
    "oday": 2121,
    "Ġversion": 2122,
    "Ġislands": 2123,
    "Ġhighest": 2124,
    "Ġcompounds": 2125,
    "asons": 2126,
    "Ġz": 2127,
    "ters": 2128,
    "wards": 2129,
    "icult": 2130,
    "Ġmathemat": 2131,
    "Ġcare": 2132,
    "Ġwhole": 2133,
    "Ġfootball": 2134,
    "Ġelected": 2135,
    "ĠChurch": 2136,
    "Ġslow": 2137,
    "ĠIslam": 2138,
    "Ġlarger": 2139,
    "Ġstre": 2140,
    "alax": 2141,
    "ĠBel": 2142,
    "ĠNational": 2143,
    "ner": 2144,
    "ental": 2145,
    "Ġpossible": 2146,
    "Ġtalk": 2147,
    "Ġconf": 2148,
    "Ġbase": 2149,
    "Ġwood": 2150,
    "ĠDutch": 2151,
    "ĠMuslim": 2152,
    "ĠMexic": 2153,
    "Ġav": 2154,
    "olved": 2155,
    "ĠGre": 2156,
    "ĠRe": 2157,
    "Ġrece": 2158,
    "ĠTur": 2159,
    "Ġneeded": 2160,
    "ania": 2161,
    "Ġcenter": 2162,
    "ercury": 2163,
    "ĠWindows": 2164,
    "Ġ30": 2165,
    "ĠNorthern": 2166,
    "Ġvarious": 2167,
    "avy": 2168,
    "Ġengine": 2169,
    "Ġmember": 2170,
    "volution": 2171,
    "Ġrule": 2172,
    "Ġtrade": 2173,
    "Ġoutside": 2174,
    "Ġhistor": 2175,
    "Ġbeh": 2176,
    "ĠNether": 2177,
    "ĠMic": 2178,
    "ĠSh": 2179,
    "ah": 2180,
    "Ġdifficult": 2181,
    "Ġquick": 2182,
    "Ġdemocr": 2183,
    "uit": 2184,
    "ĠHind": 2185,
    "ĠCatholic": 2186,
    "Ġsit": 2187,
    "Ġprof": 2188,
    "ctic": 2189,
    "Ġ,": 2190,
    "ols": 2191,
    "Ġlocal": 2192,
    "ri": 2193,
    "iforn": 2194,
    "ifornia": 2195,
    "Ġnorthern": 2196,
    "Ġreleased": 2197,
    "Ġ100": 2198,
    "Ġparty": 2199,
    "Ġdev": 2200,
    "lor": 2201,
    "ives": 2202,
    "ĠNovember": 2203,
    "Ġcompos": 2204,
    "âĢĶ": 2205,
    "Ġeduc": 2206,
    "Ġhaving": 2207,
    "Ġoccur": 2208,
    "ĠMo": 2209,
    "mas": 2210,
    "ivity": 2211,
    "Ġreason": 2212,
    "Ġseries": 2213,
    "ĠSystem": 2214,
    "tal": 2215,
    "Ġshows": 2216,
    "Ġhost": 2217,
    "Ġoil": 2218,
    "Ġorbit": 2219,
    "Ġaver": 2220,
    "ĠNetherlands": 2221,
    "Ġpropert": 2222,
    "Ġblood": 2223,
    "Ġsex": 2224,
    "ours": 2225,
    "ĠTheir": 2226,
    "Ġacross": 2227,
    "Ġmountain": 2228,
    "Ġskin": 2229,
    "uddh": 2230,
    "eague": 2231,
    "ĠLeague": 2232,
    "ĠWestern": 2233,
    "Ġshape": 2234,
    "Ġclimate": 2235,
    "Ġtrue": 2236,
    "Ġbreak": 2237,
    "'t": 2238,
    "Ġeg": 2239,
    "Ġcompan": 2240,
    "Ġson": 2241,
    "Ġbirth": 2242,
    "Ġoldest": 2243,
    "Ġparticular": 2244,
    "Ġsun": 2245,
    "Ġmaterial": 2246,
    "ically": 2247,
    "Ġmainly": 2248,
    "ĠGo": 2249,
    "Ġbelieved": 2250,
    "Ġstruct": 2251,
    "ering": 2252,
    "ĠBy": 2253,
    "Ġdict": 2254,
    "Ġpay": 2255,
    "Ġnames": 2256,
    "mosp": 2257,
    "Ġatmosp": 2258,
    "Ġcold": 2259,
    "Ġsoil": 2260,
    "itution": 2261,
    "ĠSometimes": 2262,
    "Ġoppos": 2263,
    "inst": 2264,
    "ness": 2265,
    "Ġarr": 2266,
    "pect": 2267,
    "Ġsimple": 2268,
    "Ġtechn": 2269,
    "Ġmarried": 2270,
    "Ġworking": 2271,
    "Ġhold": 2272,
    "astern": 2273,
    "vers": 2274,
    "Ġhelped": 2275,
    "Ġquant": 2276,
    "Ġinternational": 2277,
    "Ġsong": 2278,
    "Ġcal": 2279,
    "ĠPort": 2280,
    "Ġchurch": 2281,
    "Ġpe": 2282,
    "ĠHol": 2283,
    "Ġastronom": 2284,
    "ĠTr": 2285,
    "ty": 2286,
    "Ġreligious": 2287,
    "Ġsoldiers": 2288,
    "ator": 2289,
    "ĠGames": 2290,
    "Ġneut": 2291,
    "Ġaverage": 2292,
    "Ġgalax": 2293,
    "Ġsil": 2294,
    "Ġincluded": 2295,
    "omin": 2296,
    "Ġworked": 2297,
    "Ġexcept": 2298,
    "ĠParty": 2299,
    "Ġelectrons": 2300,
    "Ġtakes": 2301,
    "Ġban": 2302,
    "Ġsty": 2303,
    "Ġsound": 2304,
    "ĠMario": 2305,
    "key": 2306,
    "ots": 2307,
    "Ġten": 2308,
    "aps": 2309,
    "Ġscientists": 2310,
    "ĠGeorge": 2311,
    "Ġspread": 2312,
    "apore": 2313,
    "ingapore": 2314,
    "Ġsw": 2315,
    "Ġlength": 2316,
    "ech": 2317,
    "Ġey": 2318,
    "rom": 2319,
    "Ġcut": 2320,
    "mph": 2321,
    "Ġruled": 2322,
    "This": 2323,
    "Ġdue": 2324,
    "Ġcreate": 2325,
    "ĠNe": 2326,
    "Ġdisease": 2327,
    "ĠThen": 2328,
    "ĠBl": 2329,
    "ĠTo": 2330,
    "Ġpred": 2331,
    "Ġ186": 2332,
    "ĠCalifornia": 2333,
    "Ġadded": 2334,
    "Ġwall": 2335,
    "itect": 2336,
    "can": 2337,
    "for": 2338,
    "People": 2339,
    "rought": 2340,
    "Ġanimal": 2341,
    "Ġtotal": 2342,
    "Ġhund": 2343,
    "Ġgold": 2344,
    "Ġtour": 2345,
    "Ġcompanies": 2346,
    "Ġhigher": 2347,
    "Ġbom": 2348,
    "ued": 2349,
    "Ġresp": 2350,
    "Ġ$": 2351,
    "ĠChristmas": 2352,
    "ama": 2353,
    "bab": 2354,
    "ĠNor": 2355,
    "ĠEach": 2356,
    "Ġpowerful": 2357,
    "Ġdep": 2358,
    "Ġphilosoph": 2359,
    "ĠMed": 2360,
    "Ġrefer": 2361,
    "lo": 2362,
    "ĠCar": 2363,
    "Ġ190": 2364,
    "Ġlives": 2365,
    "ored": 2366,
    "ĠFin": 2367,
    "ially": 2368,
    "Ġcarry": 2369,
    "ee": 2370,
    "iest": 2371,
    "ĠBuddh": 2372,
    "rict": 2373,
    "Ġauth": 2374,
    "ention": 2375,
    "Ġpresent": 2376,
    "Ġterrit": 2377,
    "Ġfrie": 2378,
    "let": 2379,
    "ashing": 2380,
    "ashington": 2381,
    "Ġcase": 2382,
    "Ġrepresent": 2383,
    "Ġ0": 2384,
    "Ġnet": 2385,
    "Ġsquare": 2386,
    "ein": 2387,
    "ĠX": 2388,
    "Ġever": 2389,
    "Ġposition": 2390,
    "ĠSec": 2391,
    "ux": 2392,
    "Ġpract": 2393,
    "ute": 2394,
    "idge": 2395,
    "Ġel": 2396,
    "aim": 2397,
    "Ġmoving": 2398,
    "NA": 2399,
    "lin": 2400,
    "Ġcontain": 2401,
    "Ġcele": 2402,
    "Ġinvented": 2403,
    "Ġparticles": 2404,
    "Ġkept": 2405,
    "ĠVen": 2406,
    "ler": 2407,
    "iation": 2408,
    "Ġmos": 2409,
    "Ġgraph": 2410,
    "row": 2411,
    "aur": 2412,
    "Ġrelations": 2413,
    "Ġcanc": 2414,
    "sy": 2415,
    "hel": 2416,
    "Ġalphabet": 2417,
    "Ġlearn": 2418,
    "Ġrequ": 2419,
    "Ġjoined": 2420,
    "Ġgets": 2421,
    "ls": 2422,
    "Ġliquid": 2423,
    "Ġsource": 2424,
    "Ġtit": 2425,
    "alend": 2426,
    "Ġmonths": 2427,
    "ified": 2428,
    "ĠChar": 2429,
    "Ġquickly": 2430,
    "where": 2431,
    "ĠAnd": 2432,
    "Ġtried": 2433,
    "ĠCub": 2434,
    "ĠItalian": 2435,
    "ival": 2436,
    "gypt": 2437,
    "Ġarchitect": 2438,
    "Ġmiddle": 2439,
    "ĠAnt": 2440,
    "Ġunivers": 2441,
    "Ġbi": 2442,
    "Ġsoftware": 2443,
    "ĠCup": 2444,
    "Ġlay": 2445,
    "Ġvir": 2446,
    "ox": 2447,
    "ograph": 2448,
    "work": 2449,
    "Ġletters": 2450,
    "Ġclos": 2451,
    "Ġended": 2452,
    "ĠIra": 2453,
    "ĠIraq": 2454,
    "For": 2455,
    "Ġrese": 2456,
    "Ġhowever": 2457,
    "Ġphysics": 2458,
    "Ġelement": 2459,
    "Ġsubst": 2460,
    "ann": 2461,
    "plorer": 2462,
    "ĠExplorer": 2463,
    "Ġdistance": 2464,
    "Ġview": 2465,
    "Ġatmosphere": 2466,
    "Ġtrees": 2467,
    "Ġelection": 2468,
    "ators": 2469,
    "Ġreligions": 2470,
    "ement": 2471,
    "Ġball": 2472,
    "Ġkil": 2473,
    "Ġcelebr": 2474,
    "Ġsuccessful": 2475,
    "ley": 2476,
    "Ġsurv": 2477,
    "nown": 2478,
    "Ġbrought": 2479,
    "Ġfought": 2480,
    "Ġwhy": 2481,
    "upiter": 2482,
    "bur": 2483,
    "Ġinse": 2484,
    "Ġnoun": 2485,
    "Ġ25": 2486,
    "ĠâĢľ": 2487,
    "hers": 2488,
    "ials": 2489,
    "Ġsports": 2490,
    "uries": 2491,
    "yth": 2492,
    "Ġdecl": 2493,
    "roy": 2494,
    "ills": 2495,
    "umin": 2496,
    "Ġprevious": 2497,
    "Ġheat": 2498,
    "ĠAp": 2499,
    "Ġalthough": 2500,
    "Ġsouthern": 2501,
    "Ġcompany": 2502,
    "olar": 2503,
    "Ġpieces": 2504,
    "Ġwaves": 2505,
    "Ġsell": 2506,
    "itive": 2507,
    "Ġclaim": 2508,
    "urches": 2509,
    "ĠAtl": 2510,
    "ĠAtlant": 2511,
    "Ġmale": 2512,
    "Ġcancer": 2513,
    "Ġappro": 2514,
    "Ġcounty": 2515,
    "ĠBible": 2516,
    "Ġpot": 2517,
    "inci": 2518,
    "Ġmot": 2519,
    "Ġprobab": 2520,
    "wo": 2521,
    "eter": 2522,
    "ĠGen": 2523,
    "Ġbelief": 2524,
    "Ġforces": 2525,
    "ked": 2526,
    "Ġwinter": 2527,
    "Ġpur": 2528,
    "Ġintere": 2529,
    "Ġinterest": 2530,
    "Ġrather": 2531,
    "yn": 2532,
    "Ġpow": 2533,
    "Ġdi": 2534,
    "Ġmulti": 2535,
    "Ġrelated": 2536,
    "eder": 2537,
    "known": 2538,
    "ĠSingapore": 2539,
    "ae": 2540,
    "bert": 2541,
    "Ġeconomic": 2542,
    "Ġcalend": 2543,
    "ĠEgypt": 2544,
    "Ġsociety": 2545,
    "Ġarg": 2546,
    "âĢĿ": 2547,
    "Ġeth": 2548,
    "Ġproduce": 2549,
    "Ġdig": 2550,
    "Ġcomplete": 2551,
    "Ġexamples": 2552,
    "Ġgoes": 2553,
    "Ġdestroy": 2554,
    "Ġformer": 2555,
    "Ġlower": 2556,
    "ctors": 2557,
    "Ġevents": 2558,
    "ĠPoland": 2559,
    "ĠVietnam": 2560,
    "Ġfre": 2561,
    "Ġappear": 2562,
    "Ġquest": 2563,
    "Ġche": 2564,
    "Ġcommonly": 2565,
    "ĠHer": 2566,
    "Ġmovies": 2567,
    "Ġste": 2568,
    "ĠAnge": 2569,
    "ĠColum": 2570,
    "ccording": 2571,
    "rop": 2572,
    "Ġrole": 2573,
    "Ġmagn": 2574,
    "Ġvisit": 2575,
    "Ġvolcan": 2576,
    "Ġgoing": 2577,
    "Ġunits": 2578,
    "Ġships": 2579,
    "Ġproblem": 2580,
    "ĠAmericans": 2581,
    "lex": 2582,
    "ery": 2583,
    "ĠHaw": 2584,
    "ogn": 2585,
    "cum": 2586,
    "Ġcopper": 2587,
    "ring": 2588,
    "ĠRome": 2589,
    "Ġdecided": 2590,
    "ched": 2591,
    "man": 2592,
    "ission": 2593,
    "Ġmountains": 2594,
    "enry": 2595,
    "ĠLou": 2596,
    "val": 2597,
    "ization": 2598,
    "raft": 2599,
    "Ġschools": 2600,
    "oes": 2601,
    "Ġdark": 2602,
    "Ġdraw": 2603,
    "Ġindustry": 2604,
    "Ġparent": 2605,
    "oss": 2606,
    "put": 2607,
    "Ġregions": 2608,
    "ĠNations": 2609,
    "ĠOlympic": 2610,
    "ĠMos": 2611,
    "ĠJews": 2612,
    "ques": 2613,
    "Ġpiece": 2614,
    "rect": 2615,
    "aint": 2616,
    "uminium": 2617,
    "Al": 2618,
    "Ġdam": 2619,
    "Ġinstrum": 2620,
    "Ġord": 2621,
    "aught": 2622,
    "ike": 2623,
    "ional": 2624,
    "ino": 2625,
    "Ġaddition": 2626,
    "ores": 2627,
    "Ġbrother": 2628,
    "aut": 2629,
    "ression": 2630,
    "Ġcenturies": 2631,
    "Ġfrequ": 2632,
    "ps": 2633,
    "Ġgreen": 2634,
    "ems": 2635,
    "Ġindependence": 2636,
    "eth": 2637,
    "ao": 2638,
    "Ġbelong": 2639,
    "ract": 2640,
    "ĠWales": 2641,
    "Ġcharacter": 2642,
    "ĠJes": 2643,
    "ĠJesus": 2644,
    "of": 2645,
    "Ġcharge": 2646,
    "instein": 2647,
    "Ġpubl": 2648,
    "Ġhappens": 2649,
    "esc": 2650,
    "ĠWashington": 2651,
    "Ġ2004": 2652,
    "Ġaffect": 2653,
    "Ġcauses": 2654,
    "Ġrights": 2655,
    "Ġthousands": 2656,
    "Ġcontains": 2657,
    "soci": 2658,
    "ney": 2659,
    "Ġmamm": 2660,
    "ĠState": 2661,
    "Ġexperim": 2662,
    "19": 2663,
    "ilip": 2664,
    "Ġsummer": 2665,
    "Ġbeginning": 2666,
    "ĠGreece": 2667,
    "inary": 2668,
    "Ġeggs": 2669,
    "Ġmeasured": 2670,
    "Ġworkers": 2671,
    "Ġtrib": 2672,
    "Ġcentral": 2673,
    "ctor": 2674,
    "Ġfemale": 2675,
    "Ġsoon": 2676,
    "ĠSince": 2677,
    "ences": 2678,
    "ĠMinister": 2679,
    "we": 2680,
    "Ġones": 2681,
    "Ġgetting": 2682,
    "ĠWe": 2683,
    "ror": 2684,
    "mark": 2685,
    "ulf": 2686,
    "ardo": 2687,
    "onardo": 2688,
    "ĠInternational": 2689,
    "Ġolder": 2690,
    "aged": 2691,
    "get": 2692,
    "Ġ50": 2693,
    "Ġdry": 2694,
    "Ġmeet": 2695,
    "ham": 2696,
    "Ġhair": 2697,
    "ĠSolar": 2698,
    "akistan": 2699,
    "Ġoriginal": 2700,
    "ĠRomania": 2701,
    "Ġexact": 2702,
    "Ġcreat": 2703,
    "ĠWith": 2704,
    "Ġenv": 2705,
    "Ġenviron": 2706,
    "chan": 2707,
    "Ġmechan": 2708,
    "ĠSch": 2709,
    "ality": 2710,
    "Ġpron": 2711,
    "ĠSat": 2712,
    "oved": 2713,
    "opes": 2714,
    "Ġmolecul": 2715,
    "Ġmolecules": 2716,
    ",\"": 2717,
    "Ġweb": 2718,
    "'.": 2719,
    "soft": 2720,
    "rosoft": 2721,
    "Ġauthor": 2722,
    "Ġpressure": 2723,
    "Ġwhether": 2724,
    "Ġbuy": 2725,
    "Ġfire": 2726,
    "ĠMount": 2727,
    "Ġwestern": 2728,
    "Ġservices": 2729,
    "Ġplayers": 2730,
    "Ġentire": 2731,
    "Ġsuggest": 2732,
    "ĠAm": 2733,
    "Ġscientific": 2734,
    "ĠPortug": 2735,
    "itzer": 2736,
    "itzerland": 2737,
    "Ġport": 2738,
    "Ġsubject": 2739,
    "Ġbillion": 2740,
    "Ġgrew": 2741,
    "Ġgenerally": 2742,
    "Ġeducation": 2743,
    "Ġmeant": 2744,
    "ĠMan": 2745,
    "elesc": 2746,
    "idence": 2747,
    "ency": 2748,
    "Ġer": 2749,
    "ĠPrime": 2750,
    "Ġhunt": 2751,
    "Ġrivers": 2752,
    "Ġmathematics": 2753,
    "ĠParliament": 2754,
    "Ġcompet": 2755,
    "Ġspecific": 2756,
    "Ġfast": 2757,
    "Ġthroughout": 2758,
    "Ġgives": 2759,
    "Ġnature": 2760,
    "Ġchurches": 2761,
    "Ġadv": 2762,
    "Ġunit": 2763,
    "Ġconc": 2764,
    "Ġmoon": 2765,
    "ĠJupiter": 2766,
    "Ġoperating": 2767,
    "Ġmetals": 2768,
    "Ġfeel": 2769,
    "Ġbasic": 2770,
    "Ġ1990": 2771,
    "Ġwind": 2772,
    "Ġfounded": 2773,
    "ĠLater": 2774,
    "Ġ2000": 2775,
    "Ġwoman": 2776,
    "Ġaccept": 2777,
    "ĠHenry": 2778,
    "Ġresearch": 2779,
    "Ġdefin": 2780,
    "Ġhappened": 2781,
    "Ġtowns": 2782,
    "Ġadult": 2783,
    "ĠRomans": 2784,
    "Ġsurround": 2785,
    "Ġstandard": 2786,
    "Ġcook": 2787,
    "\"),": 2788,
    "Ġyour": 2789,
    "Ġkingdom": 2790,
    "west": 2791,
    "uel": 2792,
    "Ġneeds": 2793,
    "rew": 2794,
    "Ġstyle": 2795,
    "BC": 2796,
    "abeth": 2797,
    "izabeth": 2798,
    "lizabeth": 2799,
    "Ġeasily": 2800,
    "Ġelse": 2801,
    "ĠIndian": 2802,
    "Ġrecent": 2803,
    "Ġborder": 2804,
    "Ġtax": 2805,
    "ma": 2806,
    "Ġlab": 2807,
    "Ġcy": 2808,
    "ication": 2809,
    "Ġvalue": 2810,
    "Ġhor": 2811,
    "Ġnews": 2812,
    "mon": 2813,
    "Ġhit": 2814,
    "Ġappl": 2815,
    "Ġpublished": 2816,
    "Ġdefe": 2817,
    "enmark": 2818,
    "Ġparties": 2819,
    "Ġaluminium": 2820,
    "Ġcalendar": 2821,
    "xide": 2822,
    "Ġexec": 2823,
    "Ġprim": 2824,
    "Ġburn": 2825,
    "Ġestab": 2826,
    "ĠMexico": 2827,
    "ivid": 2828,
    "Ġindivid": 2829,
    "Ġgravity": 2830,
    "ott": 2831,
    "ĠCommun": 2832,
    "Ġphysical": 2833,
    "Ġblue": 2834,
    "Ġphilosophy": 2835,
    "Ġrange": 2836,
    "Ġlines": 2837,
    "During": 2838,
    "Ġbigger": 2839,
    "Ġproducts": 2840,
    "Ġtable": 2841,
    "ĠJames": 2842,
    "Ġfront": 2843,
    "Ġneutr": 2844,
    "Ġrecogn": 2845,
    "ached": 2846,
    "Ġprote": 2847,
    "ĠUK": 2848,
    "Ġprison": 2849,
    "Ġplays": 2850,
    "Ġvirus": 2851,
    "ĠCentral": 2852,
    "Ġet": 2853,
    "Ġclear": 2854,
    "ĠOt": 2855,
    "used": 2856,
    "Ġconstitution": 2857,
    "Ġra": 2858,
    "Ġpeace": 2859,
    "Ġtall": 2860,
    "ries": 2861,
    "Ġeverything": 2862,
    "ĠEastern": 2863,
    "ĠSwitzerland": 2864,
    "ĠSer": 2865,
    "Ġprom": 2866,
    "Ġaddress": 2867,
    "ĠAnother": 2868,
    "Ġnormally": 2869,
    "Ġacid": 2870,
    "Ġproduced": 2871,
    "ĠCount": 2872,
    "ĠHouse": 2873,
    "Ġparents": 2874,
    "Ġseven": 2875,
    "Ġcomplex": 2876,
    "Ġdescribe": 2877,
    "Ġident": 2878,
    "ĠAfgh": 2879,
    "Ġliter": 2880,
    "ĠAfrican": 2881,
    "Ġdru": 2882,
    "Ġpian": 2883,
    "ĠMicrosoft": 2884,
    "peror": 2885,
    "Ġbroad": 2886,
    "Ġsupported": 2887,
    "ĠAd": 2888,
    "Ġimpro": 2889,
    "Ġsaf": 2890,
    "Ġhous": 2891,
    "Ġcapture": 2892,
    "Ġfeatures": 2893,
    "alled": 2894,
    "Ġnearly": 2895,
    "na": 2896,
    "Ġactually": 2897,
    "ĠSwed": 2898,
    "Ġlic": 2899,
    "Ġleap": 2900,
    "edi": 2901,
    "Ġcit": 2902,
    "Ġcitiz": 2903,
    "Ġprobably": 2904,
    "Ġhar": 2905,
    "which": 2906,
    "Ġfull": 2907,
    "Ġcollect": 2908,
    "Ġeasy": 2909,
    "Ġ184": 2910,
    "Ġ189": 2911,
    "elt": 2912,
    "Ġ2008": 2913,
    "ĠLouis": 2914,
    "Ġlog": 2915,
    "Ġreach": 2916,
    "Ġsolid": 2917,
    "Ġmodel": 2918,
    "Ġla": 2919,
    "ash": 2920,
    "Ġleaders": 2921,
    "Ġwife": 2922,
    "Ġplayer": 2923,
    "Ġspir": 2924,
    "Ġhuge": 2925,
    "ledge": 2926,
    "Ġris": 2927,
    "Ġpoor": 2928,
    "ederal": 2929,
    "ague": 2930,
    "ounced": 2931,
    "Ġfighting": 2932,
    "less": 2933,
    "Ġbond": 2934,
    "ĠHindu": 2935,
    "ires": 2936,
    "Ġreasons": 2937,
    "craft": 2938,
    "inos": 2939,
    "Ġcamp": 2940,
    "Ġrelationship": 2941,
    "Ġcode": 2942,
    "acters": 2943,
    "ĠAncient": 2944,
    "ĠToday": 2945,
    "icy": 2946,
    "Ġdevelopment": 2947,
    "Ġequal": 2948,
    "ĠFirst": 2949,
    "ffee": 2950,
    "Ġdescribed": 2951,
    "Ġintrod": 2952,
    "Ġcolle": 2953,
    "Ġtransl": 2954,
    "Ġdoing": 2955,
    "Ġnucle": 2956,
    "ĠPakistan": 2957,
    "ĠIran": 2958,
    "Ġhole": 2959,
    "Ġforeign": 2960,
    "ĠBer": 2961,
    "Ġprint": 2962,
    "Ġdead": 2963,
    "Ġpicture": 2964,
    "Ġelectricity": 2965,
    "ager": 2966,
    "Ġdom": 2967,
    "Ġcalcul": 2968,
    "Ġterms": 2969,
    "Ġcolon": 2970,
    "Ġreally": 2971,
    "Ġreplaced": 2972,
    "Ġann": 2973,
    "Ġgu": 2974,
    "Ġphilosop": 2975,
    "Ġradiation": 2976,
    "Ġquantum": 2977,
    "Ġobser": 2978,
    "Ġprofess": 2979,
    "ĠMars": 2980,
    "Ġorganism": 2981,
    "Ġdrink": 2982,
    "Ġocean": 2983,
    "Ġslaves": 2984,
    "rain": 2985,
    "Ġrings": 2986,
    "ĠAnne": 2987,
    "Ġstarts": 2988,
    "heast": 2989,
    "ĠAlso": 2990,
    "Ġsail": 2991,
    "ster": 2992,
    "Ġshown": 2993,
    "Ġprovin": 2994,
    "Ġdeg": 2995,
    "ĠOld": 2996,
    "bour": 2997,
    "Ġ2006": 2998,
    "uced": 2999,
    "Ġpredict": 3000,
    "ape": 3001,
    "Ġleave": 3002,
    "ĠEinstein": 3003,
    "Ġofficially": 3004,
    "Ġcontrolled": 3005,
    "ĠConf": 3006,
    "ift": 3007,
    "ĠDenmark": 3008,
    "Ġpictures": 3009,
    "Ġetc": 3010,
    "augh": 3011,
    "As": 3012,
    "ling": 3013,
    "Ġstructure": 3014,
    "Ġeasier": 3015,
    "Ġmilk": 3016,
    "Ġbecomes": 3017,
    "Ġtransport": 3018,
    "Ġjoin": 3019,
    "Ġass": 3020,
    "ĠDNA": 3021,
    "Ġtelesc": 3022,
    "Ġoffice": 3023,
    "Ġ2001": 3024,
    "Ġkilomet": 3025,
    "ĠSl": 3026,
    "Â°": 3027,
    "Ġinfect": 3028,
    "Ġgrowth": 3029,
    "Ġmarket": 3030,
    "Ġrail": 3031,
    "Ġspeech": 3032,
    "Ġeleph": 3033,
    "Ġfilm": 3034,
    "He": 3035,
    "ze": 3036,
    "ĠLeonardo": 3037,
    "Ġenvironment": 3038,
    "Ġiron": 3039,
    "ĠGr": 3040,
    "Ġmeat": 3041,
    "Ġknowledge": 3042,
    "Ġmammals": 3043,
    "Ġwat": 3044,
    "Ġdial": 3045,
    "ites": 3046,
    "reme": 3047,
    "Ġavail": 3048,
    "iding": 3049,
    "One": 3050,
    "ĠBelg": 3051,
    "aries": 3052,
    "imens": 3053,
    "Ġwear": 3054,
    "ĠCharles": 3055,
    "Ġadm": 3056,
    "Ġ24": 3057,
    "ĠRevolution": 3058,
    "ĠTurkey": 3059,
    "Ġroad": 3060,
    "Ġfollowed": 3061,
    "ential": 3062,
    "Ġparticle": 3063,
    "Ġdifference": 3064,
    "Ġrelat": 3065,
    "ĠLin": 3066,
    "addam": 3067,
    ".)": 3068,
    "ately": 3069,
    "ĠAges": 3070,
    "ario": 3071,
    "Ġnation": 3072,
    "Ġvote": 3073,
    "elf": 3074,
    "Ġ1960": 3075,
    "10": 3076,
    "ĠUs": 3077,
    "Ġrare": 3078,
    "ĠMil": 3079,
    "Ġthin": 3080,
    "Ġservice": 3081,
    "Ġapart": 3082,
    "Ġfig": 3083,
    "Ġfly": 3084,
    "At": 3085,
    "ane": 3086,
    "Ġmachine": 3087,
    "Ġgrowing": 3088,
    "utions": 3089,
    "Ġforest": 3090,
    "Ġvot": 3091,
    "Ġ1980": 3092,
    "erous": 3093,
    "Ġmoves": 3094,
    "ask": 3095,
    "Ġfail": 3096,
    "ĠAbout": 3097,
    "Ġteach": 3098,
    "ander": 3099,
    "ĠEven": 3100,
    "ptune": 3101,
    "ĠHawai": 3102,
    "anistan": 3103,
    "Ġfro": 3104,
    "ĠKorean": 3105,
    "Ġcharacters": 3106,
    "Ġzinc": 3107,
    "Ġcultures": 3108,
    "ged": 3109,
    "Ġbelow": 3110,
    "Ġang": 3111,
    "ĠAir": 3112,
    "ready": 3113,
    "Ġalready": 3114,
    "ĠProt": 3115,
    "ĠGu": 3116,
    "Ġnative": 3117,
    "Ġiss": 3118,
    "Ġlots": 3119,
    "Ġprograms": 3120,
    "ĠMary": 3121,
    "Ġsimply": 3122,
    "Ġlands": 3123,
    "Ġcovered": 3124,
    "Ġsides": 3125,
    "ĠChristians": 3126,
    "ĠEm": 3127,
    "ĠDemocr": 3128,
    "line": 3129,
    "Ġrate": 3130,
    "Ġtext": 3131,
    "krain": 3132,
    "ĠUkrain": 3133,
    "ior": 3134,
    "Ġfreed": 3135,
    "iki": 3136,
    "ĠScott": 3137,
    "Ġuseful": 3138,
    "ume": 3139,
    "Ġ21": 3140,
    "Ġdie": 3141,
    "Ġmajority": 3142,
    "mers": 3143,
    "astle": 3144,
    "ĠAustria": 3145,
    "Ġwhose": 3146,
    "Ġnetwork": 3147,
    "Ġavailable": 3148,
    "yl": 3149,
    "Ġopposite": 3150,
    "Ġattract": 3151,
    "Ġ2011": 3152,
    "Ġbatter": 3153,
    "sych": 3154,
    "ĠNaz": 3155,
    "Ġcourt": 3156,
    "Ġconqu": 3157,
    "Ġgrown": 3158,
    "Ġeveryone": 3159,
    "Ġflat": 3160,
    "Ġtraditional": 3161,
    "Ġprinci": 3162,
    "Ġinfluence": 3163,
    "Ġhimself": 3164,
    "Ġlooks": 3165,
    "Ġspl": 3166,
    "Ġatomic": 3167,
    "Ġperm": 3168,
    "ĠNorm": 3169,
    "cks": 3170,
    "Ġinsects": 3171,
    "Ġquite": 3172,
    "Ġactive": 3173,
    "Ġfaster": 3174,
    "ĠLake": 3175,
    "ĠRich": 3176,
    "ophren": 3177,
    "izophren": 3178,
    "igr": 3179,
    "right": 3180,
    "Ġpercent": 3181,
    "Ġdeb": 3182,
    "Ġsaw": 3183,
    "rick": 3184,
    "itler": 3185,
    "Ġwars": 3186,
    "Ġspell": 3187,
    "oven": 3188,
    "ship": 3189,
    "Ġnormal": 3190,
    "Ġdestroyed": 3191,
    "Ġclou": 3192,
    "Ġmovement": 3193,
    "Ġexplain": 3194,
    "Ġholes": 3195,
    "Ġ188": 3196,
    "ĠAtlantic": 3197,
    "ĠCuba": 3198,
    "ĠBra": 3199,
    "burg": 3200,
    "Ġtitle": 3201,
    "uke": 3202,
    "ological": 3203,
    "Ġ2003": 3204,
    "Ġevidence": 3205,
    "ĠChristianity": 3206,
    "oyal": 3207,
    "Ġcentre": 3208,
    "Ġpriv": 3209,
    "Ġforced": 3210,
    "illions": 3211,
    "ique": 3212,
    "Ġleaves": 3213,
    "apt": 3214,
    "Ġmiles": 3215,
    "iving": 3216,
    "Ġwidely": 3217,
    "If": 3218,
    "Ġfur": 3219,
    "ground": 3220,
    "ĠSa": 3221,
    "Ġprovince": 3222,
    "ĠAD": 3223,
    "Ġstudents": 3224,
    "Ġill": 3225,
    "adium": 3226,
    "ĠMarx": 3227,
    "ĠIr": 3228,
    "ience": 3229,
    "aughter": 3230,
    "Ġeight": 3231,
    "Ġrich": 3232,
    "Ġhouses": 3233,
    "ĠIsland": 3234,
    "Ġenem": 3235,
    "ĠInst": 3236,
    "acteria": 3237,
    "icated": 3238,
    "ĠAlex": 3239,
    "ruction": 3240,
    "amples": 3241,
    "Ġrecorded": 3242,
    "lished": 3243,
    "Ġbrain": 3244,
    "arian": 3245,
    "Ġconditions": 3246,
    "Ġlegal": 3247,
    "Ġqueen": 3248,
    "erals": 3249,
    "Ġstory": 3250,
    "ĠJane": 3251,
    "itam": 3252,
    "ĠâĢ¢": 3253,
    "Ġdeterm": 3254,
    "Ġweather": 3255,
    "ĠHung": 3256,
    "ĠCommon": 3257,
    "Ġcontinent": 3258,
    "Ġearli": 3259,
    "Ġearlier": 3260,
    "ination": 3261,
    "Ġcle": 3262,
    "Ġpray": 3263,
    "Ġuniversities": 3264,
    "Ġstudies": 3265,
    "Ġvill": 3266,
    "wan": 3267,
    "Ch": 3268,
    "Ġ2007": 3269,
    "Ġhelps": 3270,
    "Ġtrain": 3271,
    "ĠPope": 3272,
    "Ġearthqu": 3273,
    "aes": 3274,
    "Ġpaint": 3275,
    "Ġarchitecture": 3276,
    "Ġ23": 3277,
    "ĠElizabeth": 3278,
    "ĠApple": 3279,
    "ĠMac": 3280,
    "Ġchemicals": 3281,
    "Ġbeaut": 3282,
    "aded": 3283,
    "mes": 3284,
    "Ġturned": 3285,
    "Ġeastern": 3286,
    "odern": 3287,
    "Ġfunction": 3288,
    "light": 3289,
    "Ġobserv": 3290,
    "ude": 3291,
    "Ġcoll": 3292,
    "ĠParis": 3293,
    "Ġreb": 3294,
    "Ġ187": 3295,
    "ĠBerlin": 3296,
    "Ġpersonal": 3297,
    "Ġcommunist": 3298,
    "ĠSaint": 3299,
    "ĠPhilip": 3300,
    "cow": 3301,
    "izophrenia": 3302,
    "ono": 3303,
    "imono": 3304,
    "50": 3305,
    "Ġshowed": 3306,
    "ĠGovern": 3307,
    "Ġpolice": 3308,
    "Ġmaterials": 3309,
    "Ġstudied": 3310,
    "Ġdiam": 3311,
    "Ġpoints": 3312,
    "Ġisot": 3313,
    "Ġcontinued": 3314,
    "Ġsym": 3315,
    "hedral": 3316,
    "iles": 3317,
    "200": 3318,
    "Ġpoet": 3319,
    "ioxide": 3320,
    "Ġdioxide": 3321,
    "Ġprovinces": 3322,
    "Ġproduction": 3323,
    "Ġtold": 3324,
    "Ġtools": 3325,
    "Ġcoffee": 3326,
    "Ġcand": 3327,
    "Ġremoved": 3328,
    "Ġzer": 3329,
    "ĠBefore": 3330,
    "Ġdefined": 3331,
    "ĠAfghanistan": 3332,
    "Ġsnow": 3333,
    "Ġwarm": 3334,
    "Ġbank": 3335,
    "ption": 3336,
    "Ġbecoming": 3337,
    "Ġadver": 3338,
    "isp": 3339,
    "Ġproperty": 3340,
    "Ġsend": 3341,
    "vent": 3342,
    "Ġcommunity": 3343,
    "ords": 3344,
    "wer": 3345,
    "acific": 3346,
    "ĠPacific": 3347,
    "Ġfruit": 3348,
    "km": 3349,
    "ĠFrom": 3350,
    "vi": 3351,
    "Ġfriends": 3352,
    "Ġbodies": 3353,
    "Ġgalaxies": 3354,
    "Ġmoons": 3355,
    "Ġmedic": 3356,
    "Ġcitizens": 3357,
    "..": 3358,
    "ĠHar": 3359,
    "ussia": 3360,
    "ĠFinland": 3361,
    "Ġheavy": 3362,
    "Ġlearned": 3363,
    "Ġans": 3364,
    "uck": 3365,
    "Ġpassed": 3366,
    "ĠDay": 3367,
    "called": 3368,
    "Ġviol": 3369,
    "Ġattem": 3370,
    "Ġattempt": 3371,
    "Ġgods": 3372,
    "Ġreaction": 3373,
    "ĠFranc": 3374,
    "Ġdirection": 3375,
    "Ġestablished": 3376,
    "ĠFrank": 3377,
    "erence": 3378,
    "Ġinteract": 3379,
    "Ġshare": 3380,
    "Ġruns": 3381,
    "Ġoccup": 3382,
    "ĠSaddam": 3383,
    "Ġexactly": 3384,
    "Ġ60": 3385,
    "ĠZe": 3386,
    "Ġdemocracy": 3387,
    "Ġflag": 3388,
    "ĠVir": 3389,
    "Ġbacteria": 3390,
    "Ġworship": 3391,
    "Ġsubstance": 3392,
    "Ġlikely": 3393,
    "Ġamounts": 3394,
    "lar": 3395,
    "avery": 3396,
    "reen": 3397,
    "ault": 3398,
    "Ġcoming": 3399,
    "Ġsense": 3400,
    "Ġstarting": 3401,
    "ĠOtt": 3402,
    "Ġ2010": 3403,
    "Ġgrass": 3404,
    "Ġassoci": 3405,
    "reds": 3406,
    "ĠArmy": 3407,
    "asion": 3408,
    "Ġ1970": 3409,
    "Ġterritory": 3410,
    "Ġwalk": 3411,
    "Ġsuff": 3412,
    "Ġconnected": 3413,
    "Ġbur": 3414,
    "Ġbomb": 3415,
    "Ġfut": 3416,
    "Ġfuture": 3417,
    "agon": 3418,
    "Ġuser": 3419,
    "Ġcases": 3420,
    "aking": 3421,
    "Ġ179": 3422,
    "Ġvide": 3423,
    "ĠAccording": 3424,
    "Ġwebs": 3425,
    "Ġcounties": 3426,
    "ĠMercury": 3427,
    "itan": 3428,
    "ĠMoscow": 3429,
    "Ġimmedi": 3430,
    "Ġregular": 3431,
    "Ġsalt": 3432,
    "Ġcross": 3433,
    "ĠHitler": 3434,
    "ĠTwo": 3435,
    "Ġfeet": 3436,
    "Ġnations": 3437,
    "ean": 3438,
    "Ġcam": 3439,
    "Ġdang": 3440,
    "Ġpair": 3441,
    "Ġarm": 3442,
    "ĠJewish": 3443,
    "II": 3444,
    "eum": 3445,
    "Ġstories": 3446,
    "Ġfamil": 3447,
    "ĠEs": 3448,
    "ĠSaturn": 3449,
    "St": 3450,
    "ĠPre": 3451,
    "zy": 3452,
    "Ġbring": 3453,
    "Ġapp": 3454,
    "ynast": 3455,
    "vere": 3456,
    "Ġreceived": 3457,
    "ĠWhile": 3458,
    "Ġstone": 3459,
    "Ġcloth": 3460,
    "Ġseed": 3461,
    "Ġdem": 3462,
    "go": 3463,
    "ĠFootball": 3464,
    "ampions": 3465,
    "Ġgard": 3466,
    "Ġappeared": 3467,
    "ĠMuslims": 3468,
    "Ġweak": 3469,
    "bus": 3470,
    "Ġcultural": 3471,
    "Ġstep": 3472,
    "Ġprotons": 3473,
    "Ġaccording": 3474,
    "Ġsuper": 3475,
    "Ġdirectly": 3476,
    "Ġeyes": 3477,
    "Ġgravit": 3478,
    "Ġglass": 3479,
    "Ġcorrect": 3480,
    "Ġrocks": 3481,
    "Ġslowly": 3482,
    "Ġresour": 3483,
    "Ġuniversity": 3484,
    "Ġserved": 3485,
    "aff": 3486,
    "icle": 3487,
    "ĠFord": 3488,
    "Ġ22": 3489,
    "Ġ31": 3490,
    "aesar": 3491,
    "Ġpattern": 3492,
    "Ġtechnology": 3493,
    "ĠBas": 3494,
    "ĠMich": 3495,
    "Ġreturned": 3496,
    "Ġmachines": 3497,
    "Ġbab": 3498,
    "iful": 3499,
    "Ġstopped": 3500,
    "Ġfoc": 3501,
    "Ġdialect": 3502,
    "istics": 3503,
    "Ġinvol": 3504,
    "Ġsplit": 3505,
    "Ġethn": 3506,
    "Ġethnic": 3507,
    "Ġbrows": 3508,
    "Ġveh": 3509,
    "arctic": 3510,
    "Ġlibr": 3511,
    "isphere": 3512,
    "umn": 3513,
    "outhern": 3514,
    "ĠSouthern": 3515,
    "oke": 3516,
    "isl": 3517,
    "ĠRo": 3518,
    "Ġsett": 3519,
    "Ġparliament": 3520,
    "ĠOf": 3521,
    "ody": 3522,
    "ĠBush": 3523,
    "Ġcust": 3524,
    "Ġsky": 3525,
    "Ġthick": 3526,
    "uce": 3527,
    "Ġmosques": 3528,
    "Ġtaught": 3529,
    "Ġrelease": 3530,
    "Ġnight": 3531,
    "ĠNeptune": 3532,
    "spe": 3533,
    "inct": 3534,
    "Ġround": 3535,
    "Ġsympt": 3536,
    "Ġsymptoms": 3537,
    "uper": 3538,
    "ĠLinux": 3539,
    "ĠAngeles": 3540,
    "ended": 3541,
    "Ġfourth": 3542,
    "gor": 3543,
    "Ġends": 3544,
    "Ġcontent": 3545,
    "Ġ1945": 3546,
    "Ġhours": 3547,
    "Ġhundreds": 3548,
    "Ġsymbols": 3549,
    "Wh": 3550,
    "Ġsal": 3551,
    "Ġphr": 3552,
    "liest": 3553,
    "Ġearliest": 3554,
    "Ġbeliefs": 3555,
    "Ġagreed": 3556,
    "ĠNewton": 3557,
    "aches": 3558,
    "Ġtowards": 3559,
    "Ġrepublic": 3560,
    "Ġversions": 3561,
    "ellow": 3562,
    "Ġsigned": 3563,
    "Ġprevent": 3564,
    "Ġschizophrenia": 3565,
    "Ġproduct": 3566,
    "Ġwalls": 3567,
    "ĠIslamic": 3568,
    "ille": 3569,
    "gative": 3570,
    "Ġseparated": 3571,
    "yp": 3572,
    "Ġminor": 3573,
    "Ġowned": 3574,
    "inist": 3575,
    "ĠVirg": 3576,
    "Ġagre": 3577,
    "ĠNorway": 3578,
    "Ġabs": 3579,
    "rial": 3580,
    "Ġheart": 3581,
    "Ġkey": 3582,
    "Ġwriter": 3583,
    "ene": 3584,
    "com": 3585,
    "Ġeffects": 3586,
    "Ġcrit": 3587,
    "itamin": 3588,
    "ĠScottish": 3589,
    "Ġther": 3590,
    "zt": 3591,
    "Ġkimono": 3592,
    "Ġoriginally": 3593,
    "Ġdance": 3594,
    "Be": 3595,
    "Ġ2013": 3596,
    "Ġshapes": 3597,
    "Ġreport": 3598,
    "Ġ40": 3599,
    "Ġcoal": 3600,
    "Ġstayed": 3601,
    "Ġheav": 3602,
    "omers": 3603,
    "Ġtells": 3604,
    "Ġaccount": 3605,
    "Ġintroduced": 3606,
    "uits": 3607,
    "cies": 3608,
    "Ġgoods": 3609,
    "Ġempire": 3610,
    "Ġremain": 3611,
    "enn": 3612,
    "Ġanything": 3613,
    "othes": 3614,
    "ables": 3615,
    "exas": 3616,
    "Ġpiano": 3617,
    "ius": 3618,
    "Ġimage": 3619,
    "Ġweight": 3620,
    "Ġallows": 3621,
    "ĠProtest": 3622,
    "ĠAlthough": 3623,
    "Ġvariet": 3624,
    "Ġmechanics": 3625,
    "ĠOnly": 3626,
    "ĠJose": 3627,
    "enced": 3628,
    "Ġbeautiful": 3629,
    "Ġlimited": 3630,
    "ĠMal": 3631,
    "ĠOlympics": 3632,
    "Ġi": 3633,
    "Ġhands": 3634,
    "ĠNative": 3635,
    "Ġdiseases": 3636,
    "Ġ28": 3637,
    "Ġzero": 3638,
    "Ġrefers": 3639,
    "Ġsite": 3640,
    "Ġ2002": 3641,
    "ĠVien": 3642,
    "Ġbott": 3643,
    "aiwan": 3644,
    "ĠPrince": 3645,
    "ĠArctic": 3646,
    "bai": 3647,
    "sen": 3648,
    "Ġflo": 3649,
    "Ġda": 3650,
    "Ġpowers": 3651,
    "Ġdaughter": 3652,
    "Ġmess": 3653,
    "gal": 3654,
    "Ġtaking": 3655,
    "Ġpoison": 3656,
    "Ġwrong": 3657,
    "Ġ2005": 3658,
    "cast": 3659,
    "ĠMat": 3660,
    "Ġpolitics": 3661,
    "Ġsmallest": 3662,
    "Ġquestions": 3663,
    "Ġsilver": 3664,
    "ato": 3665,
    "Ġeventually": 3666,
    "ĠAge": 3667,
    "Ġresults": 3668,
    "Ġslavery": 3669,
    "ĠBar": 3670,
    "ĠIce": 3671,
    "Ġverb": 3672,
    "adem": 3673,
    "Ġpenis": 3674,
    "ĠIE": 3675,
    "Ġvolume": 3676,
    "ĠEdward": 3677,
    "ford": 3678,
    "ĠRober": 3679,
    "Ġchoose": 3680,
    "Ġpun": 3681,
    "Ġmedical": 3682,
    "born": 3683,
    "bum": 3684,
    "Ġsure": 3685,
    "ĠBat": 3686,
    "Ġdisco": 3687,
    "Ġdictators": 3688,
    "Ġrank": 3689,
    "ĠNow": 3690,
    "ĠDan": 3691,
    "Ġnucleus": 3692,
    "Ġcool": 3693,
    "ĠLith": 3694,
    "Ġplaying": 3695,
    "Ġdia": 3696,
    "Ġbegins": 3697,
    "Ġimmediately": 3698,
    "All": 3699,
    "onze": 3700,
    "Ġcopy": 3701,
    "ael": 3702,
    "ĠPark": 3703,
    "Ġprivate": 3704,
    "Ġtou": 3705,
    "son": 3706,
    "Ġteams": 3707,
    "ief": 3708,
    "war": 3709,
    "Ġmolec": 3710,
    "oid": 3711,
    "Ġborders": 3712,
    "Ġrespect": 3713,
    "olf": 3714,
    "Ġdocum": 3715,
    "por": 3716,
    "urity": 3717,
    "ĠBlack": 3718,
    "ĠBelgium": 3719,
    "ĠSweden": 3720,
    "icles": 3721,
    "ĠAntarctic": 3722,
    "co": 3723,
    "Ġfamilies": 3724,
    "Ġcere": 3725,
    "Ġfreedom": 3726,
    "ĠGeneral": 3727,
    "Ġpsych": 3728,
    "Ġbird": 3729,
    "Ġenzy": 3730,
    "Ġweeks": 3731,
    "outheast": 3732,
    "Ġreferred": 3733,
    "iny": 3734,
    "such": 3735,
    "Ġmotion": 3736,
    "Ġplate": 3737,
    "Ġestim": 3738,
    "ĠRoyal": 3739,
    "Ġthousand": 3740,
    "ĠPer": 3741,
    "Ġremains": 3742,
    "ĠVenus": 3743,
    "Ġfix": 3744,
    "Ġelections": 3745,
    "Ġ2018": 3746,
    "Ġmyth": 3747,
    "ĠVirgin": 3748,
    "Ġconver": 3749,
    "Ġcircle": 3750,
    "Ġbright": 3751,
    "ĠBoth": 3752,
    "zil": 3753,
    "ĠConfeder": 3754,
    "Ġincrease": 3755,
    "ĠPolish": 3756,
    "ava": 3757,
    "Ġvideo": 3758,
    "Ġdeep": 3759,
    "Ġlink": 3760,
    "Ġdefinition": 3761,
    "Ġgiving": 3762,
    "icks": 3763,
    "ĠTexas": 3764,
    "jan": 3765,
    "Ġmag": 3766,
    "Ġsentence": 3767,
    "Ġglob": 3768,
    "asing": 3769,
    "Ġclassical": 3770,
    "ara": 3771,
    "Ġgreatest": 3772,
    "Ġran": 3773,
    "Ġille": 3774,
    "Ġ2012": 3775,
    "Ġtreatment": 3776,
    "Ġclim": 3777,
    "also": 3778,
    "iffere": 3779,
    "ifferent": 3780,
    "Ġlo": 3781,
    "ĠColumbus": 3782,
    "Ġanc": 3783,
    "Ġancest": 3784,
    "Ġyet": 3785,
    "Ġequation": 3786,
    "Ġdeclared": 3787,
    "uther": 3788,
    "alile": 3789,
    "Ġinvolved": 3790,
    "ĠCong": 3791,
    "Ġtox": 3792,
    "Ġfinished": 3793,
    "insula": 3794,
    "ĠAct": 3795,
    "Ġdimens": 3796,
    "ĠLos": 3797,
    "Ġstring": 3798,
    "ixon": 3799,
    "Ġpainting": 3800,
    "pose": 3801,
    "ĠTV": 3802,
    "Ġheight": 3803,
    "Ġsecret": 3804,
    "Ġnegative": 3805,
    "Ġproperties": 3806,
    "aland": 3807,
    "ĠZealand": 3808,
    "ictor": 3809,
    "Ġthr": 3810,
    "ĠNob": 3811,
    "Ġsearch": 3812,
    "avid": 3813,
    "Ġnewsp": 3814,
    "ration": 3815,
    "Ġdon": 3816,
    "Ġnove": 3817,
    "Ġinstruments": 3818,
    "Ġattacked": 3819,
    "Ġ\"\"": 3820,
    "These": 3821,
    "istry": 3822,
    "Ġindividual": 3823,
    "Ġsat": 3824,
    "othic": 3825,
    "Ġflows": 3826,
    "Ġasked": 3827,
    "ĠVienna": 3828,
    "Ġrelativity": 3829,
    "Ġsulf": 3830,
    "ĠCaesar": 3831,
    "enses": 3832,
    "Ġnit": 3833,
    "Ġalbum": 3834,
    "Ġjobs": 3835,
    "Ġcompletely": 3836,
    "Ġ=": 3837,
    "Ġcolony": 3838,
    "Ġcaptured": 3839,
    "thlet": 3840,
    "Ġcost": 3841,
    "Ġrelative": 3842,
    "ĠPortugu": 3843,
    "ĠPortuguese": 3844,
    "ĠIslands": 3845,
    "Ġlakes": 3846,
    "idents": 3847,
    "Ġ+": 3848,
    "Ġpage": 3849,
    "Ġcolour": 3850,
    "Ġpages": 3851,
    "Ġlove": 3852,
    "Ġconstant": 3853,
    "ricult": 3854,
    "Ġsurvive": 3855,
    "ĠGl": 3856,
    "Ġmonarchy": 3857,
    "ĠEvery": 3858,
    "Ġstream": 3859,
    "Ġesc": 3860,
    "Ġgovernments": 3861,
    "ĠCoun": 3862,
    "ĠCouncil": 3863,
    "Ġ1999": 3864,
    "Ġdepending": 3865,
    "Ġcover": 3866,
    "ĠAlexander": 3867,
    "Ġcamer": 3868,
    "Ġproper": 3869,
    "isions": 3870,
    "Ġfields": 3871,
    "ĠCat": 3872,
    ".,": 3873,
    "ient": 3874,
    "ĠTaiwan": 3875,
    "Ġstage": 3876,
    "Ġtheories": 3877,
    "Ġbox": 3878,
    "Ġmental": 3879,
    "Ġbehav": 3880,
    "Ġverbs": 3881,
    "Ġdisord": 3882,
    "oles": 3883,
    "att": 3884,
    "Ġacids": 3885,
    "ĠMiss": 3886,
    "Ġouter": 3887,
    "Ġexecut": 3888,
    "Ġproject": 3889,
    "rael": 3890,
    "ĠIsrael": 3891,
    "Ġwid": 3892,
    "Ġhundred": 3893,
    "Ġfinal": 3894,
    "Ġlocated": 3895,
    "orks": 3896,
    "Ġattacks": 3897,
    "Ġfurther": 3898,
    "Ġlabor": 3899,
    "Ġur": 3900,
    "Ġder": 3901,
    "Ġmom": 3902,
    "ĠUniverse": 3903,
    "Ġ27": 3904,
    "Ġanti": 3905,
    "Ġresources": 3906,
    "Ġ181": 3907,
    "ĠSan": 3908,
    "ĠComp": 3909,
    "Ġcrime": 3910,
    "Ġreactions": 3911,
    "Ġairport": 3912,
    "ĠDev": 3913,
    "mier": 3914,
    "Ġspirit": 3915,
    "ĠPers": 3916,
    "Ġsounds": 3917,
    "Ġeye": 3918,
    "Ġleading": 3919,
    "Ġ2009": 3920,
    "Other": 3921,
    "Ġhere": 3922,
    "rib": 3923,
    "Ġroots": 3924,
    "Ġconcept": 3925,
    "Ġwants": 3926,
    "Ġadding": 3927,
    "Ġdesert": 3928,
    "Ġopened": 3929,
    "aul": 3930,
    "Ġleague": 3931,
    "Ġmedia": 3932,
    "nces": 3933,
    "Ġfle": 3934,
    "Ġextreme": 3935,
    "Ġterror": 3936,
    "Ġ2014": 3937,
    "Ã©": 3938,
    "Ġspend": 3939,
    "ĠSecond": 3940,
    "Ġreached": 3941,
    "Ġdiss": 3942,
    "Ġadminist": 3943,
    "uals": 3944,
    "Ġveget": 3945,
    "Ġdispl": 3946,
    "erve": 3947,
    "ztec": 3948,
    "ĠAztec": 3949,
    "baijan": 3950,
    "zerbaijan": 3951,
    "Ġactiv": 3952,
    "ography": 3953,
    "Ġgases": 3954,
    "Since": 3955,
    "Ġincreased": 3956,
    "Ġfif": 3957,
    "alities": 3958,
    "ĠRobert": 3959,
    "Ġroy": 3960,
    "Ġep": 3961,
    "rees": 3962,
    "Ġprovide": 3963,
    "Ġbreed": 3964,
    "Ġdepends": 3965,
    "ploy": 3966,
    "Ġplaced": 3967,
    "ydney": 3968,
    "ĠAustralian": 3969,
    "Ġplat": 3970,
    "osen": 3971,
    "Ġchosen": 3972,
    "ĠIndones": 3973,
    "ĠNo": 3974,
    "20": 3975,
    "body": 3976,
    "Ġfeature": 3977,
    "acing": 3978,
    "Ġalc": 3979,
    "Ġalcoh": 3980,
    "raight": 3981,
    "Ġstraight": 3982,
    "ctions": 3983,
    "Ġcirc": 3984,
    "ĠFrancis": 3985,
    "Ġions": 3986,
    "Ġstable": 3987,
    "Ġlaun": 3988,
    "Ġdogs": 3989,
    "Ġliterature": 3990,
    "hi": 3991,
    "Ġbehind": 3992,
    "ola": 3993,
    "ĠBrazil": 3994,
    "Ġ2019": 3995,
    "Ġdrugs": 3996,
    "ocrates": 3997,
    "Ġillness": 3998,
    "ĠIceland": 3999,
    "iday": 4000,
    "mphib": 4001,
    "oky": 4002,
    "okyo": 4003,
    "ynasty": 4004,
    "Ġpoll": 4005,
    "Ġdomest": 4006,
    "Ġface": 4007,
    "see": 4008,
    "ĠTor": 4009,
    "Because": 4010,
    "Ġself": 4011,
    "ĠSummer": 4012,
    "Ġlearning": 4013,
    "apers": 4014,
    "Ġclean": 4015,
    "Ġdou": 4016,
    "Ġinstance": 4017,
    "ensity": 4018,
    "Ġgalaxy": 4019,
    "ky": 4020,
    "Ġexpand": 4021,
    "Ġrevolution": 4022,
    "cles": 4023,
    "Ġdefeated": 4024,
    "Ġmedicine": 4025,
    "Ġtro": 4026,
    "Ġtroops": 4027,
    "Ġseasons": 4028,
    "Ġcard": 4029,
    "arin": 4030,
    "Ġrough": 4031,
    "Ġcurren": 4032,
    "Ġ29": 4033,
    "ĠSpe": 4034,
    "incol": 4035,
    "incoln": 4036,
    "ĠNap": 4037,
    "Ġfrequency": 4038,
    "Ġlegisl": 4039,
    "ĠNazi": 4040,
    "Ġillegal": 4041,
    "Ġagricult": 4042,
    "Ġnut": 4043,
    "Ġtrying": 4044,
    "Ġhoriz": 4045,
    "ĠEuropeans": 4046,
    "Ġcurrently": 4047,
    "ĠNobel": 4048,
    "Ġneigh": 4049,
    "Ġagree": 4050,
    "Ġadop": 4051,
    "ica": 4052,
    "Ġpresidential": 4053,
    "ping": 4054,
    "ĠExamples": 4055,
    "Ġwave": 4056,
    "Ġsources": 4057,
    "ĠMoz": 4058,
    "Ġdate": 4059,
    "Ġinfluenced": 4060,
    "hester": 4061,
    "Ġlayer": 4062,
    "posed": 4063,
    "otle": 4064,
    "Another": 4065,
    "Ġnouns": 4066,
    "Ġstadium": 4067,
    "apor": 4068,
    "ya": 4069,
    "ethoven": 4070,
    "ĠJul": 4071,
    "Ġcolors": 4072,
    "arl": 4073,
    "Ġmethods": 4074,
    "Ġ26": 4075,
    "Ġknew": 4076,
    "ĠMore": 4077,
    "Ġ1991": 4078,
    "Ġbroadcast": 4079,
    "Ġchanging": 4080,
    "ĠInstead": 4081,
    "Ġblock": 4082,
    "Ġholds": 4083,
    "anches": 4084,
    "cientists": 4085,
    "agn": 4086,
    "Ġelectrom": 4087,
    "Ġelectromagn": 4088,
    "Ġ180": 4089,
    "Ġquar": 4090,
    "Ġastronomy": 4091,
    "Ġlooking": 4092,
    "Ġroom": 4093,
    "Ġorganisms": 4094,
    "azz": 4095,
    "Ġdrop": 4096,
    "Ġmercury": 4097,
    "Ġfit": 4098,
    "edy": 4099,
    "ĠPrussia": 4100,
    "alace": 4101,
    "fect": 4102,
    "ript": 4103,
    "Ġscript": 4104,
    "uction": 4105,
    "Ġvitamin": 4106,
    "Ġactivity": 4107,
    "Ġexperience": 4108,
    "helange": 4109,
    "helangelo": 4110,
    "fer": 4111,
    "Ġsort": 4112,
    "Ġsugar": 4113,
    "omes": 4114,
    "Ġeaten": 4115,
    "Ġwine": 4116,
    "Ġsem": 4117,
    "het": 4118,
    "Ġ2016": 4119,
    "Ġcore": 4120,
    "onents": 4121,
    "rix": 4122,
    "Ġpositive": 4123,
    "Ġmoment": 4124,
    "Ġpa": 4125,
    "Ġdangerous": 4126,
    "ĠGalile": 4127,
    "Ġspent": 4128,
    "Ġbones": 4129,
    "Ġconquered": 4130,
    "Ġfell": 4131,
    "Ġmur": 4132,
    "ĠYou": 4133,
    "Ġindustrial": 4134,
    "Ġimmune": 4135,
    "Ġrespons": 4136,
    "Ġusers": 4137,
    "orms": 4138,
    "Ġviruses": 4139,
    "Ġeff": 4140,
    "ĠMoon": 4141,
    "Ġcontract": 4142,
    "ĠBuddha": 4143,
    "ona": 4144,
    "ĠPremier": 4145,
    "uct": 4146,
    "ĠDuke": 4147,
    "ĠNixon": 4148,
    "Ġgrad": 4149,
    "ida": 4150,
    "lorida": 4151,
    "Ġdamage": 4152,
    "Ġcloser": 4153,
    "Ġ[": 4154,
    "Ġcommer": 4155,
    "win": 4156,
    "wide": 4157,
    "Ġsongs": 4158,
    "Ġcrops": 4159,
    "met": 4160,
    "ĠVictor": 4161,
    "ĠBBC": 4162,
    "resh": 4163,
    "Ġbridge": 4164,
    "Ġinvaded": 4165,
    "ĠKen": 4166,
    "ĠChampions": 4167,
    "orter": 4168,
    "icate": 4169,
    "ĠUsually": 4170,
    "Ġsimpl": 4171,
    "Ġneutrons": 4172,
    "Ġhelium": 4173,
    "To": 4174,
    "Ġmagnetic": 4175,
    "ĠGothic": 4176,
    "inosaur": 4177,
    "Ġconserv": 4178,
    "ĠChile": 4179,
    "ensive": 4180,
    "Ġfoot": 4181,
    "Ġrunning": 4182,
    "Ġaward": 4183,
    "Ġelectrical": 4184,
    "Ġstation": 4185,
    "Ġevolved": 4186,
    "rich": 4187,
    "ĠRed": 4188,
    "Ġlake": 4189,
    "Ġadvert": 4190,
    "Ġdepression": 4191,
    "ĠPhilipp": 4192,
    "ĠSomers": 4193,
    "ĠSomerset": 4194,
    "ĠCo": 4195,
    "ĠAng": 4196,
    "Ġcattle": 4197,
    "Ġcarried": 4198,
    "Ġmeters": 4199,
    "Ġmillions": 4200,
    "Ġdemocratic": 4201,
    "anks": 4202,
    "Ġlooked": 4203,
    "ncil": 4204,
    "Ġcouncil": 4205,
    "iber": 4206,
    "Ġdictatorship": 4207,
    "Today": 4208,
    "Ġstations": 4209,
    "Ġfocus": 4210,
    "Ġcompared": 4211,
    "Ġenemies": 4212,
    "Ġdiscuss": 4213,
    "Ġtribes": 4214,
    "aska": 4215,
    "Ġalcohol": 4216,
    "joy": 4217,
    "Ġenjoy": 4218,
    "Ġmic": 4219,
    "Ġchlor": 4220,
    "Ġnearby": 4221,
    "izes": 4222,
    "Ġdifferences": 4223,
    "everal": 4224,
    "ĠCivil": 4225,
    "udi": 4226,
    "Ġdeal": 4227,
    "odium": 4228,
    "Ġminerals": 4229,
    "ĠAntarctica": 4230,
    "Ġcurrency": 4231,
    "ĠLuther": 4232,
    "Ġkilling": 4233,
    "ait": 4234,
    "aria": 4235,
    "Ġpus": 4236,
    "SR": 4237,
    "ĠAzerbaijan": 4238,
    "Ġplast": 4239,
    "Ġmixture": 4240,
    "Ġglobal": 4241,
    "ĠProtestant": 4242,
    "ellig": 4243,
    "Ġdesigned": 4244,
    "tical": 4245,
    "utes": 4246,
    "Ġfoods": 4247,
    "Ġfeed": 4248,
    "Ġfert": 4249,
    "Ġfigure": 4250,
    "Ġsum": 4251,
    "wealth": 4252,
    "ĠCommonwealth": 4253,
    "anced": 4254,
    "Ġ500": 4255,
    "Ġrisk": 4256,
    "year": 4257,
    "Ġaccepted": 4258,
    "Ġagreement": 4259,
    "inks": 4260,
    "Ġexists": 4261,
    "Ġcompound": 4262,
    "Ġphysic": 4263,
    "Ġfuel": 4264,
    "ranus": 4265,
    "ĠHawaii": 4266,
    "Ġvisible": 4267,
    "Ġfederal": 4268,
    "ube": 4269,
    "ĠHoly": 4270,
    "men": 4271,
    "Ġbottom": 4272,
    "ĠAc": 4273,
    "Ġmid": 4274,
    "FA": 4275,
    "Ġboats": 4276,
    "ionary": 4277,
    "ĠGreen": 4278,
    "Ġgir": 4279,
    "Ġpack": 4280,
    "Ġoccupied": 4281,
    "Ġsyll": 4282,
    "ĠBattle": 4283,
    "Ġsister": 4284,
    "ĠOS": 4285,
    "ĠLao": 4286,
    "Ġartists": 4287,
    "Ġmind": 4288,
    "izations": 4289,
    "Ġgeomet": 4290,
    "ying": 4291,
    "Ġevolution": 4292,
    "unic": 4293,
    "unicip": 4294,
    "Ġmunicip": 4295,
    "Ġroyal": 4296,
    "Ġwild": 4297,
    "Ġengineering": 4298,
    "Ġunique": 4299,
    "ĠIII": 4300,
    "Ġcontinue": 4301,
    "Ġhon": 4302,
    "By": 4303,
    "Ġraised": 4304,
    "Ġhosp": 4305,
    "Ġbattle": 4306,
    "Ġinvasion": 4307,
    "Ġimmigr": 4308,
    "Ġach": 4309,
    "Ġachie": 4310,
    "Ġexperien": 4311,
    "af": 4312,
    "irm": 4313,
    "Ġprogramming": 4314,
    "ĠTherefore": 4315,
    "Ġpul": 4316,
    "ologists": 4317,
    "ĠLa": 4318,
    "Ġbee": 4319,
    "Ġinstruct": 4320,
    "Ġinstructions": 4321,
    "Ġprotein": 4322,
    "Ġadject": 4323,
    "Ġbound": 4324,
    "Ġmarria": 4325,
    "Ġtrains": 4326,
    "Ġliber": 4327,
    "amb": 4328,
    "Ġvisited": 4329,
    "Ġlegs": 4330,
    "ĠLincoln": 4331,
    "ners": 4332,
    "Ġsexual": 4333,
    "Ã¼": 4334,
    "Ġpit": 4335,
    "ĠVirginia": 4336,
    "Ġjud": 4337,
    "Ġtwent": 4338,
    "Before": 4339,
    "ĠAward": 4340,
    "Ġserious": 4341,
    "ively": 4342,
    "Ġ178": 4343,
    "New": 4344,
    "Ġ185": 4345,
    "Ġfriend": 4346,
    "Ġactor": 4347,
    "Ġspelling": 4348,
    "abit": 4349,
    "Ġphrase": 4350,
    "Ġsaying": 4351,
    "Ġpractice": 4352,
    "Ġseem": 4353,
    "Ġbranches": 4354,
    "Ġbonds": 4355,
    "Ġmolecule": 4356,
    "ĠThose": 4357,
    "itude": 4358,
    "Ġkm": 4359,
    "Ġcats": 4360,
    "ĠDemocratic": 4361,
    "ĠGeorg": 4362,
    "Ġmixed": 4363,
    "Ġslave": 4364,
    "Ġlongest": 4365,
    "Ġclothing": 4366,
    "aring": 4367,
    "Ġsurrounded": 4368,
    "Ġcovers": 4369,
    "Ġdecide": 4370,
    "Ġathe": 4371,
    "ombia": 4372,
    "uth": 4373,
    "Ġmanager": 4374,
    "Ġ1800": 4375,
    "Ġscale": 4376,
    "ĠPrize": 4377,
    "Ġbrok": 4378,
    "Ġbroken": 4379,
    "ened": 4380,
    "osed": 4381,
    "atory": 4382,
    "Ġdetail": 4383,
    "ĠSm": 4384,
    "Ġdoctors": 4385,
    "ĠSydney": 4386,
    "Ġgovernor": 4387,
    "Ġbit": 4388,
    "Ġfresh": 4389,
    "ĠThom": 4390,
    "ĠThomas": 4391,
    "Ġ1975": 4392,
    "Ġ90": 4393,
    "ĠDavid": 4394,
    "ald": 4395,
    "based": 4396,
    "Ġtries": 4397,
    "Ġdwar": 4398,
    "Ġdwarf": 4399,
    "ares": 4400,
    "Ġisotopes": 4401,
    "Ġclouds": 4402,
    "ĠSerbia": 4403,
    "Ġcomposers": 4404,
    "ĠMand": 4405,
    "Ġfund": 4406,
    "Ġcars": 4407,
    "Ġcrust": 4408,
    "ĠPole": 4409,
    "Ġtaxes": 4410,
    "Ġband": 4411,
    "ĠPro": 4412,
    "semb": 4413,
    "ĠBeethoven": 4414,
    "ĠColumbia": 4415,
    "ishop": 4416,
    "ĠFlorida": 4417,
    "Ġtea": 4418,
    "Mario": 4419,
    "Ġpurpose": 4420,
    "ĠMichelangelo": 4421,
    "Ġ1950": 4422,
    "king": 4423,
    "Ġhunting": 4424,
    "Sometimes": 4425,
    "Ġhur": 4426,
    "ightly": 4427,
    "Ġphilosophers": 4428,
    "ĠAlbert": 4429,
    "Ġrequired": 4430,
    "assical": 4431,
    "Ġ1989": 4432,
    "ĠEmperor": 4433,
    "Ġnine": 4434,
    "ĠSocial": 4435,
    "ivision": 4436,
    "ĠLaw": 4437,
    "Ġthinking": 4438,
    "ĠSocrates": 4439,
    "Ġ()": 4440,
    "ements": 4441,
    "Ġreprod": 4442,
    "sh": 4443,
    "alin": 4444,
    "ĠIrish": 4445,
    "Ġelephants": 4446,
    "ĠRichard": 4447,
    "anders": 4448,
    "Ġspring": 4449,
    "Ġfest": 4450,
    "Ġcelebrated": 4451,
    "istic": 4452,
    "Ġnitrogen": 4453,
    "Ġmathematic": 4454,
    "Ġeating": 4455,
    "Ġstored": 4456,
    "Ġacts": 4457,
    "ĠHungary": 4458,
    "Ġextra": 4459,
    "Ġcompl": 4460,
    "onic": 4461,
    "Ġterritories": 4462,
    "Ġbaby": 4463,
    "Ġmiss": 4464,
    "Ġ183": 4465,
    "Ġgrand": 4466,
    "',": 4467,
    "Ġfixed": 4468,
    "orb": 4469,
    "Ġcycle": 4470,
    "encies": 4471,
    "Ġdense": 4472,
    "Ġdecor": 4473,
    "gans": 4474,
    "Ġ2021": 4475,
    "ricts": 4476,
    "Ġdistricts": 4477,
    "ovak": 4478,
    "Ġstatus": 4479,
    "Ġteeth": 4480,
    "Ġtiss": 4481,
    "ivores": 4482,
    "Ġfoss": 4483,
    "Ġfossil": 4484,
    "Ġgreater": 4485,
    "wers": 4486,
    "Ġkings": 4487,
    "Ġ1994": 4488,
    "Ġorganic": 4489,
    "ateg": 4490,
    "Ġmultiple": 4491,
    "Ġbought": 4492,
    "Ġpaid": 4493,
    "ĠWall": 4494,
    "Ġyellow": 4495,
    "Ġgun": 4496,
    "ĠConst": 4497,
    "ĠCongress": 4498,
    "inal": 4499,
    "Ġdol": 4500,
    "Ġfailed": 4501,
    "Ġhumid": 4502,
    "ĠHinduism": 4503,
    "Ġoxide": 4504,
    "Ġclothes": 4505,
    "Ġlicense": 4506,
    "Ġadvertis": 4507,
    "ĠPhilippines": 4508,
    "ĠHam": 4509,
    "nowiki": 4510,
    "Ġpregn": 4511,
    "Ġclay": 4512,
    "Ġwindows": 4513,
    "Ġmusical": 4514,
    "bra": 4515,
    "Ġtypically": 4516,
    "Ġbasis": 4517,
    "Ġupon": 4518,
    "ĠHum": 4519,
    "Ġsignific": 4520,
    "Ġregard": 4521,
    "Ġestimated": 4522,
    "Ġ1995": 4523,
    "Ġworldwide": 4524,
    "Ġmathematical": 4525,
    "haps": 4526,
    "ĠGold": 4527,
    "ĠBay": 4528,
    "Ġhosted": 4529,
    "Ġ2020": 4530,
    "Ġshorter": 4531,
    "Ġange": 4532,
    "ĠArabic": 4533,
    "Ġonto": 4534,
    "Ġtraditions": 4535,
    "Ġelectromagnetic": 4536,
    "Ġquestion": 4537,
    "ston": 4538,
    "Ġshell": 4539,
    "Ġphoton": 4540,
    "Ġstronger": 4541,
    "time": 4542,
    "Ġexistence": 4543,
    "Ġsatell": 4544,
    "Ġgravitational": 4545,
    "Ġpurpos": 4546,
    "Ġpurposes": 4547,
    "Ġdinosaur": 4548,
    "rupt": 4549,
    "rug": 4550,
    "wich": 4551,
    "Ġ1940": 4552,
    "berg": 4553,
    "ban": 4554,
    "Ġmuseum": 4555,
    "Ġhistorical": 4556,
    "Ġdevice": 4557,
    "Ġvariety": 4558,
    "Ġbrowser": 4559,
    "jing": 4560,
    "Ġupper": 4561,
    "onent": 4562,
    "istrict": 4563,
    "Ġscreen": 4564,
    "Ġ2015": 4565,
    "Ġtourists": 4566,
    "Ġadults": 4567,
    "ĠMart": 4568,
    "Ġvolcano": 4569,
    "olitan": 4570,
    "ropolitan": 4571,
    "Ġamphib": 4572,
    "ĠGregor": 4573,
    "ĠGregorian": 4574,
    "thod": 4575,
    "ĠOrthod": 4576,
    "ĠOrthodox": 4577,
    "ĠGreeks": 4578,
    "Ġlevels": 4579,
    "rd": 4580,
    "Ġdipl": 4581,
    "Ġ1998": 4582,
    "ĠAmericas": 4583,
    "Ġsupply": 4584,
    "ĠJoseph": 4585,
    "Ġtwice": 4586,
    "ĠOver": 4587,
    "Ġunion": 4588,
    "estament": 4589,
    "ĠTestament": 4590,
    "Ġturns": 4591,
    "Ġpull": 4592,
    "ĠWay": 4593,
    "Ġlaunched": 4594,
    "ĠRen": 4595,
    "Ġsteel": 4596,
    "ights": 4597,
    "lict": 4598,
    "Ġconflict": 4599,
    "Ġthreat": 4600,
    "bor": 4601,
    "ĠCenter": 4602,
    "isters": 4603,
    "Ġclassific": 4604,
    "Ġvary": 4605,
    "Ġ2022": 4606,
    "Ġrub": 4607,
    "ĠLithu": 4608,
    "Ġrailway": 4609,
    "Ġstick": 4610,
    "alty": 4611,
    "ickn": 4612,
    "Ġnickn": 4613,
    "Ġsle": 4614,
    "Ġplates": 4615,
    "Ġunderground": 4616,
    "Ġaircraft": 4617,
    "avelength": 4618,
    "Ġwavelength": 4619,
    "Ġhistorians": 4620,
    "Ġdisorder": 4621,
    "ĠTokyo": 4622,
    "ĠPlato": 4623,
    "Ġdegree": 4624,
    "Ġdisag": 4625,
    "Ġactivities": 4626,
    "Ġexpress": 4627,
    "Ġdivision": 4628,
    "Ġsoul": 4629,
    "Ġvict": 4630,
    "pected": 4631,
    "Ġpet": 4632,
    "Ġteac": 4633,
    "Ġfarm": 4634,
    "Ġsafe": 4635,
    "Ġdistrib": 4636,
    "Ġprimary": 4637,
    "Ġ300": 4638,
    "ĠIndonesia": 4639,
    "Ġcooking": 4640,
    "Ġ80": 4641,
    "Ġathlet": 4642,
    "ĠNA": 4643,
    "Ġdel": 4644,
    "ĠBook": 4645,
    "ĠJud": 4646,
    "Ġassociated": 4647,
    "Ġmel": 4648,
    "Ġinh": 4649,
    "ĠKy": 4650,
    "Ġtemperatures": 4651,
    "Ġtelescopes": 4652,
    "Ġsites": 4653,
    "Ġspacecraft": 4654,
    "Ġdetect": 4655,
    "ĠLike": 4656,
    "Ġpath": 4657,
    "ĠCommunist": 4658,
    "Ġordered": 4659,
    "ublics": 4660,
    "Ġissues": 4661,
    "tebr": 4662,
    "Ġauthority": 4663,
    "ĠYear": 4664,
    "ĠUN": 4665,
    "Ġcommand": 4666,
    "pite": 4667,
    "ĠClub": 4668,
    "Ġsick": 4669,
    "ĠStre": 4670,
    "Ġdistrict": 4671,
    "ĠRes": 4672,
    "ĠArist": 4673,
    "ĠAristotle": 4674,
    "ĠThree": 4675,
    "Ġtreated": 4676,
    "Ġbanks": 4677,
    "edia": 4678,
    "Ġtrop": 4679,
    "Ġlif": 4680,
    "DP": 4681,
    "ĠUkraine": 4682,
    "Ġmales": 4683,
    "ĠFl": 4684,
    "ĠFlore": 4685,
    "hess": 4686,
    "ĠRepublican": 4687,
    "ademy": 4688,
    "ruman": 4689,
    "Ġproduces": 4690,
    "atre": 4691,
    "Ġgeometry": 4692,
    "Ġconsist": 4693,
    "Ġfat": 4694,
    "Ġseeds": 4695,
    "ĠPaul": 4696,
    "Ġfruits": 4697,
    "Ġvalues": 4698,
    "made": 4699,
    "Ġchance": 4700,
    "Ġbombs": 4701,
    "Ġjum": 4702,
    "ĠTower": 4703,
    "ĠMong": 4704,
    "Ġpolitic": 4705,
    "Ġhighly": 4706,
    "ĠMozart": 4707,
    "ĠHigh": 4708,
    "Ġtherefore": 4709,
    "ients": 4710,
    "unk": 4711,
    "ĠWin": 4712,
    "Ġproteins": 4713,
    "Ġclubs": 4714,
    "Ġtoxic": 4715,
    "Ġinternet": 4716,
    "Ġmarriage": 4717,
    "Ġvillage": 4718,
    "Ġwebsite": 4719,
    "Ġharder": 4720,
    "Ġacting": 4721,
    "ĠSecret": 4722,
    "ĠNapole": 4723,
    "bec": 4724,
    "ĠCompany": 4725,
    "sembly": 4726,
    "enin": 4727,
    "ĠLenin": 4728,
    "hev": 4729,
    "Ar": 4730,
    "Ġins": 4731,
    "ĠOx": 4732,
    "Ġcommunities": 4733,
    "Ġintellig": 4734,
    "Ġminutes": 4735,
    "alley": 4736,
    "Ġbar": 4737,
    "Ġfarms": 4738,
    "Ġpolicy": 4739,
    "Ġperformed": 4740,
    "Ġanswer": 4741,
    "Ġwatch": 4742,
    "ĠOften": 4743,
    "mouth": 4744,
    "Ġclaimed": 4745,
    "Ġremained": 4746,
    "Ġvo": 4747,
    "Ġargum": 4748,
    "ĠOthers": 4749,
    "Ġcandid": 4750,
    "Ġdiameter": 4751,
    "ĠCorn": 4752,
    "Ġexisted": 4753,
    "ĠUranus": 4754,
    "Ġanal": 4755,
    "elsh": 4756,
    "ĠTreat": 4757,
    "ĠTreaty": 4758,
    "Ġdevices": 4759,
    "Ġ70": 4760,
    "Ġbanan": 4761,
    "Ġbiology": 4762,
    "ully": 4763,
    "Ġfully": 4764,
    "Ġspeakers": 4765,
    "Ġreceive": 4766,
    "Ġrit": 4767,
    "ĠMon": 4768,
    "ĠAthen": 4769,
    "Ġappears": 4770,
    "Ġimprove": 4771,
    "ĠAirport": 4772,
    "Ġdomestic": 4773,
    "Ġapprox": 4774,
    "ĠColombia": 4775,
    "Ġoxid": 4776,
    "OS": 4777,
    "ishes": 4778,
    "gebra": 4779,
    "ĠSchool": 4780,
    "Ġapple": 4781,
    "Ġinterested": 4782,
    "Ġtalking": 4783,
    "Ġ1974": 4784,
    "Ġdegrees": 4785,
    "Ġmultipl": 4786,
    "Ġrequire": 4787,
    "tens": 4788,
    "Ġinstrument": 4789,
    "Ġwings": 4790,
    "However": 4791,
    "Ġshared": 4792,
    "Ġ1920": 4793,
    "Ġchemistry": 4794,
    "Ġexperiments": 4795,
    "Ġsuggested": 4796,
    "Ġtelescope": 4797,
    "Ġsolar": 4798,
    "Ġinvent": 4799,
    "Ġdecade": 4800,
    "ĠArabia": 4801,
    "aign": 4802,
    "Ġcampaign": 4803,
    "zech": 4804,
    "Ġexpensive": 4805,
    "Ġconsists": 4806,
    "Ġinte": 4807,
    "Ġmouth": 4808,
    "Ġdistinct": 4809,
    "Ġexte": 4810,
    "Eng": 4811,
    "allen": 4812,
    "Ġprinciple": 4813,
    "ĠCy": 4814,
    "imately": 4815,
    "no": 4816,
    "ancial": 4817,
    "Ġfinancial": 4818,
    "Ġarms": 4819,
    "Ġbrown": 4820,
    "Ġ1996": 4821,
    "ĠCounty": 4822,
    "gon": 4823,
    "Ġsoap": 4824,
    "verton": 4825,
    "emisphere": 4826,
    "ĠHemisphere": 4827,
    "Ġemot": 4828,
    "Ġaction": 4829,
    "Ġbronze": 4830,
    "Ġhydro": 4831,
    "Ġfewer": 4832,
    "From": 4833,
    "Ġpunish": 4834,
    "Americ": 4835,
    "Ġdistances": 4836,
    "Ġarrived": 4837,
    "Ġcolonies": 4838,
    "Ġcombined": 4839,
    "ĠMountains": 4840,
    "Ġtrading": 4841,
    "ĠPeter": 4842,
    "do": 4843,
    "ĠNot": 4844,
    "bean": 4845,
    "ibbean": 4846,
    "ĠCaribbean": 4847,
    "500": 4848,
    "Ġannounced": 4849,
    "Ġprotest": 4850,
    "gent": 4851,
    "Ġtool": 4852,
    "ÃŃ": 4853,
    "bles": 4854,
    "use": 4855,
    "Ġmatrix": 4856,
    "Ġexperiment": 4857,
    "Ġorgans": 4858,
    "Ġsitu": 4859,
    "Ġherb": 4860,
    "Ġmemory": 4861,
    "Ġjour": 4862,
    "ingu": 4863,
    "Ġpoly": 4864,
    "Ġstore": 4865,
    "Ġsecurity": 4866,
    "Ġtouch": 4867,
    "Ġreplace": 4868,
    "Ġdomin": 4869,
    "Ġcourse": 4870,
    "Ġinj": 4871,
    "Ġ1997": 4872,
    "Ġhour": 4873,
    "Ġinfin": 4874,
    "Ġruler": 4875,
    "ĠStalin": 4876,
    "onto": 4877,
    "Ġleaving": 4878,
    "Ġplane": 4879,
    "ĠBach": 4880,
    "Ġconcert": 4881,
    "Ġdivor": 4882,
    "vania": 4883,
    "OC": 4884,
    "ĠIP": 4885,
    "Ġpure": 4886,
    "Ġdust": 4887,
    "Ġaster": 4888,
    "nes": 4889,
    "Ġmining": 4890,
    "Ġperhaps": 4891,
    "Ġflood": 4892,
    "Ġdiscovery": 4893,
    "Ġbread": 4894,
    "aped": 4895,
    "Ġfill": 4896,
    "ĠGrand": 4897,
    "Ġlimit": 4898,
    "ĠStone": 4899,
    "Ġmist": 4900,
    "Ġanyone": 4901,
    "ify": 4902,
    "Ġslightly": 4903,
    "xis": 4904,
    "60": 4905,
    "Ġphilosopher": 4906,
    "Ġorbits": 4907,
    "Ġcos": 4908,
    "Ġstudying": 4909,
    "ĠJohann": 4910,
    "ĠCathedral": 4911,
    "largest": 4912,
    "etween": 4913,
    "ĠSaudi": 4914,
    "Ġnecess": 4915,
    "anch": 4916,
    "Ġbranch": 4917,
    "Ġclassification": 4918,
    "Ġability": 4919,
    "ĠMandarin": 4920,
    "Ġenter": 4921,
    "Ġ182": 4922,
    "ĠPortugal": 4923,
    "Ġcheck": 4924,
    "ĠHere": 4925,
    "Ġnomin": 4926,
    "Ġcircum": 4927,
    "ĠWik": 4928,
    "mony": 4929,
    "Ġcritic": 4930,
    "ĠFlorence": 4931,
    "ĠMe": 4932,
    "Ġearthquake": 4933,
    "Ġexplan": 4934,
    "irds": 4935,
    "zi": 4936,
    "Ġpencil": 4937,
    "Ġemperor": 4938,
    "Ġwriters": 4939,
    "Ġera": 4940,
    "ocks": 4941,
    "ĠSir": 4942,
    "Ġdiplom": 4943,
    "Ġconv": 4944,
    "itted": 4945,
    "usion": 4946,
    "Ġrise": 4947,
    "Ġresist": 4948,
    "Ġcows": 4949,
    "onds": 4950,
    "Ġsettle": 4951,
    "Ġfactories": 4952,
    "Ġwealth": 4953,
    "Ġbeat": 4954,
    "Ġopera": 4955,
    "with": 4956,
    "Ġheard": 4957,
    "Intern": 4958,
    "ieval": 4959,
    "Ġteaching": 4960,
    "Ġfunctions": 4961,
    "ĠScientists": 4962,
    "active": 4963,
    "Ġsubstances": 4964,
    "Ġorganized": 4965,
    "Ġmeasurement": 4966,
    "ithium": 4967,
    "Ġaccur": 4968,
    "Ġrecognized": 4969,
    "Ġgi": 4970,
    "Ġrulers": 4971,
    "Ġwhom": 4972,
    "Ġbusinesses": 4973,
    "ĠInc": 4974,
    "ĠRomanian": 4975,
    "Ġcoins": 4976,
    "Ġrecords": 4977,
    "osy": 4978,
    "bo": 4979,
    "speaking": 4980,
    "ĠGermans": 4981,
    "Ġgoal": 4982,
    "Ġcorn": 4983,
    "Ġdragon": 4984,
    "Ġpotential": 4985,
    "Ġcouple": 4986,
    "We": 4987,
    "Ġcastle": 4988,
    "atives": 4989,
    "ĠQuebec": 4990,
    "andy": 4991,
    "ĠNormandy": 4992,
    "ĠWater": 4993,
    "Ġring": 4994,
    "Ġâ": 4995,
    "Ġbons": 4996,
    "Ġbonsai": 4997,
    "cel": 4998,
    "tain": 4999,
    "wing": 5000,
    "Ġcreating": 5001,
    "Ġimp": 5002,
    "Ġlun": 5003,
    "Ġsignificant": 5004,
    "Ġartific": 5005,
    "ications": 5006,
    "Ġdrive": 5007,
    "Ġtast": 5008,
    "Ġmainland": 5009,
    "Ġbroke": 5010,
    "ĠOttoman": 5011,
    "ĠWhite": 5012,
    "ricket": 5013,
    "Ġdialects": 5014,
    "ently": 5015,
    "Ġpronounced": 5016,
    "ĠAdam": 5017,
    "Ġtal": 5018,
    "14": 5019,
    "Ġdesce": 5020,
    "Ġdescend": 5021,
    "avor": 5022,
    "11": 5023,
    "aith": 5024,
    "from": 5025,
    "Ġequations": 5026,
    "Ġbey": 5027,
    "Ġbeyond": 5028,
    "Although": 5029,
    "Ġastronomers": 5030,
    "Ġcolours": 5031,
    "ĠMilky": 5032,
    "Ġaccess": 5033,
    "ini": 5034,
    "ĠKh": 5035,
    "Ġnotes": 5036,
    "Ġfifth": 5037,
    "ads": 5038,
    "Ġkilometers": 5039,
    "ovakia": 5040,
    "Ġnothing": 5041,
    "bile": 5042,
    "Ġmobile": 5043,
    "Ġsodium": 5044,
    "Ġ2017": 5045,
    "ĠDistrict": 5046,
    "Ġplanned": 5047,
    "Ġgramm": 5048,
    "Ġtar": 5049,
    "Ġcomedy": 5050,
    "Ġjazz": 5051,
    "ĠNapoleon": 5052,
    "Ġpost": 5053,
    "Ġmatch": 5054,
    "Ġperfect": 5055,
    "Ġunderstood": 5056,
    "Ġelephant": 5057,
    "Ġtherm": 5058,
    "Ġdouble": 5059,
    "Ġlocation": 5060,
    "ĠManh": 5061,
    "attan": 5062,
    "ĠManhattan": 5063,
    "Ġvice": 5064,
    "Ġsocialism": 5065,
    "amanders": 5066,
    "ancy": 5067,
    "ivals": 5068,
    "ĠAsian": 5069,
    "Ġalgebra": 5070,
    "lege": 5071,
    "ĠCollege": 5072,
    "Ġpossib": 5073,
    "ĠGovernment": 5074,
    "Ġcopies": 5075,
    "Ġsafety": 5076,
    "Ġextens": 5077,
    "fall": 5078,
    "Ġforests": 5079,
    "Ġcrimes": 5080,
    "Ġteleph": 5081,
    "Ġkeeps": 5082,
    "South": 5083,
    "ĠUnlike": 5084,
    "Ġproof": 5085,
    "Ġadopted": 5086,
    "According": 5087,
    "Ġviolence": 5088,
    "wall": 5089,
    "Ġlowest": 5090,
    "12": 5091,
    "Ġbinary": 5092,
    "Ġstructures": 5093,
    "ilities": 5094,
    "Ġnort": 5095,
    "Un": 5096,
    "Ġappo": 5097,
    "Ġappoint": 5098,
    "Ġarchae": 5099,
    "Ġ1000": 5100,
    "ĠCzech": 5101,
    "anz": 5102,
    "enberg": 5103,
    "water": 5104,
    "Ġvertebr": 5105,
    "rance": 5106,
    "erry": 5107,
    "Ġlack": 5108,
    "Ġdisplay": 5109,
    "Ġvehicles": 5110,
    "Ġroughly": 5111,
    "Ġthrow": 5112,
    "Ġmetaph": 5113,
    "illa": 5114,
    "Ġtrip": 5115,
    "Ġbed": 5116,
    "Ġminister": 5117,
    "Ġvolcanoes": 5118,
    "Ġobserved": 5119,
    "Ġhat": 5120,
    "ĠMont": 5121,
    "ĠVietnames": 5122,
    "ĠVietnamese": 5123,
    "orough": 5124,
    "Ġhall": 5125,
    "Ġboard": 5126,
    "ĠKong": 5127,
    "ĠPan": 5128,
    "Ġfrogs": 5129,
    "osis": 5130,
    "ĠFA": 5131,
    "Ġants": 5132,
    "ĠMichael": 5133,
    "Ġautom": 5134,
    "Ġyounger": 5135,
    "lers": 5136,
    "Ġloss": 5137,
    "ĠVictoria": 5138,
    "ĠMa": 5139,
    "cour": 5140,
    "ĠPat": 5141,
    "Ġcareer": 5142,
    "Ġentirely": 5143,
    "Ġplural": 5144,
    "Ġspoke": 5145,
    "Ġopin": 5146,
    "Ġlose": 5147,
    "eoples": 5148,
    "Ġpeoples": 5149,
    "gentina": 5150,
    "aked": 5151,
    "ĠModern": 5152,
    "Ġremove": 5153,
    "Ġreduce": 5154,
    "rest": 5155,
    "Ġtend": 5156,
    "idges": 5157,
    "Ġdinosaurs": 5158,
    "xts": 5159,
    "Ġtexts": 5160,
    "ĠTurk": 5161,
    "Ġgained": 5162,
    "ĠGeorgia": 5163,
    "Ġmineral": 5164,
    "isation": 5165,
    "ĠOnce": 5166,
    "Ġavoid": 5167,
    "ijing": 5168,
    "ĠCast": 5169,
    "Ġelectronic": 5170,
    "Ġvac": 5171,
    "ĠMexican": 5172,
    "ĠHeb": 5173,
    "ĠHebrew": 5174,
    "osing": 5175,
    "elve": 5176,
    "Ġwinds": 5177,
    "Ġtropical": 5178,
    "Ġdanc": 5179,
    "oe": 5180,
    "ĠMarg": 5181,
    "%),": 5182,
    "Ġearthquakes": 5183,
    "Ġfib": 5184,
    "Ġrace": 5185,
    "perial": 5186,
    "Ġfemales": 5187,
    "Ġitems": 5188,
    "Ġprayer": 5189,
    "ĠAcademy": 5190,
    "ĠDevon": 5191,
    "ĠAlb": 5192,
    "unich": 5193,
    "hire": 5194,
    "ailor": 5195,
    "ĠSailor": 5196,
    "Ġgodd": 5197,
    "Ġgoddess": 5198,
    "Ġaud": 5199,
    "Ġvow": 5200,
    "Ġtiny": 5201,
    "Ġincreasing": 5202,
    "Ġmunicipalities": 5203,
    "American": 5204,
    "ĠKe": 5205,
    "Ġlat": 5206,
    "Ġcolumn": 5207,
    "Ġthus": 5208,
    "east": 5209,
    "ening": 5210,
    "Ġfine": 5211,
    "Ġ&": 5212,
    "Ġmotor": 5213,
    "Ġprince": 5214,
    "Ġescape": 5215,
    "They": 5216,
    "Ġparticularly": 5217,
    "Ġnovel": 5218,
    "Ġbeings": 5219,
    "igned": 5220,
    "Ġneutral": 5221,
    "Ġlogic": 5222,
    "Ġdeveloping": 5223,
    "igan": 5224,
    "Ġconstruction": 5225,
    "Ġfinding": 5226,
    "Ġunderstanding": 5227,
    "Ġliquids": 5228,
    "Ã¶": 5229,
    "Ġdensity": 5230,
    "Ġcharged": 5231,
    "wise": 5232,
    "Ġcomplicated": 5233,
    "Ġmassive": 5234,
    "Ġsupern": 5235,
    "Ġexplos": 5236,
    "Ġclosely": 5237,
    "Ġult": 5238,
    "Ġformal": 5239,
    "Ġconsider": 5240,
    "rian": 5241,
    "ĠUnder": 5242,
    "ĠWelsh": 5243,
    "...": 5244,
    "Ġburied": 5245,
    "Ġfeather": 5246,
    "Ġpartly": 5247,
    "Ġresponsible": 5248,
    "Ġpig": 5249,
    "Ġprofessional": 5250,
    "ured": 5251,
    "million": 5252,
    "asc": 5253,
    "annel": 5254,
    "Ġpick": 5255,
    "Ph": 5256,
    "rovers": 5257,
    "Ġcontrovers": 5258,
    "Ġsocialist": 5259,
    "Ġprinted": 5260,
    "Ġmor": 5261,
    "Ġfair": 5262,
    "ranean": 5263,
    "iterranean": 5264,
    "ĠMediterranean": 5265,
    "incess": 5266,
    "Ġlibraries": 5267,
    "Ġflu": 5268,
    "Ġnutri": 5269,
    "Ġclasses": 5270,
    "Ġmetropolitan": 5271,
    "uf": 5272,
    "Ġ--": 5273,
    "ĠLis": 5274,
    "Ġmosque": 5275,
    "nal": 5276,
    "ĠKant": 5277,
    "Ġflight": 5278,
    "Ġenzyme": 5279,
    "Ġactress": 5280,
    "Ġopening": 5281,
    "Ġperformance": 5282,
    "Ġplastic": 5283,
    "Ġcopyright": 5284,
    "Ġtheore": 5285,
    "ĠCanadian": 5286,
    "ĠDo": 5287,
    "ntario": 5288,
    "ĠOntario": 5289,
    "imum": 5290,
    "Ġfarming": 5291,
    "Ġmeeting": 5292,
    "Ġoccurs": 5293,
    "iable": 5294,
    "Ġsemi": 5295,
    "ĠJuda": 5296,
    "ĠJudaism": 5297,
    "Ġapplied": 5298,
    "Ġrecently": 5299,
    "Ġmath": 5300,
    "Ġreflect": 5301,
    "Ġ400": 5302,
    "Ġspin": 5303,
    "ĠBig": 5304,
    "ĠBang": 5305,
    "ĠCop": 5306,
    "Ġallowing": 5307,
    "ses": 5308,
    "Ġroads": 5309,
    "ĠBuddhism": 5310,
    "Ġmurder": 5311,
    "eltic": 5312,
    "Ġcatch": 5313,
    "Ġvel": 5314,
    "ocity": 5315,
    "Ġvelocity": 5316,
    "Ġask": 5317,
    "Ġowners": 5318,
    "Ġpronoun": 5319,
    "Ġorganizations": 5320,
    "Ġawarded": 5321,
    "Ġcompetition": 5322,
    "ades": 5323,
    "Ġselling": 5324,
    "ĠManc": 5325,
    "ĠManchester": 5326,
    "top": 5327,
    "Ġsurre": 5328,
    "Ġroof": 5329,
    "Ġinfr": 5330,
    "Ġtrial": 5331,
    "Ġobservations": 5332,
    "Ġdimensions": 5333,
    "Ġsequ": 5334,
    "Ġinfection": 5335,
    "Ġairpl": 5336,
    "Ġfuneral": 5337,
    "Ġdies": 5338,
    "Ġbul": 5339,
    "Ġdrug": 5340,
    "Ġfactors": 5341,
    "Ġhealthy": 5342,
    "Ġ1968": 5343,
    "Ġgenes": 5344,
    "Ġmagaz": 5345,
    "Ġliked": 5346,
    "ĠLaozi": 5347,
    "Ġlasted": 5348,
    "ĠDivision": 5349,
    "ylan": 5350,
    "ĠDylan": 5351,
    "ĠEssen": 5352,
    "Super": 5353,
    "Reagan": 5354,
    "ĠTruman": 5355,
    "Ġdrawing": 5356,
    "Ġfict": 5357,
    "Ġcontinental": 5358,
    "Sp": 5359,
    "Ġ1947": 5360,
    "obe": 5361,
    "Ġagriculture": 5362,
    "Ġquality": 5363,
    "Ġsovere": 5364,
    "igen": 5365,
    "ederation": 5366,
    "Ġstreets": 5367,
    "Ġ1930": 5368,
    "Ġ1949": 5369,
    "ĠFederal": 5370,
    "Ġnewspapers": 5371,
    "Ġregional": 5372,
    "Ġess": 5373,
    "iana": 5374,
    "usb": 5375,
    "usband": 5376,
    "Ġhusband": 5377,
    "Ġgender": 5378,
    "ĠAlaska": 5379,
    "Ab": 5380,
    "ua": 5381,
    "ĠGermanic": 5382,
    "eet": 5383,
    "alse": 5384,
    "ĠBab": 5385,
    "Ġtranslated": 5386,
    "Ġion": 5387,
    "Ġcosm": 5388,
    "Ġexch": 5389,
    "Ġcivilization": 5390,
    "Ġorganization": 5391,
    "ceed": 5392,
    "cceed": 5393,
    "Ġsucceed": 5394,
    "Com": 5395,
    "Ġinterp": 5396,
    "uk": 5397,
    "anes": 5398,
    "Ġdebt": 5399,
    "Ġreduc": 5400,
    "Ġordinary": 5401,
    "pool": 5402,
    "iverpool": 5403,
    "ĠLiverpool": 5404,
    "anges": 5405,
    "Ġthrone": 5406,
    "more": 5407,
    "ador": 5408,
    "Ġreading": 5409,
    "Ġowner": 5410,
    "sex": 5411,
    "ĠPen": 5412,
    "ĠPeninsula": 5413,
    "Ġshaped": 5414,
    "Ġ1992": 5415,
    "oted": 5416,
    "ĠSwiss": 5417,
    "Ġwet": 5418,
    "Ġpenalty": 5419,
    "ĠStreet": 5420,
    "hesis": 5421,
    "nthesis": 5422,
    "ĠToronto": 5423,
    "ogle": 5424,
    "artment": 5425,
    "DS": 5426,
    "intend": 5427,
    "ĠNintend": 5428,
    "ĠNintendo": 5429,
    "ML": 5430,
    "Ġrev": 5431,
    "asma": 5432,
    "Ġstrug": 5433,
    "Ġstrugg": 5434,
    "Ġsurger": 5435,
    "Ġ35": 5436,
    "Ġprotected": 5437,
    "angle": 5438,
    "Ġ1900": 5439,
    "Ġcommercial": 5440,
    "Ġsinger": 5441,
    "Ġknows": 5442,
    "Ġprovides": 5443,
    "Ġcareful": 5444,
    "Ġmaps": 5445,
    "ĠSen": 5446,
    "Ġactors": 5447,
    "Ġimmigrants": 5448,
    "Ġdaily": 5449,
    "Ġeveryday": 5450,
    "ĠPersian": 5451,
    "Ġapples": 5452,
    "Ġcrown": 5453,
    "ĠCornwall": 5454,
    "ĠEn": 5455,
    "Ġacce": 5456,
    "Ġacceler": 5457,
    "Ġmicros": 5458,
    "Ġmicrosc": 5459,
    "hemical": 5460,
    "Ġmeasurements": 5461,
    "Ġwindow": 5462,
    "ĠSim": 5463,
    "ĠArch": 5464,
    "ĠRena": 5465,
    "ĠRenaiss": 5466,
    "ĠRenaissance": 5467,
    "rete": 5468,
    "Ġvillages": 5469,
    "Ġoverth": 5470,
    "Ġarmies": 5471,
    "ĠIndepend": 5472,
    "Ġtwenty": 5473,
    "arily": 5474,
    "Ġ1981": 5475,
    "Ġdocument": 5476,
    "ĠRh": 5477,
    "Ġrepe": 5478,
    "Ġappointed": 5479,
    "ĠEc": 5480,
    "Ġstudent": 5481,
    "Ġalive": 5482,
    "Ġcards": 5483,
    "Ġindividuals": 5484,
    "Ġconsum": 5485,
    "Ġ)": 5486,
    "EFA": 5487,
    "ĠUEFA": 5488,
    "Ġchloride": 5489,
    "Ġfinish": 5490,
    "board": 5491,
    "Ġarticle": 5492,
    "Ġcateg": 5493,
    "Ġcheese": 5494,
    "Ġeconomics": 5495,
    "Ġfaith": 5496,
    "Ġfort": 5497,
    "ĠHill": 5498,
    "Ġbehavior": 5499,
    "Ġkilometres": 5500,
    "Ġprovided": 5501,
    "Ġdecre": 5502,
    "weg": 5503,
    "pan": 5504,
    "Ġ150": 5505,
    "Ġbattery": 5506,
    "ĠEU": 5507,
    "ĠCold": 5508,
    "Ġaffected": 5509,
    "Ġlisted": 5510,
    "Ġmouse": 5511,
    "ibr": 5512,
    "ĠPalace": 5513,
    "issip": 5514,
    "ĠMississip": 5515,
    "ĠMississipp": 5516,
    "ĠMississippi": 5517,
    "Ġcommunism": 5518,
    "ĠUSSR": 5519,
    "ĠLithuania": 5520,
    "Ġgardens": 5521,
    "Ġchess": 5522,
    "Ġgraphite": 5523,
    "Ġhem": 5524,
    "Ġunc": 5525,
    "ĠSund": 5526,
    "ĠSunday": 5527,
    "Ġpoetry": 5528,
    "ĠUp": 5529,
    "Ġdynasty": 5530,
    "Ġtri": 5531,
    "Ġartificial": 5532,
    "ĠValley": 5533,
    "Ġfarmers": 5534,
    "ĠGovernor": 5535,
    "Ġmanage": 5536,
    "ĠDr": 5537,
    "Ġ177": 5538,
    "100": 5539,
    "Ġprep": 5540,
    "Ġbands": 5541,
    "ĠChampionship": 5542,
    "house": 5543,
    "ams": 5544,
    "13": 5545,
    "Ġdescribes": 5546,
    "Ġcast": 5547,
    "Ġextremely": 5548,
    "Ġadvanced": 5549,
    "Ġperiodic": 5550,
    "Ġshot": 5551,
    "ĠElect": 5552,
    "life": 5553,
    "Ġcomets": 5554,
    "ĠGalileo": 5555,
    "Ġarrest": 5556,
    "Ġsizes": 5557,
    "dd": 5558,
    "Ġcamera": 5559,
    "Eur": 5560,
    "Europe": 5561,
    "Ġsouthwest": 5562,
    "Ġrebell": 5563,
    "ĠTrade": 5564,
    "itutions": 5565,
    "ĠPe": 5566,
    "%.": 5567,
    "ĠTrans": 5568,
    "Ġlege": 5569,
    "oul": 5570,
    "Ġoffer": 5571,
    "ĠUkrainian": 5572,
    "ĠWars": 5573,
    "Ġexport": 5574,
    "Ġsets": 5575,
    "prus": 5576,
    "Ġinhabit": 5577,
    "Ġinhabitants": 5578,
    "ĠAthens": 5579,
    "Ġviews": 5580,
    "Ġprime": 5581,
    "Ġunlike": 5582,
    "Ġmovements": 5583,
    "Ġtwelve": 5584,
    "Ġlegislature": 5585,
    "Ġsulfur": 5586,
    "Ġequator": 5587,
    "Ġeru": 5588,
    "Ġmac": 5589,
    "Ġmodels": 5590,
    "Ġbone": 5591,
    "fl": 5592,
    "Ġinher": 5593,
    "ĠGulf": 5594,
    "Ġincreases": 5595,
    "ĠHamil": 5596,
    "ĠHamilton": 5597,
    "Ġvapor": 5598,
    "Ġmarked": 5599,
    "teen": 5600,
    "Ġlibrary": 5601,
    "Ġserve": 5602,
    "Ġhappy": 5603,
    "Ġgeneration": 5604,
    "celona": 5605,
    "osevel": 5606,
    "osevelt": 5607,
    "ĠRoosevelt": 5608,
    "45": 5609,
    "ĠSoutheast": 5610,
    "Ġgreatly": 5611,
    "apid": 5612,
    "Ġrapid": 5613,
    "onomous": 5614,
    "Ġoffices": 5615,
    "Ġsaus": 5616,
    "Ġgoals": 5617,
    "Ġemploy": 5618,
    "Ġcry": 5619,
    "Ġcens": 5620,
    "Ġbal": 5621,
    "Ġpointed": 5622,
    "Ġcarrying": 5623,
    "Ġhospital": 5624,
    "ĠAssoci": 5625,
    "Ġdemand": 5626,
    "ĠNavy": 5627,
    "Ġfelt": 5628,
    "Ġ1973": 5629,
    "Ġsuppl": 5630,
    "Ġangels": 5631,
    "Ġresulted": 5632,
    "Ġalone": 5633,
    "Ġevil": 5634,
    "Ġhurt": 5635,
    "ĠMichigan": 5636,
    "raham": 5637,
    "Ġinvolve": 5638,
    "Ġfarther": 5639,
    "Ġspect": 5640,
    "Ġlithium": 5641,
    "iolet": 5642,
    "Ġsection": 5643,
    "Ġeverywhere": 5644,
    "Ġdepth": 5645,
    "ĠSeveral": 5646,
    "Ġcompleted": 5647,
    "imal": 5648,
    "ĠDes": 5649,
    "Ġrout": 5650,
    "Ġtrained": 5651,
    "ĠLad": 5652,
    "ĠSant": 5653,
    "Ġ2023": 5654,
    "Ġ1922": 5655,
    "bl": 5656,
    "Ġsunlight": 5657,
    "ĠMad": 5658,
    "Ġsand": 5659,
    "Ġhills": 5660,
    "Ġbases": 5661,
    "Ġsolution": 5662,
    "Ġemb": 5663,
    "Ġcommunication": 5664,
    "Ġcontinu": 5665,
    "Ġrice": 5666,
    "ĠSax": 5667,
    "olute": 5668,
    "Ġcollege": 5669,
    "ĠPyth": 5670,
    "ertainment": 5671,
    "Ġtail": 5672,
    "ĠSecretary": 5673,
    "Ġlies": 5674,
    "Ġopp": 5675,
    "Ġstands": 5676,
    "Ġvotes": 5677,
    "Ġextend": 5678,
    "ĠMartin": 5679,
    "atican": 5680,
    "ĠVatican": 5681,
    "Ġdifferently": 5682,
    "ĠTurkish": 5683,
    "ago": 5684,
    "Ġmanuf": 5685,
    "Ġmanufact": 5686,
    "Ġeffort": 5687,
    "Ġpairs": 5688,
    "Ġdiet": 5689,
    "ĠHawaiian": 5690,
    "Ġserver": 5691,
    "Ġskills": 5692,
    "Ġmate": 5693,
    "Ġamino": 5694,
    "Ġdissol": 5695,
    "Ġceremony": 5696,
    "Ġbene": 5697,
    "burgh": 5698,
    "Ġlarv": 5699,
    "lymouth": 5700,
    "ĠYorks": 5701,
    "ĠYorkshire": 5702,
    "ĠEverton": 5703,
    "Ġcelebrate": 5704,
    "Ġdiverse": 5705,
    "Ġpractical": 5706,
    "Ġstyles": 5707,
    "Ġpatterns": 5708,
    "Ġpainted": 5709,
    "Ġsociet": 5710,
    "Ġsocieties": 5711,
    "Ġproposed": 5712,
    "ĠMor": 5713,
    "Ġdut": 5714,
    "Ġ1986": 5715,
    "Ġkeeping": 5716,
    "Ġsurrounding": 5717,
    "Ġdamaged": 5718,
    "ithm": 5719,
    "Aust": 5720,
    "ĠTer": 5721,
    "Ġboy": 5722,
    "Ġhorizon": 5723,
    "anged": 5724,
    "Ġtrou": 5725,
    "ĠOs": 5726,
    "ccer": 5727,
    "about": 5728,
    "iced": 5729,
    "ĠQur": 5730,
    "iel": 5731,
    "Ġdecision": 5732,
    "Ġprove": 5733,
    "itage": 5734,
    "agan": 5735,
    "Ġreported": 5736,
    "arly": 5737,
    "Ġproved": 5738,
    "Ġcloud": 5739,
    "Ġsciences": 5740,
    "Ġperman": 5741,
    "Ġseems": 5742,
    "ĠBur": 5743,
    "Ġclassified": 5744,
    "Ġtallest": 5745,
    "Ġsigns": 5746,
    "Ġ1976": 5747,
    "ĠCeltic": 5748,
    "ĠArmen": 5749,
    "Ġadministr": 5750,
    "Ġentered": 5751,
    "Ġrelationships": 5752,
    "Ġvector": 5753,
    "Ġcred": 5754,
    "Ġbankrupt": 5755,
    "Ġprocesses": 5756,
    "ĠâĢĺ": 5757,
    "quart": 5758,
    "Ġheadquart": 5759,
    "Ġnotable": 5760,
    "ĠSal": 5761,
    "English": 5762,
    "Ġlinked": 5763,
    "Ġregime": 5764,
    "ĠMass": 5765,
    "Ġgrammar": 5766,
    "Ġbicy": 5767,
    "ĠTime": 5768,
    "chers": 5769,
    "Ġburned": 5770,
    "Ġ1959": 5771,
    "Ġprice": 5772,
    "Ġcollaps": 5773,
    "Ġdoctor": 5774,
    "Ġeur": 5775,
    "Ġonline": 5776,
    "Ġmeanings": 5777,
    "Ġholiday": 5778,
    "Ġvehicle": 5779,
    ");": 5780,
    "Ġtests": 5781,
    "ĠSlav": 5782,
    "road": 5783,
    "ĠIron": 5784,
    "Ġtitles": 5785,
    "well": 5786,
    "199": 5787,
    "Ġtruth": 5788,
    "Ġcomponents": 5789,
    "Internet": 5790,
    "Ġcondition": 5791,
    "ĠBell": 5792,
    "apy": 5793,
    "Ġmessage": 5794,
    "ez": 5795,
    "ĠPanama": 5796,
    "ĠLatv": 5797,
    "Ġinsect": 5798,
    "ĠChel": 5799,
    "owie": 5800,
    "Ġarts": 5801,
    "ĠFree": 5802,
    "Ġscientist": 5803,
    "odes": 5804,
    "Ġtaste": 5805,
    "ipment": 5806,
    "Ġequipment": 5807,
    "ĠFar": 5808,
    "ĠWhat": 5809,
    "ĠIndo": 5810,
    "Ġanywhere": 5811,
    "Ġsettled": 5812,
    "avia": 5813,
    "ĠKim": 5814,
    "ĠRus": 5815,
    "Ġcricket": 5816,
    "Ġwheel": 5817,
    "About": 5818,
    "Ġcharacteristics": 5819,
    "ĠDifferent": 5820,
    "Ġfung": 5821,
    "Ġgrows": 5822,
    "ĠArgentina": 5823,
    "Ġclaims": 5824,
    "Ġcollection": 5825,
    "Ġrarely": 5826,
    "formula": 5827,
    "Ġradioactive": 5828,
    "Ġshoot": 5829,
    "Ġchain": 5830,
    "Ġquarks": 5831,
    "Ġexplains": 5832,
    "Ġalt": 5833,
    "Ġimages": 5834,
    "Ġformation": 5835,
    "ĠClassical": 5836,
    "ymph": 5837,
    "people": 5838,
    "ĠMongol": 5839,
    "Ġrespon": 5840,
    "Ġresponse": 5841,
    "Ġremaining": 5842,
    "Ġunless": 5843,
    "Ġbiological": 5844,
    "ĠWeb": 5845,
    "Ġfile": 5846,
    "fast": 5847,
    "ĠBeijing": 5848,
    "Ġharm": 5849,
    "Ġ1993": 5850,
    "ĠInt": 5851,
    "Ġwaste": 5852,
    "Ġlayers": 5853,
    "Ġdefense": 5854,
    "Ġsad": 5855,
    "Ġholding": 5856,
    "Ġnecessary": 5857,
    "Ġhill": 5858,
    "Ġactual": 5859,
    "Ġ1965": 5860,
    "ĠThus": 5861,
    "Ġspaces": 5862,
    "ĠGreenland": 5863,
    "%)": 5864,
    "arians": 5865,
    "ĠLee": 5866,
    "Ġapplications": 5867,
    "Ġframe": 5868,
    "Ġnutrients": 5869,
    "Ġaff": 5870,
    "Ġcustom": 5871,
    "ternal": 5872,
    "ĠHindus": 5873,
    "ophy": 5874,
    "oa": 5875,
    "TML": 5876,
    "ĪĴ": 5877,
    "Ġnest": 5878,
    "ĠMunich": 5879,
    "erby": 5880,
    "ĠClint": 5881,
    "ĠClinton": 5882,
    "ĠIOC": 5883,
    "ĠJulian": 5884,
    "Roman": 5885,
    "Ġsubjects": 5886,
    "Ġinner": 5887,
    "Ġimpact": 5888,
    "Ġbreat": 5889,
    "Ġcomposed": 5890,
    "Ġcausing": 5891,
    "Ġcontinents": 5892,
    "Germ": 5893,
    "Ġgenetic": 5894,
    "Ġdistribution": 5895,
    "Ġrepresented": 5896,
    "Ġtens": 5897,
    "igenous": 5898,
    "Ġconstitutional": 5899,
    "Ġclimates": 5900,
    "Ġunknown": 5901,
    "ĠJack": 5902,
    "vation": 5903,
    "Hung": 5904,
    "oses": 5905,
    "unt": 5906,
    "Ġhorse": 5907,
    "Ġathletes": 5908,
    "ĠSpace": 5909,
    "ĠTen": 5910,
    "Ġcreation": 5911,
    "Ġapply": 5912,
    "Ġspeaking": 5913,
    "Ġkingdoms": 5914,
    "ĠAmong": 5915,
    "Ġindustries": 5916,
    "Ġcooked": 5917,
    "ysics": 5918,
    "Ġaxis": 5919,
    "Ġempt": 5920,
    "Ġ99": 5921,
    "Ġtrack": 5922,
    "Ġdigital": 5923,
    "Ġmir": 5924,
    "etime": 5925,
    "itals": 5926,
    "olars": 5927,
    "ontin": 5928,
    "Ġ95": 5929,
    "Ġmetres": 5930,
    "Ġrepublics": 5931,
    "ĠSocialist": 5932,
    "Ġurban": 5933,
    "Ġadapt": 5934,
    "Ġherbivores": 5935,
    "Ġshoes": 5936,
    "Ġfalls": 5937,
    "Modern": 5938,
    "Ġsoutheast": 5939,
    "ĠWell": 5940,
    "cri": 5941,
    "Ġadjective": 5942,
    "gress": 5943,
    "Ġprinting": 5944,
    "enth": 5945,
    "ĠVII": 5946,
    "Ġbeans": 5947,
    "Ġtraining": 5948,
    "Ġinvention": 5949,
    "Ġexplained": 5950,
    "Ġstarch": 5951,
    "Ġrect": 5952,
    "Ġalloy": 5953,
    "Ġcalls": 5954,
    "Ġvegetables": 5955,
    "altic": 5956,
    "ĠBaltic": 5957,
    "ĠDanish": 5958,
    "ĠNorweg": 5959,
    "Ġstages": 5960,
    "Ġsentences": 5961,
    "Ġrestaur": 5962,
    "Ġfloor": 5963,
    "ĠFinn": 5964,
    "Ġmut": 5965,
    "Ġapproximately": 5966,
    "Ġclosed": 5967,
    "ansion": 5968,
    "Ġpushed": 5969,
    "Ġgain": 5970,
    "Ġconcent": 5971,
    "ĠGDP": 5972,
    "Ġink": 5973,
    "cience": 5974,
    "ĠAI": 5975,
    "Ġbaseball": 5976,
    "Ġ1964": 5977,
    "Ġenfor": 5978,
    "ĠThames": 5979,
    "Ġdog": 5980,
    "Ġsurgery": 5981,
    "Ġped": 5982,
    "ĨĲ": 5983,
    "âĨĲ": 5984,
    "Ġfinishes": 5985,
    "ivalent": 5986,
    "Ġequivalent": 5987,
    "Ġ45": 5988,
    "Ġpaintings": 5989,
    "Ġlungs": 5990,
    "uted": 5991,
    "ĠCap": 5992,
    "Ġmathematician": 5993,
    "awa": 5994,
    "omach": 5995,
    "Ġstomach": 5996,
    "Ġexplorer": 5997,
    "Ġwashing": 5998,
    "Ġplatyp": 5999,
    "Ġplatypus": 6000,
    "asm": 6001,
    "Ġstones": 6002,
    "While": 6003,
    "ĠDep": 6004,
    "ĠLiber": 6005,
    "Ġswim": 6006,
    "onald": 6007,
    "Ġhear": 6008,
    "ĠAngel": 6009,
    "Ġlets": 6010,
    "Ġstops": 6011,
    "Ġtalks": 6012,
    "Ġ;": 6013,
    "16": 6014,
    "Ġstatue": 6015,
    "Ġmention": 6016,
    "Ġcommunicate": 6017,
    "ĠBol": 6018,
    "Ġfalse": 6019,
    "uh": 6020,
    "Ġx": 6021,
    "bered": 6022,
    "Ġexpected": 6023,
    "rav": 6024,
    "Ġsudd": 6025,
    "Ġsudden": 6026,
    "ysis": 6027,
    "ĠGolden": 6028,
    "Ġcathedral": 6029,
    "Ġdates": 6030,
    "Ġpolic": 6031,
    "Ġpolicies": 6032,
    "Ġrefused": 6033,
    "inand": 6034,
    "dinand": 6035,
    "erdinand": 6036,
    "ĠFerdinand": 6037,
    "ussian": 6038,
    "Ġfeathers": 6039,
    "Ġboot": 6040,
    "Ġstandards": 6041,
    "ĠWinter": 6042,
    "fare": 6043,
    "Ġwarfare": 6044,
    "arrow": 6045,
    "Ġnarrow": 6046,
    "Ġderived": 6047,
    "ĠHong": 6048,
    "Ġsuccessfully": 6049,
    "adays": 6050,
    "ĠCyprus": 6051,
    "Ġreference": 6052,
    "Ġsupposed": 6053,
    "ĠOxford": 6054,
    "Ġseat": 6055,
    "Ġparks": 6056,
    "Ġtrave": 6057,
    "Ġchose": 6058,
    "Ġstrange": 6059,
    "Ġwritings": 6060,
    "Ġdances": 6061,
    "rel": 6062,
    "Ġfluid": 6063,
    "oured": 6064,
    "Ġroles": 6065,
    "ĠGN": 6066,
    "Ġphotograph": 6067,
    "Ġphotons": 6068,
    "ellar": 6069,
    "ĠpH": 6070,
    "Ġ1983": 6071,
    "Ġhonor": 6072,
    "Ġoxidation": 6073,
    "ĠRNA": 6074,
    "Ġ32": 6075,
    "andard": 6076,
    "Ġfans": 6077,
    "abb": 6078,
    "ĠSabb": 6079,
    "ĠSabbath": 6080,
    "syl": 6081,
    "ennsyl": 6082,
    "ennsylvania": 6083,
    "ĠAztecs": 6084,
    "Ġagents": 6085,
    "ĠKenya": 6086,
    "ĠBols": 6087,
    "Ġsalamanders": 6088,
    "Ġfestivals": 6089,
    "Ġtheatre": 6090,
    "Ġfigures": 6091,
    "Ġregularly": 6092,
    "Ġcontrib": 6093,
    "Ġtransfer": 6094,
    "off": 6095,
    "Ġfollows": 6096,
    "bey": 6097,
    "Ġmessages": 6098,
    "\";": 6099,
    "Ġimproved": 6100,
    "Ġchoice": 6101,
    "ĠComput": 6102,
    "bourne": 6103,
    "elbourne": 6104,
    "Ġcontinues": 6105,
    "Ġhomes": 6106,
    "origin": 6107,
    "Ġfishing": 6108,
    "Ġbrothers": 6109,
    "ĠAssociation": 6110,
    "Ġpeaceful": 6111,
    "Ġrepresents": 6112,
    "Ġencour": 6113,
    "Ġrow": 6114,
    "Ġranked": 6115,
    "Ġmatches": 6116,
    "Ġtelephone": 6117,
    "Ġcombination": 6118,
    "Ġdefend": 6119,
    "ĠPeru": 6120,
    "Ġhop": 6121,
    "Ġspectrum": 6122,
    "Ġdirections": 6123,
    "Ġstreng": 6124,
    "Ġstrength": 6125,
    "Ġseconds": 6126,
    "Ġconcern": 6127,
    "ĠKarl": 6128,
    "henomen": 6129,
    "Ġphenomen": 6130,
    "Ġsignal": 6131,
    "ighter": 6132,
    "Ġsatellite": 6133,
    "Ġlens": 6134,
    "Ġclosest": 6135,
    "Ġcontrols": 6136,
    "Ġbelt": 6137,
    "Ġprobe": 6138,
    "Ġgone": 6139,
    "Ġgiant": 6140,
    "Ġgeograph": 6141,
    "Ġinstitutions": 6142,
    "venth": 6143,
    "Ġbeef": 6144,
    "uan": 6145,
    "Ġdictator": 6146,
    "Ġ1918": 6147,
    "Ġvisitors": 6148,
    "Pl": 6149,
    "Ġfilled": 6150,
    "Ġbees": 6151,
    "Ġcontainer": 6152,
    "Ġmy": 6153,
    "Ġdeaths": 6154,
    "sels": 6155,
    "ĠMedic": 6156,
    "porary": 6157,
    "ĠChannel": 6158,
    "Ġbits": 6159,
    "Ġready": 6160,
    "Ġminority": 6161,
    "Japan": 6162,
    "ĠBo": 6163,
    "Ġrid": 6164,
    "Ġdictionary": 6165,
    "Ġwarmer": 6166,
    "iling": 6167,
    "Ġcrim": 6168,
    "Ġcub": 6169,
    "Ġsac": 6170,
    "ĠSum": 6171,
    "Ġachieve": 6172,
    "Ġency": 6173,
    "Ġencycl": 6174,
    "Ġencyclop": 6175,
    "Ġdefeat": 6176,
    "Ġstatistics": 6177,
    "Ġincome": 6178,
    "uis": 6179,
    "Ġcompar": 6180,
    "Ġofficers": 6181,
    "Ġ1953": 6182,
    "ĠEston": 6183,
    "ĠSuper": 6184,
    "ĠServ": 6185,
    "Ġadvertising": 6186,
    "Ġwebsites": 6187,
    "Ġinn": 6188,
    "ĠVI": 6189,
    "Ġofficials": 6190,
    "itation": 6191,
    "Ġworn": 6192,
    "ĠLaos": 6193,
    "Ġamphibians": 6194,
    "Ġtrunk": 6195,
    "Ġfold": 6196,
    "Ġden": 6197,
    "lad": 6198,
    "anda": 6199,
    "Ġwire": 6200,
    "aust": 6201,
    "Ġcous": 6202,
    "ĠPlymouth": 6203,
    "Ġhemisphere": 6204,
    "Ġsixth": 6205,
    "Ġinteresting": 6206,
    "gl": 6207,
    "ĠPho": 6208,
    "Ġangle": 6209,
    "Ġcreates": 6210,
    "Ġplus": 6211,
    "icial": 6212,
    "Ġmer": 6213,
    "ĠCr": 6214,
    "Ġintelligence": 6215,
    "Ġ1946": 6216,
    "ĠSmith": 6217,
    "osh": 6218,
    "ĠLar": 6219,
    "Ġwider": 6220,
    "Ġsubt": 6221,
    "asia": 6222,
    "ĠLand": 6223,
    "Ġcollected": 6224,
    "Ġpopulated": 6225,
    "Ġstanding": 6226,
    "Ġlimits": 6227,
    "Ġ1941": 6228,
    "ĠAround": 6229,
    "ockey": 6230,
    "Ġannual": 6231,
    "Ġperiods": 6232,
    "Here": 6233,
    "Ġmedieval": 6234,
    "Ġflying": 6235,
    "Ġemer": 6236,
    "Ġoccurred": 6237,
    "Ġfollowers": 6238,
    "Ġforming": 6239,
    "Ġ1905": 6240,
    "Ġisotope": 6241,
    "Ġpositions": 6242,
    "Ġpermanent": 6243,
    "ĠBank": 6244,
    "Ġbridges": 6245,
    "erves": 6246,
    "Ġmarry": 6247,
    "Ġedge": 6248,
    "Ġsucceeded": 6249,
    "Ġunited": 6250,
    "Ġconservative": 6251,
    "heastern": 6252,
    "ĠSalt": 6253,
    "ĠRhine": 6254,
    "ĠVik": 6255,
    "Ġvertebrates": 6256,
    "Ġaim": 6257,
    "Ġpurch": 6258,
    "Ġattention": 6259,
    "Ġsurvived": 6260,
    "Ġshowing": 6261,
    "Ġvon": 6262,
    "Ġchallen": 6263,
    "Ġdrawn": 6264,
    "century": 6265,
    "Ġabsolute": 6266,
    "inster": 6267,
    "ĠWestm": 6268,
    "ĠWestminster": 6269,
    "Ġattend": 6270,
    "oo": 6271,
    "Ġexecuted": 6272,
    "Ġinfinite": 6273,
    "Ġmetaphor": 6274,
    "ĠConstitution": 6275,
    "Ġdecisions": 6276,
    "ference": 6277,
    "Ġmeasuring": 6278,
    "ipedia": 6279,
    "ĠWikipedia": 6280,
    "ĠStud": 6281,
    "Ġpulled": 6282,
    "Ġmarks": 6283,
    "tes": 6284,
    "Ġfreez": 6285,
    "Ġpopulations": 6286,
    "Ġren": 6287,
    "irmed": 6288,
    "Ġconfirmed": 6289,
    "ĠMet": 6290,
    "Ġfactory": 6291,
    "Ġstaff": 6292,
    "under": 6293,
    "ĠGoogle": 6294,
    "Ġpermission": 6295,
    "ĠFilip": 6296,
    "Ġfinally": 6297,
    "Hind": 6298,
    "ourt": 6299,
    "ĠCourt": 6300,
    "ability": 6301,
    "rid": 6302,
    "ĠBeat": 6303,
    "Ġtower": 6304,
    "Ġtoward": 6305,
    "Ġ800": 6306,
    "ĠSU": 6307,
    "ĠSUV": 6308,
    "ĠEdin": 6309,
    "ĠEdinburgh": 6310,
    "ĠCard": 6311,
    "ĠTown": 6312,
    "Ġruling": 6313,
    "Ġlargely": 6314,
    "Ġexecutive": 6315,
    "ĠAnglo": 6316,
    "Ġregarded": 6317,
    "ĠLab": 6318,
    "Ġ1952": 6319,
    "Ġepis": 6320,
    "She": 6321,
    "Ġsettlers": 6322,
    "Ġfertil": 6323,
    "Ġselect": 6324,
    "vest": 6325,
    "Ġoperations": 6326,
    "Ġequals": 6327,
    "Ġimportance": 6328,
    "Ġflower": 6329,
    "Ġcensus": 6330,
    "Ġsuit": 6331,
    "Ġrainfall": 6332,
    "Ġissue": 6333,
    "Ġmanaged": 6334,
    "Ġvan": 6335,
    "Ġvoted": 6336,
    "Ġ1972": 6337,
    "ĠMalays": 6338,
    "Ġric": 6339,
    "anguage": 6340,
    "oll": 6341,
    "Ġpronun": 6342,
    "Ġpronunci": 6343,
    "Ġpronunciation": 6344,
    "Ġpractices": 6345,
    "Different": 6346,
    "Ġtelling": 6347,
    "Mus": 6348,
    "Ġaccident": 6349,
    "tles": 6350,
    "Ġbattles": 6351,
    "Ġcandidate": 6352,
    "Ġbeer": 6353,
    "Ġidentity": 6354,
    "sible": 6355,
    "Ġimpos": 6356,
    "Ġimpossible": 6357,
    "Ġmeasures": 6358,
    "Ġphysicists": 6359,
    "Ġcharges": 6360,
    "urally": 6361,
    "Ġstrongly": 6362,
    "ample": 6363,
    "aac": 6364,
    "oyager": 6365,
    "rals": 6366,
    "hedrals": 6367,
    "ĠSil": 6368,
    "Ġraise": 6369,
    "30": 6370,
    "Ġgolf": 6371,
    "ĠFranz": 6372,
    "Ġinterpret": 6373,
    "Ġlinks": 6374,
    "Ġstatement": 6375,
    "Ġ\"-": 6376,
    "Ġ1500": 6377,
    "isons": 6378,
    "ktop": 6379,
    "North": 6380,
    "Ġmap": 6381,
    "Ġ1917": 6382,
    "Ġclimb": 6383,
    "Ġguns": 6384,
    "Ġfault": 6385,
    "Ġprofessor": 6386,
    "Ġtarget": 6387,
    "ĠGreater": 6388,
    "Ġenemy": 6389,
    "Ġpeninsula": 6390,
    "elect": 6391,
    "Ġengines": 6392,
    "Ġ36": 6393,
    "Ġadditional": 6394,
    "Ġscore": 6395,
    "Ġleather": 6396,
    "Ġprey": 6397,
    "real": 6398,
    "Ġpoems": 6399,
    "Ġanthem": 6400,
    "atherine": 6401,
    "Ġextinct": 6402,
    "Ġgene": 6403,
    "ĠCastle": 6404,
    "gency": 6405,
    "Ġ1969": 6406,
    "Ġtreaty": 6407,
    "Ġexplanation": 6408,
    "romos": 6409,
    "Ġchromos": 6410,
    "ĠLord": 6411,
    "Ġkilogr": 6412,
    "ĠAdams": 6413,
    "Ġdollar": 6414,
    "Ġreality": 6415,
    "Ġenzymes": 6416,
    "orning": 6417,
    "Ġmorning": 6418,
    "aret": 6419,
    "Ġshir": 6420,
    "Ġrat": 6421,
    "Ġnewly": 6422,
    "Ġattached": 6423,
    "Ġlamp": 6424,
    "ĠHTML": 6425,
    "Ġvalley": 6426,
    "Ġpregnant": 6427,
    "ĠBest": 6428,
    "ĠDerby": 6429,
    "ĠPrincess": 6430,
    "Ġitem": 6431,
    "Ġnote": 6432,
    "Ġsens": 6433,
    "Ġimag": 6434,
    "Ġmetric": 6435,
    "Ġtopics": 6436,
    "Ġcombine": 6437,
    "arwin": 6438,
    "Ġworse": 6439,
    "umber": 6440,
    "Ġ1944": 6441,
    "works": 6442,
    "revi": 6443,
    "that": 6444,
    "God": 6445,
    "Ġhits": 6446,
    "Ġwalking": 6447,
    "ĠJer": 6448,
    "Ġsuffering": 6449,
    "Ġforward": 6450,
    "Ġargument": 6451,
    "Ġindigenous": 6452,
    "ĠCape": 6453,
    "stan": 6454,
    "Ġsons": 6455,
    "Ġspiritual": 6456,
    "esides": 6457,
    "what": 6458,
    "Ġcolleges": 6459,
    "Ġuniversal": 6460,
    "atom": 6461,
    "Ġinvest": 6462,
    "Ġempty": 6463,
    "ding": 6464,
    "Ġpole": 6465,
    "Ġcameras": 6466,
    "Ġattempts": 6467,
    "Ġaccurate": 6468,
    "Ġengineers": 6469,
    "Ġcollap": 6470,
    "Ġcollapse": 6471,
    "Ġ600": 6472,
    "ĠIndependence": 6473,
    "ĠOrgan": 6474,
    "Ġinvolves": 6475,
    "Ġrelatively": 6476,
    "Ġactions": 6477,
    "Ġrespir": 6478,
    "Ġbankruptcy": 6479,
    "Ġmedium": 6480,
    "Ġaltern": 6481,
    "Ġalternative": 6482,
    "Ġfactor": 6483,
    "cript": 6484,
    "ĠJava": 6485,
    "Ġdemon": 6486,
    "Ġdemonstr": 6487,
    "Ġpoisonous": 6488,
    "Ġhappening": 6489,
    "usual": 6490,
    "Ġunusual": 6491,
    "Ġcomet": 6492,
    "Ġteacher": 6493,
    "ĠNazis": 6494,
    "Ġsleep": 6495,
    "Ġdecades": 6496,
    "Ġdiversity": 6497,
    "Ġneck": 6498,
    "Ġpredators": 6499,
    "Ġeuro": 6500,
    "ĠSup": 6501,
    "Ġexpansion": 6502,
    "Ġ(;": 6503,
    "Ġsteam": 6504,
    "Ġstret": 6505,
    "Ġnickname": 6506,
    "Ġmomentum": 6507,
    "Ġnewspaper": 6508,
    "ĠLower": 6509,
    "ĠCarol": 6510,
    "Ġconduct": 6511,
    "ahara": 6512,
    "ĠSahara": 6513,
    "Ġbull": 6514,
    "oca": 6515,
    "sea": 6516,
    "TC": 6517,
    "ounty": 6518,
    "cher": 6519,
    "Ġuncle": 6520,
    "Ġcondom": 6521,
    "Ġdetermined": 6522,
    "No": 6523,
    "ĠDou": 6524,
    "Ġastero": 6525,
    "Ġasteroids": 6526,
    "Ġvictory": 6527,
    "Ġpunishment": 6528,
    "ĠOttawa": 6529,
    "Ġcombin": 6530,
    "Ġcounting": 6531,
    "Ġdigits": 6532,
    "place": 6533,
    "Ġtect": 6534,
    "Ġtectonic": 6535,
    "thur": 6536,
    "olk": 6537,
    "ugby": 6538,
    "Ġparticip": 6539,
    "Ġ1956": 6540,
    "Ġ1962": 6541,
    "Ġsupplies": 6542,
    "Ġvaries": 6543,
    "Ġsees": 6544,
    "ipes": 6545,
    "Ġwaters": 6546,
    "Ġpoem": 6547,
    "Ġcourts": 6548,
    "Ġidentified": 6549,
    "imet": 6550,
    "Ġcolder": 6551,
    "Ġsuggests": 6552,
    "Ġbreaking": 6553,
    "ĠAny": 6554,
    "Ġrays": 6555,
    "law": 6556,
    "Ġreaches": 6557,
    "Ġrot": 6558,
    "Ġcopied": 6559,
    "Ġproperly": 6560,
    "Ġconcrete": 6561,
    "ĠNorman": 6562,
    "Ġnortheast": 6563,
    "European": 6564,
    "mar": 6565,
    "Ġpatr": 6566,
    "Ġ1979": 6567,
    "ĠCommunity": 6568,
    "Ġdishes": 6569,
    "Ġ(,": 6570,
    "Ġsupports": 6571,
    "ceans": 6572,
    "Ġoceans": 6573,
    "Ġtissues": 6574,
    "Ġinternal": 6575,
    "ĠAlmost": 6576,
    "Ġheadquarters": 6577,
    "oon": 6578,
    "ĠMem": 6579,
    "after": 6580,
    "amental": 6581,
    "Ġfundamental": 6582,
    "ĠUSA": 6583,
    "Ġtraff": 6584,
    "Ġtraffic": 6585,
    "Ġcontroversial": 6586,
    "ĠCatholics": 6587,
    "adition": 6588,
    "Ġfacing": 6589,
    "Ġkit": 6590,
    "Ġbutter": 6591,
    "Ġargued": 6592,
    "Ġprefer": 6593,
    "ante": 6594,
    "Ġlanded": 6595,
    "Ġcollapsed": 6596,
    "ĠMuch": 6597,
    "Ġemail": 6598,
    "Ġelectrol": 6599,
    "Ġpsychology": 6600,
    "Two": 6601,
    "Ġfu": 6602,
    "Ġfuels": 6603,
    "ĠFriday": 6604,
    "Ġspot": 6605,
    "Ġcoloured": 6606,
    "Ġsecondary": 6607,
    "ĠRomance": 6608,
    "akers": 6609,
    "Ġcapitalist": 6610,
    "Ġdropped": 6611,
    "Ġdatab": 6612,
    "Ġpercentage": 6613,
    "ĠGroup": 6614,
    "shaped": 6615,
    "Ġcondoms": 6616,
    "Ġnavy": 6617,
    "istor": 6618,
    "Ġjew": 6619,
    "Ġ1948": 6620,
    "Ġpromised": 6621,
    "Ġshut": 6622,
    "Ġscholars": 6623,
    "His": 6624,
    "Ġrooms": 6625,
    "ĠStandard": 6626,
    "ĠMuseum": 6627,
    "Ġbehavi": 6628,
    "Ġdivorce": 6629,
    "Ġcoc": 6630,
    "Ġstruggle": 6631,
    "Ġmines": 6632,
    "Ġbenef": 6633,
    "ĠKent": 6634,
    "Ġfailure": 6635,
    "Ġtradem": 6636,
    "Ġtrademark": 6637,
    "uela": 6638,
    "ĠVenez": 6639,
    "ĠVenezuela": 6640,
    "ansas": 6641,
    "Ġaddresses": 6642,
    "ĠBarcelona": 6643,
    "idency": 6644,
    "Ġpresidency": 6645,
    "Ġattended": 6646,
    "aylor": 6647,
    "senal": 6648,
    "ouri": 6649,
    "ĠMissouri": 6650,
    "ĠArt": 6651,
    "Ġbelongs": 6652,
    "ĠEvent": 6653,
    "Ġstores": 6654,
    "ĠRoad": 6655,
    "Ġsav": 6656,
    "Ġethics": 6657,
    "Ġsinging": 6658,
    "ittle": 6659,
    "Ġir": 6660,
    "Ġegg": 6661,
    "Ġchick": 6662,
    "aging": 6663,
    "Ġoverall": 6664,
    "Ġsovereign": 6665,
    "Ġproducer": 6666,
    "Ġaffects": 6667,
    "Ġplain": 6668,
    "Ġsteal": 6669,
    "Ġ1939": 6670,
    "Ġnumerous": 6671,
    "Ġ1982": 6672,
    "Ġtribe": 6673,
    "Ġvariable": 6674,
    "Ġholy": 6675,
    "Ġreject": 6676,
    "ĠBridge": 6677,
    "Ġdrinks": 6678,
    "ĠAbraham": 6679,
    "With": 6680,
    "Ġabsorb": 6681,
    "Ġultrav": 6682,
    "Ġultraviolet": 6683,
    "Ġtun": 6684,
    "ĠKhan": 6685,
    "Ġmuscles": 6686,
    "idden": 6687,
    "abul": 6688,
    "ĠHuman": 6689,
    "Ġrural": 6690,
    "aning": 6691,
    "meaning": 6692,
    "Ġgeography": 6693,
    "Ġopposed": 6694,
    "ird": 6695,
    "Ġtypical": 6696,
    "bian": 6697,
    "Ġcake": 6698,
    "Ġpub": 6699,
    "Ġpublish": 6700,
    "Ġsimpler": 6701,
    "Ġphones": 6702,
    "Ġshr": 6703,
    "irming": 6704,
    "irmingham": 6705,
    "Ġbot": 6706,
    "Ġdistingu": 6707,
    "Ġcomposer": 6708,
    "Ġnovels": 6709,
    "sc": 6710,
    "orial": 6711,
    "prison": 6712,
    "Ġleads": 6713,
    "Ġapproach": 6714,
    "Ġadj": 6715,
    "Ġvoc": 6716,
    "Ġwhereas": 6717,
    "ĠQu": 6718,
    "Ġcakes": 6719,
    "izing": 6720,
    "Christ": 6721,
    "Ġseats": 6722,
    "Ġshops": 6723,
    "Ġplans": 6724,
    "ĠInstit": 6725,
    "ĠInstitute": 6726,
    "bes": 6727,
    "dimens": 6728,
    "dimensional": 6729,
    "ĠCastro": 6730,
    "Ġbanned": 6731,
    "ĠSpecial": 6732,
    "ĠStadium": 6733,
    "Ġgirl": 6734,
    "ĠIsles": 6735,
    "Ġinfections": 6736,
    "Ġlosing": 6737,
    "ĠJr": 6738,
    "Ġtra": 6739,
    "osynthesis": 6740,
    "hood": 6741,
    "Ġlad": 6742,
    "Ġdetermine": 6743,
    "Ġcountryside": 6744,
    "Ġdiary": 6745,
    "Ġstro": 6746,
    "Ġrespectively": 6747,
    "ĠSam": 6748,
    "ĠService": 6749,
    "Ġimperial": 6750,
    "ada": 6751,
    "ĠPublic": 6752,
    "ĠIm": 6753,
    "ĠMedia": 6754,
    "Ġconcentration": 6755,
    "21": 6756,
    "ĠMalay": 6757,
    "Ġunem": 6758,
    "Ġunemploy": 6759,
    "Ġlightning": 6760,
    "ĠMalt": 6761,
    "ĠFort": 6762,
    "Ġpark": 6763,
    "Ġ1967": 6764,
    "Ġsilk": 6765,
    "Ġcontaining": 6766,
    "lowing": 6767,
    "sey": 6768,
    "Ġarrested": 6769,
    "enger": 6770,
    "Ġhatch": 6771,
    "Ġrival": 6772,
    "ĠRonald": 6773,
    "ĠHarold": 6774,
    "Ġlogo": 6775,
    "Cola": 6776,
    "Ġtherapy": 6777,
    "pswich": 6778,
    "ari": 6779,
    "ĠMinh": 6780,
    "ĠBowie": 6781,
    "Ġautumn": 6782,
    "Ġflowers": 6783,
    "Ġdisagree": 6784,
    "iven": 6785,
    "Ġduties": 6786,
    "Ġmax": 6787,
    "Ġmaximum": 6788,
    "Not": 6789,
    "ĠTom": 6790,
    "ĠMelbourne": 6791,
    "Ġcryst": 6792,
    "eneral": 6793,
    "General": 6794,
    "original": 6795,
    "ĠAboriginal": 6796,
    "Ġbelonged": 6797,
    "prise": 6798,
    "Ġlou": 6799,
    "Ġgoverned": 6800,
    "Ġremem": 6801,
    "Ġessential": 6802,
    "Ġlists": 6803,
    "Ġangry": 6804,
    "Ġaccounts": 6805,
    "Ġorders": 6806,
    "Ġcalling": 6807,
    "Ġidentify": 6808,
    "Ġfungi": 6809,
    "Ġmythology": 6810,
    "Ġsolve": 6811,
    "Ġending": 6812,
    "90": 6813,
    "Ġdiscover": 6814,
    "Ġdecay": 6815,
    "uclear": 6816,
    "Ġbreaks": 6817,
    "Ġconverted": 6818,
    "Ġcounted": 6819,
    "Every": 6820,
    "inate": 6821,
    "Ġbackground": 6822,
    "Ġsphere": 6823,
    "Ġphenomena": 6824,
    "ĠCass": 6825,
    "Ġdesigns": 6826,
    "Ġtomb": 6827,
    "Ġexpanded": 6828,
    "ĠBCE": 6829,
    "Ġ1919": 6830,
    "Ġadvant": 6831,
    "mun": 6832,
    "iance": 6833,
    "Ġmayor": 6834,
    "ĠHungarian": 6835,
    "itt": 6836,
    "Ġtransform": 6837,
    "Ġadministrative": 6838,
    "Ġseas": 6839,
    "otion": 6840,
    "Ġorganisation": 6841,
    "Ġprotection": 6842,
    "Brit": 6843,
    "Ġpopulous": 6844,
    "Ġassist": 6845,
    "Ġanswers": 6846,
    "Ġrubber": 6847,
    "Ġauthors": 6848,
    "Ġprocessing": 6849,
    "faces": 6850,
    "Ġdidn": 6851,
    "Ġhyp": 6852,
    "ĠFour": 6853,
    "Ġburning": 6854,
    "Ġchair": 6855,
    "Ġsubur": 6856,
    "Ġputting": 6857,
    "De": 6858,
    "Ġtraveled": 6859,
    "Ġhorizont": 6860,
    "Ġ1961": 6861,
    "Ġquarter": 6862,
    "Ġcash": 6863,
    "Ġpetro": 6864,
    "Ġnor": 6865,
    "inet": 6866,
    "Ġtraditionally": 6867,
    "Ġrituals": 6868,
    "Ġstress": 6869,
    "apped": 6870,
    "Ġexperiences": 6871,
    "acity": 6872,
    "Ġcapacity": 6873,
    "Ġexecution": 6874,
    "Ġgills": 6875,
    "Ġtanks": 6876,
    "Ġbadly": 6877,
    "IV": 6878,
    "Ġaffair": 6879,
    "Ġwheat": 6880,
    "ĠEstonia": 6881,
    "Ġtong": 6882,
    "Ġtongue": 6883,
    "uchy": 6884,
    "Ġcommunists": 6885,
    "ĠStar": 6886,
    "llino": 6887,
    "ĠIllino": 6888,
    "ĠIllinois": 6889,
    "Ġbeaches": 6890,
    "ensed": 6891,
    "Ġdebate": 6892,
    "adox": 6893,
    "Ġparadox": 6894,
    "Ġgh": 6895,
    "Ġghost": 6896,
    "Ġgall": 6897,
    "Ġlibert": 6898,
    "Ġdominant": 6899,
    "Ġmuseums": 6900,
    "Ġ164": 6901,
    "ĠHolland": 6902,
    "ĠVis": 6903,
    "Ġinches": 6904,
    "Ġtowers": 6905,
    "ĠVenice": 6906,
    "ĠMilan": 6907,
    "Ġpint": 6908,
    "Ġreform": 6909,
    "esty": 6910,
    "Ġnorthwest": 6911,
    "Ġcham": 6912,
    "ĠMadrid": 6913,
    "Ġorc": 6914,
    "Ġorchest": 6915,
    "Ġdownlo": 6916,
    "Ġapparent": 6917,
    "Ġplasma": 6918,
    "Ġprayers": 6919,
    "itte": 6920,
    "ittee": 6921,
    "Ġtraveling": 6922,
    "Ġgradually": 6923,
    "hevi": 6924,
    "heviks": 6925,
    "ĠVlad": 6926,
    "ĠVladim": 6927,
    "ĠVladimir": 6928,
    "Ġcapitalism": 6929,
    "Ġmyths": 6930,
    "ĠZur": 6931,
    "ĠZurich": 6932,
    "ĠAlba": 6933,
    "ĠUnix": 6934,
    "ĠBros": 6935,
    "Ġcreative": 6936,
    "Ġartist": 6937,
    "Ġblocks": 6938,
    "\":": 6939,
    "London": 6940,
    "Ġshad": 6941,
    "Ġpresented": 6942,
    "Ġtested": 6943,
    "German": 6944,
    "oving": 6945,
    "Ġton": 6946,
    "Ġmultiplication": 6947,
    "ĠGuine": 6948,
    "ĠGuinea": 6949,
    "rait": 6950,
    "arp": 6951,
    "Ġsharp": 6952,
    "Ġmission": 6953,
    "ĠSoon": 6954,
    "Ġ160": 6955,
    "Ġtransportation": 6956,
    "ĠSenate": 6957,
    "ĠMalaysia": 6958,
    "Ġfolk": 6959,
    "wood": 6960,
    "ĠHall": 6961,
    "ny": 6962,
    "Ġsave": 6963,
    "Ġgarden": 6964,
    "Ġpreci": 6965,
    "Ġviolent": 6966,
    "Ġpeak": 6967,
    "Ġexperienced": 6968,
    "Ġfirm": 6969,
    "Ġresistance": 6970,
    "ammad": 6971,
    "22": 6972,
    "23": 6973,
    "Ġhelping": 6974,
    "Ġlaboratory": 6975,
    "ĠVery": 6976,
    "Ġprobability": 6977,
    "Ġnat": 6978,
    "Ġnaturally": 6979,
    "Ġmetall": 6980,
    "Ġcathedrals": 6981,
    "oned": 6982,
    "Ġliver": 6983,
    "Ġlymph": 6984,
    "inters": 6985,
    "Ġneighbor": 6986,
    "ĠSoviets": 6987,
    "Ġsituation": 6988,
    "Ġallies": 6989,
    "Ġincor": 6990,
    "ĠSlovakia": 6991,
    "ĠDanube": 6992,
    "Ġadap": 6993,
    "Ġadapted": 6994,
    "France": 6995,
    "ĠBav": 6996,
    "ĠChap": 6997,
    "Ġexceptions": 6998,
    "ĠDynasty": 6999,
    "ĠBelgian": 7000,
    "Ġseparately": 7001,
    "Ġcircuits": 7002,
    "Ġrocket": 7003,
    "sec": 7004,
    "Ġremember": 7005,
    "Ġgraphics": 7006,
    "Ġpush": 7007,
    "Ġconnects": 7008,
    "idesp": 7009,
    "idespread": 7010,
    "Ġwidespread": 7011,
    "Ġeffective": 7012,
    "Ġbabies": 7013,
    "âĢĿ.": 7014,
    "Ġairports": 7015,
    "inals": 7016,
    "Ġmoral": 7017,
    "Ġregul": 7018,
    "Ġentertainment": 7019,
    "de": 7020,
    "Ġbask": 7021,
    "Ġcontact": 7022,
    "Ġtourism": 7023,
    "Ġheads": 7024,
    "Ġsequence": 7025,
    "formation": 7026,
    "ĠSwedish": 7027,
    "Ġcategories": 7028,
    "Ġpasses": 7029,
    "ĠCanal": 7030,
    "Ġrecom": 7031,
    "Ġrecomm": 7032,
    "Ġsyllables": 7033,
    "sticks": 7034,
    "opsticks": 7035,
    "anging": 7036,
    "Ġatheism": 7037,
    "Ġhandle": 7038,
    "alle": 7039,
    "Ġtemporary": 7040,
    "ĠFrancisco": 7041,
    "Ġages": 7042,
    "ĠJust": 7043,
    "eg": 7044,
    "ĠAssembly": 7045,
    "Ġdepos": 7046,
    "geria": 7047,
    "ĠAlgeria": 7048,
    "ĠmacOS": 7049,
    "valu": 7050,
    "uvalu": 7051,
    "ris": 7052,
    "ĠMarxist": 7053,
    "gow": 7054,
    "ĠGlas": 7055,
    "ĠGlasgow": 7056,
    "Ġ1963": 7057,
    "Ġleadership": 7058,
    "ĠSoci": 7059,
    "ĠFranklin": 7060,
    "Ġdestruction": 7061,
    "Ġbatteries": 7062,
    "Ġworker": 7063,
    "West": 7064,
    "Ġdoor": 7065,
    "Ġthermomet": 7066,
    "Ġsignals": 7067,
    "Ġwinning": 7068,
    "Ġpatients": 7069,
    "Ġcousin": 7070,
    "aganda": 7071,
    "Ùİ": 7072,
    "á»": 7073,
    "Ġtransition": 7074,
    "tery": 7075,
    "asions": 7076,
    "ĠAbbey": 7077,
    "Ġtheoretical": 7078,
    "Ġimaginary": 7079,
    "Ġbill": 7080,
    "Ġteen": 7081,
    "Ġsorts": 7082,
    "Ġraw": 7083,
    "Austral": 7084,
    "ĠTerrit": 7085,
    "Ġgather": 7086,
    "Ġvoy": 7087,
    "Ġsailed": 7088,
    "Ġsettlement": 7089,
    "Ġoccasion": 7090,
    "onym": 7091,
    "Ġprincip": 7092,
    "Ġreve": 7093,
    "Ġfaces": 7094,
    "Ġopinion": 7095,
    "Each": 7096,
    "Ġarranged": 7097,
    "Ġsweet": 7098,
    "Ġsyn": 7099,
    "iply": 7100,
    "Ġmultiply": 7101,
    "Ġsteps": 7102,
    "Ġsolids": 7103,
    "Ġwidth": 7104,
    "Ġnoble": 7105,
    "anium": 7106,
    "Ġuranium": 7107,
    "Ġfusion": 7108,
    "Ġstated": 7109,
    "Ġjump": 7110,
    "Ġmagnet": 7111,
    "Ġdistant": 7112,
    "Ġopt": 7113,
    "Ġanalysis": 7114,
    "Ġspeeds": 7115,
    "leton": 7116,
    "ĠTal": 7117,
    "iban": 7118,
    "ĠTaliban": 7119,
    "ĠRights": 7120,
    "uable": 7121,
    "Ġvaluable": 7122,
    "ĠEgyptian": 7123,
    "ĠDel": 7124,
    "Ġpoliticians": 7125,
    "Ġshares": 7126,
    "ĠBronze": 7127,
    "Ġassass": 7128,
    "ĠSecurity": 7129,
    "oration": 7130,
    "hetic": 7131,
    "Ġcalculated": 7132,
    "Bl": 7133,
    "Ġlegend": 7134,
    "Ġadministration": 7135,
    "Ġfiles": 7136,
    "city": 7137,
    "Ġbananas": 7138,
    "Â²": 7139,
    "Ġcoastal": 7140,
    "Ġdefence": 7141,
    "Ġcalculate": 7142,
    "Ġhouseh": 7143,
    "Ġinstall": 7144,
    "Ġdesktop": 7145,
    "Ġvoice": 7146,
    "Ġ().": 7147,
    "Ġvast": 7148,
    "Ġranges": 7149,
    "ĠStep": 7150,
    "ĠFest": 7151,
    "ĠFestival": 7152,
    "Ġloved": 7153,
    "Ġboat": 7154,
    "ĠFam": 7155,
    "osl": 7156,
    "ĠVIII": 7157,
    "Ġdisci": 7158,
    "ably": 7159,
    "antine": 7160,
    "Ġstreet": 7161,
    "Ġmile": 7162,
    "Ġliberal": 7163,
    "allow": 7164,
    "Ġdrinking": 7165,
    "iginally": 7166,
    "15": 7167,
    "Ġresulting": 7168,
    "ĠMark": 7169,
    "Ġappearance": 7170,
    "Ġsacred": 7171,
    "ĠMag": 7172,
    "Ġexchange": 7173,
    "ĠOb": 7174,
    "Ġangles": 7175,
    "Le": 7176,
    "Ġdefine": 7177,
    "ĠNorwegian": 7178,
    "Ġbicycle": 7179,
    "ĠChild": 7180,
    "Ġvolcanic": 7181,
    "Ġevapor": 7182,
    "Even": 7183,
    "Ġsevere": 7184,
    "Ġtissue": 7185,
    "Ġmonum": 7186,
    "Ġdocuments": 7187,
    "Ġotherwise": 7188,
    "Ġcow": 7189,
    "Ġhide": 7190,
    "Ġpolitician": 7191,
    "Ġconvert": 7192,
    "Ġaid": 7193,
    "ĠLap": 7194,
    "Ġstrike": 7195,
    "ĠVers": 7196,
    "icago": 7197,
    "ĠChicago": 7198,
    "Ġinit": 7199,
    "ĠJe": 7200,
    "ĠSupreme": 7201,
    "Ġmonarchies": 7202,
    "ĠKÃ¶": 7203,
    "Ġheavier": 7204,
    "Ĥ¬": 7205,
    "ĠâĤ¬": 7206,
    "Ġstatements": 7207,
    "oto": 7208,
    "ĠKyoto": 7209,
    "Ġlions": 7210,
    "Ġairplanes": 7211,
    "reek": 7212,
    "Ġfossils": 7213,
    "Ġenforce": 7214,
    "Ġdissolve": 7215,
    "Ġdecimal": 7216,
    "fort": 7217,
    "Ġchalk": 7218,
    "Ġcanal": 7219,
    "Ġlitre": 7220,
    "ĠBeatles": 7221,
    "ĠRec": 7222,
    "ĠAndrew": 7223,
    "Ġpolar": 7224,
    "ĠBasic": 7225,
    "ĠLong": 7226,
    "ĠPennsylvania": 7227,
    "Ġtesting": 7228,
    "they": 7229,
    "Ġstrings": 7230,
    "ĠCons": 7231,
    "Ġstarred": 7232,
    "ĠCardiff": 7233,
    "ĠAusten": 7234,
    "ĠHolmes": 7235,
    "Ġgradu": 7236,
    "Ġcream": 7237,
    "ĠLatvia": 7238,
    "Ġmagma": 7239,
    "ĠZÃ¼": 7240,
    "ĠZÃ¼rich": 7241,
    "Ġlarvae": 7242,
    "ĠBlair": 7243,
    "ĠAtlanta": 7244,
    "cluding": 7245,
    "including": 7246,
    "Ġemotions": 7247,
    "Ġfiction": 7248,
    "Ġnotation": 7249,
    "father": 7250,
    "imals": 7251,
    "Ġpollution": 7252,
    "):": 7253,
    "Ġconvict": 7254,
    "Ġbreast": 7255,
    "anted": 7256,
    "Ġsausages": 7257,
    "ĠSyria": 7258,
    "rs": 7259,
    "Ġsolutions": 7260,
    "ithmetic": 7261,
    "Ġarithmetic": 7262,
    "Ġconfused": 7263,
    "Ġoperation": 7264,
    "Ġ1600": 7265,
    "ĠArthur": 7266,
    "Ġsending": 7267,
    "Ġnetworks": 7268,
    "Ġ1933": 7269,
    "Ġreduced": 7270,
    "Ġheavily": 7271,
    "ĠSuch": 7272,
    "Ġsends": 7273,
    "ey": 7274,
    "Ġobey": 7275,
    "Ġstatues": 7276,
    "ala": 7277,
    "onomy": 7278,
    "Ġseeing": 7279,
    "asks": 7280,
    "come": 7281,
    "Muslim": 7282,
    "Ġpreviously": 7283,
    "Ġancestors": 7284,
    "Ġestablish": 7285,
    "Ġcentimet": 7286,
    "Ġknife": 7287,
    "Ġflavor": 7288,
    "Ġtons": 7289,
    "Ġsquares": 7290,
    "ogether": 7291,
    "Ġproton": 7292,
    "ĠOtto": 7293,
    "Ġbalance": 7294,
    "Ġreactive": 7295,
    "ĠAstronom": 7296,
    "ĠEarly": 7297,
    "ĠIsaac": 7298,
    "ĠHub": 7299,
    "ĠHubble": 7300,
    "Ġarches": 7301,
    "parent": 7302,
    "arts": 7303,
    "Ġspreading": 7304,
    "Ġenjoyed": 7305,
    "Ġdisput": 7306,
    "Ġzone": 7307,
    "Ġstrict": 7308,
    "ĠNAT": 7309,
    "ĠNATO": 7310,
    "Ġ1955": 7311,
    "Ġfalling": 7312,
    "Ġrepresenting": 7313,
    "Ġchief": 7314,
    "ĠOrganization": 7315,
    "usually": 7316,
    "ĠCD": 7317,
    "ips": 7318,
    "Ġreducing": 7319,
    "Ġheated": 7320,
    "Ġwax": 7321,
    "ĠScand": 7322,
    "ĠScandin": 7323,
    "Ġmill": 7324,
    "embour": 7325,
    "uxembour": 7326,
    "uxembourg": 7327,
    "gion": 7328,
    "ĠRegion": 7329,
    "ĠTour": 7330,
    "Ġcoup": 7331,
    "Ġtort": 7332,
    "Ġpover": 7333,
    "Ġpoverty": 7334,
    "Ġintegr": 7335,
    "ĠWil": 7336,
    "Ġtalked": 7337,
    "itor": 7338,
    "Ġign": 7339,
    "Ġreforms": 7340,
    "ĠCommission": 7341,
    "oper": 7342,
    "King": 7343,
    "Ġexisting": 7344,
    "Ġboiling": 7345,
    "Ġcup": 7346,
    "Ġcriminal": 7347,
    "sequ": 7348,
    "Ġrh": 7349,
    "Ġrhyth": 7350,
    "Ġdetails": 7351,
    "Ġdespite": 7352,
    "Ġ153": 7353,
    "set": 7354,
    "ĠDevil": 7355,
    "ibility": 7356,
    "Ġbanana": 7357,
    "Ġwinner": 7358,
    "Ġeffic": 7359,
    "ĠCarl": 7360,
    "Ġclearly": 7361,
    "Ġtourist": 7362,
    "Ġarticles": 7363,
    "Ġplanetary": 7364,
    "Ġcalci": 7365,
    "Ġcalcium": 7366,
    "Ġerupt": 7367,
    "Ġcaught": 7368,
    "Ġves": 7369,
    "Ġinteraction": 7370,
    "hrop": 7371,
    "Ġanthrop": 7372,
    "Ġcarb": 7373,
    "Ġcarboh": 7374,
    "rates": 7375,
    "Ġcarbohyd": 7376,
    "Ġhiding": 7377,
    "orra": 7378,
    "Ġpromoted": 7379,
    "ĠGNU": 7380,
    "ĠMain": 7381,
    "uber": 7382,
    "%,": 7383,
    "oga": 7384,
    "Ġoun": 7385,
    "Ġrenamed": 7386,
    "Ġsoldier": 7387,
    "Ġceremon": 7388,
    "Ġshop": 7389,
    "lexible": 7390,
    "Ġflexible": 7391,
    "ĠSI": 7392,
    "Ġkilogram": 7393,
    "Ġmelting": 7394,
    "Ġmusicians": 7395,
    "isis": 7396,
    "Ġcrisis": 7397,
    "Ġfac": 7398,
    "Ġobserver": 7399,
    "Ġgreenhouse": 7400,
    "number": 7401,
    "ĠConfederate": 7402,
    "Ġearned": 7403,
    "Ġtranslation": 7404,
    "Ġpets": 7405,
    "dered": 7406,
    "Ġrealized": 7407,
    "ĠCoca": 7408,
    "Ġassembly": 7409,
    "Ven": 7410,
    "ĠBishop": 7411,
    "itarian": 7412,
    "ĠLady": 7413,
    "Ġresigned": 7414,
    "ĠChelsea": 7415,
    "ĠArsenal": 7416,
    "Ġham": 7417,
    "ĠHus": 7418,
    "sein": 7419,
    "ĠHussein": 7420,
    "ĠLisa": 7421,
    "Ġaudience": 7422,
    "Is": 7423,
    "Ġpers": 7424,
    "Ġvowel": 7425,
    "enic": 7426,
    "ĠPhoenic": 7427,
    "Ġseg": 7428,
    "car": 7429,
    "Ġmechanical": 7430,
    "Water": 7431,
    "Ġfounder": 7432,
    "Ġjail": 7433,
    "You": 7434,
    "Ġalbums": 7435,
    "Ġacted": 7436,
    "ĠAwards": 7437,
    "Ġhors": 7438,
    "Ġhorses": 7439,
    "Ġagricultural": 7440,
    "ĠTasm": 7441,
    "ĠTasmania": 7442,
    "Ġparliamentary": 7443,
    "ĠDarwin": 7444,
    "Ġmast": 7445,
    "Ġgrain": 7446,
    "ĠLouisiana": 7447,
    "Ġrac": 7448,
    "ocol": 7449,
    "ibn": 7450,
    "Ġvertical": 7451,
    "vious": 7452,
    "Ġobvious": 7453,
    "Ġacceleration": 7454,
    "sts": 7455,
    "Ġastronomical": 7456,
    "eda": 7457,
    "Ġ1957": 7458,
    "una": 7459,
    "ĠâĢĶ": 7460,
    "Ġfacts": 7461,
    "400": 7462,
    "Ġrose": 7463,
    "Ġrebu": 7464,
    "Ġreign": 7465,
    "ĠSanta": 7466,
    "Ġ),": 7467,
    "ĠLie": 7468,
    "abs": 7469,
    "lock": 7470,
    "Ġdeals": 7471,
    "ĠGood": 7472,
    "Ġrespiration": 7473,
    "Ġing": 7474,
    "Ġingred": 7475,
    "sometimes": 7476,
    "Ġworth": 7477,
    "Ġchap": 7478,
    "zen": 7479,
    "Ġfrozen": 7480,
    "Ġhistorically": 7481,
    "Ġ('": 7482,
    "ĠHeritage": 7483,
    "ĠAllies": 7484,
    "Ġimprison": 7485,
    "aly": 7486,
    "ĠMach": 7487,
    "ycl": 7488,
    "Ġcontinuous": 7489,
    "heres": 7490,
    "Ġroute": 7491,
    "Ġmonaster": 7492,
    "ili": 7493,
    "ndered": 7494,
    "Ġsurrendered": 7495,
    "ructed": 7496,
    "Ġconstructed": 7497,
    "reg": 7498,
    "mond": 7499,
    "Ġroot": 7500,
    "Ġresear": 7501,
    "Ġresearchers": 7502,
    "Ġconte": 7503,
    "Ġcontext": 7504,
    "Ġmissiles": 7505,
    "Ġprices": 7506,
    "Ġexerc": 7507,
    "Ġexercise": 7508,
    "ĠHell": 7509,
    "Ġcab": 7510,
    "ĠInuit": 7511,
    "Ġcuis": 7512,
    "Ġcuisine": 7513,
    "Ġpossess": 7514,
    "fra": 7515,
    "fraid": 7516,
    "Ġafraid": 7517,
    "Ġdriving": 7518,
    "nel": 7519,
    "Ġpassing": 7520,
    "Ġjoint": 7521,
    "Ġlift": 7522,
    "illes": 7523,
    "Ġmi": 7524,
    "Ġ75": 7525,
    "Ġ1984": 7526,
    "Ġpalace": 7527,
    "Ġadjectives": 7528,
    "DL": 7529,
    "ĠGF": 7530,
    "ĠGFDL": 7531,
    "Ġspecifically": 7532,
    "unity": 7533,
    "Ġearn": 7534,
    "Ġgravitation": 7535,
    "ahu": 7536,
    "Ġtin": 7537,
    "Ġdigest": 7538,
    "iders": 7539,
    "Ġacadem": 7540,
    "Ġacademic": 7541,
    "ĠDepartment": 7542,
    "Ġterrorism": 7543,
    "Ġmedals": 7544,
    "Ġunemployment": 7545,
    "inkans": 7546,
    "ĠShinkans": 7547,
    "ĠShinkansen": 7548,
    "eer": 7549,
    "Ġreproduction": 7550,
    "Ġnominated": 7551,
    "Ġborough": 7552,
    "ashion": 7553,
    "ppen": 7554,
    "ĠÃ": 7555,
    "view": 7556,
    "Ġ1985": 7557,
    "Ġstem": 7558,
    "Ġpredicted": 7559,
    "Ġnaked": 7560,
    "ĠAmster": 7561,
    "ĠAmsterdam": 7562,
    "Ġsen": 7563,
    "isenberg": 7564,
    "ĠHeisenberg": 7565,
    "ĠLi": 7566,
    "Ġillnesses": 7567,
    "Ġoffered": 7568,
    "William": 7569,
    "Ġpowder": 7570,
    "Ġheir": 7571,
    "Ġcamps": 7572,
    "ushc": 7573,
    "Ġsyllable": 7574,
    "ĠOrade": 7575,
    "ĠOradea": 7576,
    "Ġpatient": 7577,
    "Ġpil": 7578,
    "ĠPom": 7579,
    "ĠConfederacy": 7580,
    "ĠPlay": 7581,
    "Ġcondu": 7582,
    "Ġpregnancy": 7583,
    "ĠIraqi": 7584,
    "oshi": 7585,
    "Ġfleet": 7586,
    "Ġeigh": 7587,
    "Ġeighth": 7588,
    "ĠJulius": 7589,
    "Ġscul": 7590,
    "Ġsculpt": 7591,
    "Ġ1954": 7592,
    "Ġengineer": 7593,
    "Ġpossibly": 7594,
    "Ġshortened": 7595,
    "Ġautomatic": 7596,
    "ĠCam": 7597,
    "ĠCambr": 7598,
    "French": 7599,
    "Ġvarieties": 7600,
    "Ġharvest": 7601,
    "Ġbreeding": 7602,
    "ĠAdd": 7603,
    "Ġvectors": 7604,
    "Ġdiamonds": 7605,
    "ĠQueens": 7606,
    "Ġplains": 7607,
    "Ġcarefully": 7608,
    "who": 7609,
    "Ġhockey": 7610,
    "Ġsoccer": 7611,
    "Ġtenn": 7612,
    "Ġtennis": 7613,
    "Ġtourn": 7614,
    "Ġcompetitions": 7615,
    "Ġacr": 7616,
    "ĠDaniel": 7617,
    "akespe": 7618,
    "akespeare": 7619,
    "ĠShakespeare": 7620,
    "Ġlogical": 7621,
    "Ġvari": 7622,
    "Ġ49": 7623,
    "Ġancestor": 7624,
    "lesh": 7625,
    "Ġflesh": 7626,
    "Ġded": 7627,
    "Ġinput": 7628,
    "Ġdefinitions": 7629,
    "Ġmultiplied": 7630,
    "action": 7631,
    "ĠUsing": 7632,
    "Ġphilosophical": 7633,
    "Ġmicroscope": 7634,
    "Ġsmell": 7635,
    "Ġcircular": 7636,
    "Ġattracted": 7637,
    "ydrogen": 7638,
    "Ġpredictions": 7639,
    "Ġintensity": 7640,
    "Ġfrequencies": 7641,
    "Ġnotice": 7642,
    "Ġcheaper": 7643,
    "iology": 7644,
    "inction": 7645,
    "contin": 7646,
    "Ġfounding": 7647,
    "Ġemp": 7648,
    "Ġadvantage": 7649,
    "Ġpresence": 7650,
    "Ġvia": 7651,
    "Ġspending": 7652,
    "eland": 7653,
    "Ġrepeated": 7654,
    "ĠEconom": 7655,
    "Ġoral": 7656,
    "Ġmembr": 7657,
    "Ġcalculus": 7658,
    "Ġdisk": 7659,
    "Ġcredit": 7660,
    "Of": 7661,
    "wed": 7662,
    "Ġhob": 7663,
    "ĠBirmingham": 7664,
    "Ind": 7665,
    "Ġbub": 7666,
    "Ġantib": 7667,
    "Ġsisters": 7668,
    "ĠForce": 7669,
    "ĠPier": 7670,
    "Ġfilms": 7671,
    "olished": 7672,
    "Ġabolished": 7673,
    "commun": 7674,
    "Ġhydroxide": 7675,
    "Ġkeyboard": 7676,
    "Ġinstruction": 7677,
    "Ġ1910": 7678,
    "70": 7679,
    "Several": 7680,
    "Ġremembered": 7681,
    "Ġhypothes": 7682,
    "Ġlisten": 7683,
    "Ġritual": 7684,
    "Ġusual": 7685,
    "Ġdescri": 7686,
    "Ġdescription": 7687,
    "Ġsurve": 7688,
    "earch": 7689,
    "ĠResearch": 7690,
    "Ġteachings": 7691,
    "Ġinvade": 7692,
    "Ġpetrole": 7693,
    "Ġpetroleum": 7694,
    "Ġdancing": 7695,
    "Ġfairly": 7696,
    "Ġspelled": 7697,
    "Ġindic": 7698,
    "Ġpopularity": 7699,
    "Elizabeth": 7700,
    "Ġphotosynthesis": 7701,
    "icon": 7702,
    "Ġpoles": 7703,
    "Ġblind": 7704,
    "ĠSlavic": 7705,
    "Ġexplosion": 7706,
    "Ġtreatments": 7707,
    "iedrich": 7708,
    "ĠFriedrich": 7709,
    "Ġ1988": 7710,
    "ĠMond": 7711,
    "ĠMonday": 7712,
    "Ġwearing": 7713,
    "Ġ1903": 7714,
    "Sax": 7715,
    "Ġsynt": 7716,
    "ĠMontreal": 7717,
    "ĠBrah": 7718,
    "Ġrepresentative": 7719,
    "Ġanarch": 7720,
    "ĠCatherine": 7721,
    "Ġ64": 7722,
    "Ġchicken": 7723,
    "ĠFilipinos": 7724,
    "ussol": 7725,
    "ussolini": 7726,
    "ĠMussolini": 7727,
    "Ġore": 7728,
    "ĠScience": 7729,
    "Ġexposed": 7730,
    "ĠSatur": 7731,
    "ĠSaturday": 7732,
    "ĠHispan": 7733,
    "Ġwooden": 7734,
    "Ġsitting": 7735,
    "Ġmagnitude": 7736,
    "Ġextended": 7737,
    "ĠBirds": 7738,
    "Ġsheet": 7739,
    "ĠJersey": 7740,
    "IX": 7741,
    "Ġexpression": 7742,
    "abulary": 7743,
    "Ġvocabulary": 7744,
    "ĠLu": 7745,
    "ethe": 7746,
    "ĠSheff": 7747,
    "ĠSheffield": 7748,
    "ĠHoloc": 7749,
    "ĠHolocaust": 7750,
    "ĠReserve": 7751,
    "anden": 7752,
    "andenburg": 7753,
    "ota": 7754,
    "Ġslee": 7755,
    "Ġsleeves": 7756,
    "ĠTaylor": 7757,
    "Ġmagazine": 7758,
    "ĠEdo": 7759,
    "Ġdiagn": 7760,
    "Ġfores": 7761,
    "Ġforesk": 7762,
    "Ġforeskin": 7763,
    "ĠMedici": 7764,
    "poles": 7765,
    "adpoles": 7766,
    "Ġtadpoles": 7767,
    "Ġwish": 7768,
    "Ġdating": 7769,
    "Ġdrama": 7770,
    "Ġquantities": 7771,
    "Ġtriangle": 7772,
    "glas": 7773,
    "ĠDouglas": 7774,
    "Ġsmoke": 7775,
    "ĠFire": 7776,
    "Ġenvironmental": 7777,
    "ĠBasque": 7778,
    "ĠCapital": 7779,
    "ĠTuring": 7780,
    "Ġpromin": 7781,
    "Ġprominent": 7782,
    "Us": 7783,
    "Ġ33": 7784,
    "Ġteachers": 7785,
    "Ġsheep": 7786,
    "lection": 7787,
    "ĠOceania": 7788,
    "Ġinland": 7789,
    "Ġbillions": 7790,
    "Ġmanagement": 7791,
    "ĠOper": 7792,
    "ĠFederation": 7793,
    "ogue": 7794,
    "Ġ1942": 7795,
    "Ġorganised": 7796,
    "aments": 7797,
    "Ġfestival": 7798,
    "food": 7799,
    "Ġrefere": 7800,
    "Ġdoesn": 7801,
    "Ġplague": 7802,
    "Ġwheels": 7803,
    "Ġloose": 7804,
    "ils": 7805,
    "ĠEventually": 7806,
    "Ġdescendants": 7807,
    "western": 7808,
    "Washington": 7809,
    "ylon": 7810,
    "ĠBabylon": 7811,
    "uhammad": 7812,
    "ĠMuhammad": 7813,
    "Ġdried": 7814,
    "Ġshells": 7815,
    "Ġobservation": 7816,
    "over": 7817,
    "but": 7818,
    "ray": 7819,
    "Ġastr": 7820,
    "Great": 7821,
    "Ġwinters": 7822,
    "perors": 7823,
    "Ġreaching": 7824,
    "Ġrecognize": 7825,
    "Ġbombing": 7826,
    "Ġseventh": 7827,
    "ĠPeace": 7828,
    "Ġdecline": 7829,
    "ĠArn": 7830,
    "Ġdissolved": 7831,
    "abol": 7832,
    "Ġmetabol": 7833,
    "Ġmammal": 7834,
    "Ġsituations": 7835,
    "uff": 7836,
    "Ġbrings": 7837,
    "Ġoffers": 7838,
    "Ġsupernatural": 7839,
    "Ġresidents": 7840,
    "ĠSqu": 7841,
    "ĠSquare": 7842,
    "class": 7843,
    "Ġvalle": 7844,
    "Ġvalleys": 7845,
    "Ġoceanic": 7846,
    "ĠBetween": 7847,
    "ĠJean": 7848,
    "Ġdriver": 7849,
    "Ġmine": 7850,
    "Ġbrand": 7851,
    "oring": 7852,
    "Ġwrites": 7853,
    "Ġclock": 7854,
    "uum": 7855,
    "Ġvacuum": 7856,
    "Ġplatform": 7857,
    "Ġphrases": 7858,
    "China": 7859,
    "Ġrelatives": 7860,
    "Ġmigr": 7861,
    "iform": 7862,
    "Ġvirt": 7863,
    "Ġlawy": 7864,
    "iests": 7865,
    "Ġpriests": 7866,
    "Ġboys": 7867,
    "ĠDict": 7868,
    "Ġjudge": 7869,
    "ambling": 7870,
    "Ġgambling": 7871,
    "Ġhorizontal": 7872,
    "17": 7873,
    "Ġcoin": 7874,
    "Ġpaying": 7875,
    "Ġbasket": 7876,
    "Ġprimarily": 7877,
    "Ġcelebration": 7878,
    "Ġresur": 7879,
    "Ġupd": 7880,
    "Ġ(),": 7881,
    "Over": 7882,
    "Ġpresents": 7883,
    "cing": 7884,
    "Ġ48": 7885,
    "%).": 7886,
    "Ġlaid": 7887,
    "Ġstorms": 7888,
    "Ġinteractions": 7889,
    "oys": 7890,
    "Ġ1987": 7891,
    "Ġflame": 7892,
    "Ġchopsticks": 7893,
    "ptiles": 7894,
    "Ġreptiles": 7895,
    "Ġfibres": 7896,
    "Ġcolonial": 7897,
    "Ġ1924": 7898,
    "ĠLakes": 7899,
    "Ġlicensed": 7900,
    "Ġserving": 7901,
    "allel": 7902,
    "Ġparallel": 7903,
    "aven": 7904,
    "Ġshield": 7905,
    "Ġlava": 7906,
    "bt": 7907,
    "Ġalk": 7908,
    "Ġalkal": 7909,
    "common": 7910,
    "Ġtraits": 7911,
    "Ġboundary": 7912,
    "ĠKerry": 7913,
    "25": 7914,
    "ĠMarino": 7915,
    "ĠOff": 7916,
    "ĠArabian": 7917,
    "epal": 7918,
    "ĠNepal": 7919,
    "Ġfastest": 7920,
    "ĠHindi": 7921,
    "Ġzones": 7922,
    "ĠPop": 7923,
    "Ġlying": 7924,
    "egas": 7925,
    "ĠVegas": 7926,
    "ĠEl": 7927,
    "Ġlion": 7928,
    "Ġvibr": 7929,
    "Ġcolumns": 7930,
    "Like": 7931,
    "Ġbreeds": 7932,
    "ĠTuvalu": 7933,
    "pet": 7934,
    "Ne": 7935,
    "Ġ1865": 7936,
    "Ġhumidity": 7937,
    "Pr": 7938,
    "Ġsupporting": 7939,
    "Se": 7940,
    "Ġwore": 7941,
    "Ġpaw": 7942,
    "Ġpawn": 7943,
    "ĠSociety": 7944,
    "atl": 7945,
    "Ġpresidents": 7946,
    "ĠRussians": 7947,
    "Ġfrog": 7948,
    "ĠLithium": 7949,
    "ĠBavaria": 7950,
    "Ġbid": 7951,
    "ĠMargaret": 7952,
    "ĠIpswich": 7953,
    "ĠNancy": 7954,
    "Ġchildhood": 7955,
    "ernel": 7956,
    "Ġkernel": 7957,
    "Ġacne": 7958,
    "Ġpencils": 7959,
    "Ġarrange": 7960,
    "ĠPersia": 7961,
    "Ġmodified": 7962,
    "tr": 7963,
    "Earth": 7964,
    "Ġcomposition": 7965,
    "Ġautonomous": 7966,
    "ĠCountry": 7967,
    "Ġ1936": 7968,
    "icide": 7969,
    "ĠBrown": 7970,
    "writ": 7971,
    "So": 7972,
    "Ġpork": 7973,
    "rig": 7974,
    "ĠUntil": 7975,
    "Ġpens": 7976,
    "Ġvoyage": 7977,
    "ĠCapt": 7978,
    "ĠCaptain": 7979,
    "Ġattacking": 7980,
    "ĠHow": 7981,
    "Ġachieved": 7982,
    "seas": 7983,
    "Ġrugby": 7984,
    "ĠLoc": 7985,
    "Ġmonot": 7986,
    "Ġconson": 7987,
    "ĠArk": 7988,
    "uter": 7989,
    "Ġprotects": 7990,
    "Ġcovering": 7991,
    "Ġaspe": 7992,
    "Ġaspects": 7993,
    "mi": 7994,
    "ĠElectr": 7995,
    "Ġneutron": 7996,
    "Ġrequires": 7997,
    "mass": 7998,
    "Ġstrongest": 7999,
    "Ġsupernov": 8000,
    "isations": 8001,
    "Ġestimate": 8002,
    "ĠJohannes": 8003,
    "ĠSimilar": 8004,
    "Ġsatellites": 8005,
    "Ġexpos": 8006,
    "Ġmirror": 8007,
    "iques": 8008,
    "Ġtechniques": 8009,
    "Ġconstantly": 8010,
    "Ġlights": 8011,
    "Ġpal": 8012,
    "ĠIndust": 8013,
    "ruce": 8014,
    "Ġhospitals": 8015,
    "ervous": 8016,
    "Ġnervous": 8017,
    "Ġtravels": 8018,
    "ĠNear": 8019,
    "cons": 8020,
    "Ġprotests": 8021,
    "Ġcoastline": 8022,
    "appe": 8023,
    "Ġdisappe": 8024,
    "Ġretired": 8025,
    "Ġinfluential": 8026,
    "Ġsingular": 8027,
    "ĠAustrian": 8028,
    "ev": 8029,
    "Ġhom": 8030,
    "Ġreveal": 8031,
    "Ġedges": 8032,
    "Ġprofit": 8033,
    "Ġnoted": 8034,
    "Ġforeigners": 8035,
    "ĠDue": 8036,
    "Ġlie": 8037,
    "ĠArm": 8038,
    "Three": 8039,
    "Ġ1977": 8040,
    "Ġmathematicians": 8041,
    "Ġsax": 8042,
    "Ġsaxoph": 8043,
    "ani": 8044,
    "ĠSpani": 8045,
    "ĠSpaniards": 8046,
    "Ġreleases": 8047,
    "Ġcorrectly": 8048,
    "Ġalgor": 8049,
    "Ġsuddenly": 8050,
    "Ġchallenge": 8051,
    "Ġmeteor": 8052,
    "Ġuncertain": 8053,
    "Ġarist": 8054,
    "Ġaristocr": 8055,
    "Ġsupporters": 8056,
    "ressed": 8057,
    "Japanese": 8058,
    "Ġhappiness": 8059,
    "Ġnone": 8060,
    "Ġtube": 8061,
    "ishops": 8062,
    "Ġbishops": 8063,
    "first": 8064,
    "Ġdiscipl": 8065,
    "Ġru": 8066,
    "bury": 8067,
    "Ġinfrast": 8068,
    "Ġinfrastruct": 8069,
    "Ġinfrastructure": 8070,
    "Ġplanning": 8071,
    "Ġgirls": 8072,
    "Ġaccidents": 8073,
    "Ġdecides": 8074,
    "ĠTe": 8075,
    "Ġhidden": 8076,
    "ĠLife": 8077,
    "Ġjoins": 8078,
    "Ġslower": 8079,
    "Ġdomain": 8080,
    "Ġquantity": 8081,
    "Ġfavor": 8082,
    "ĠSumer": 8083,
    "Ġtrig": 8084,
    "Ġ149": 8085,
    "ĠCuban": 8086,
    "ĠKenned": 8087,
    "ĠKennedy": 8088,
    "Ġreven": 8089,
    "ĠNich": 8090,
    "ĠNichol": 8091,
    "ĠNicholas": 8092,
    "')": 8093,
    "Ġelectroly": 8094,
    "ading": 8095,
    "Ġcustoms": 8096,
    "Ġamb": 8097,
    "Einstein": 8098,
    "Ġdirector": 8099,
    "Ġreproduce": 8100,
    "Ġcutting": 8101,
    "Jan": 8102,
    "Ġut": 8103,
    "Ġrestaurants": 8104,
    "Ġpassage": 8105,
    "Ġmuscle": 8106,
    "Lat": 8107,
    "Latin": 8108,
    "Ġcoat": 8109,
    "ĠFinnish": 8110,
    "ĠDuchy": 8111,
    "Ġconnections": 8112,
    "Ġvoting": 8113,
    "Ġcompete": 8114,
    "Ġlicenses": 8115,
    "ikh": 8116,
    "Ġefforts": 8117,
    "Ġvul": 8118,
    "Ġvulner": 8119,
    "Ġdatabase": 8120,
    "Ġopposition": 8121,
    "Ġgenerations": 8122,
    "non": 8123,
    "Ġadvice": 8124,
    "Ġ/": 8125,
    "Ġastronomer": 8126,
    "Ġservers": 8127,
    "ĠMediaW": 8128,
    "ĠMediaWiki": 8129,
    "Ġinherited": 8130,
    "Ġsticks": 8131,
    "rier": 8132,
    "Ġbirthday": 8133,
    "Jupiter": 8134,
    "Ġsulfide": 8135,
    "Ġinfrared": 8136,
    "But": 8137,
    "Ġmetre": 8138,
    "Ġminute": 8139,
    "Ġpowered": 8140,
    "Ġfer": 8141,
    "ĠMusic": 8142,
    "Ġsymph": 8143,
    "Ġquart": 8144,
    "Ġrevol": 8145,
    "Ġrises": 8146,
    "Ġ38": 8147,
    "Ġpromise": 8148,
    "Ġinstalled": 8149,
    "ĠâĪĴ": 8150,
    "Ġinterface": 8151,
    "Ġfocused": 8152,
    "ĠStat": 8153,
    "Ġnumeral": 8154,
    "ĠMax": 8155,
    "Ġtires": 8156,
    "ĠKu": 8157,
    "ĠKuw": 8158,
    "ĠKuwait": 8159,
    "bled": 8160,
    "Ġ1867": 8161,
    "Ġhearing": 8162,
    "Ġpassenger": 8163,
    "ulg": 8164,
    "Ġexternal": 8165,
    "Ġdanger": 8166,
    "Ġbroadcasting": 8167,
    "Ġphase": 8168,
    "Ġfreezing": 8169,
    "ĠStephen": 8170,
    "Ġchampions": 8171,
    "imar": 8172,
    "ĠGrant": 8173,
    "ĠBorough": 8174,
    "Ġcuts": 8175,
    "Ġwires": 8176,
    "ĠGuild": 8177,
    "ilda": 8178,
    "ĠMatilda": 8179,
    "ĠSpears": 8180,
    "ĠGellar": 8181,
    "Ġcalendars": 8182,
    "Ġseasonal": 8183,
    "Ġsenses": 8184,
    "Ġcave": 8185,
    "ĠUpper": 8186,
    "Ġlabel": 8187,
    "ĠWithout": 8188,
    "Ġash": 8189,
    "Ġ1912": 8190,
    ".âĢĿ": 8191,
    "ĠEngine": 8192,
    "ysical": 8193,
    "ĠMes": 8194,
    "athe": 8195,
    "Ġgathe": 8196,
    "Ġgathered": 8197,
    "Ġpest": 8198,
    "Ġmatric": 8199,
    "Ġmatrices": 8200,
    "Ġexpressed": 8201,
    "ĠBob": 8202,
    "ela": 8203,
    "ĠCoast": 8204,
    "ĠCook": 8205,
    "Ġsailors": 8206,
    "Ġeleven": 8207,
    "Ġprepare": 8208,
    "che": 8209,
    "Ġvoices": 8210,
    "Hungary": 8211,
    "Ġeverybody": 8212,
    "ĠSte": 8213,
    "Ġcenters": 8214,
    "Ġabb": 8215,
    "ĠNAS": 8216,
    "ĠNASA": 8217,
    "Ġdiscussed": 8218,
    "Ġmentioned": 8219,
    "Ġelsewhere": 8220,
    "Ġarguments": 8221,
    "ĠIndians": 8222,
    "aj": 8223,
    "Ġgenus": 8224,
    "Ġbaked": 8225,
    "ropical": 8226,
    "Ġsubtropical": 8227,
    "Ġ44": 8228,
    "ĠSmall": 8229,
    "Ġphone": 8230,
    "Ġsomewhat": 8231,
    "Ġswit": 8232,
    "Ġ1932": 8233,
    "Later": 8234,
    "Ġlasting": 8235,
    "stable": 8236,
    "ĠArabs": 8237,
    "Ġexpanding": 8238,
    "Ġoperated": 8239,
    "ĠLight": 8240,
    "uy": 8241,
    "Ġprofession": 8242,
    "keleton": 8243,
    "Ġstrik": 8244,
    "Ġterrorist": 8245,
    "state": 8246,
    "Ġadopt": 8247,
    "nivores": 8248,
    "orrow": 8249,
    "Ġborrow": 8250,
    "British": 8251,
    "Ġ1928": 8252,
    "ims": 8253,
    "two": 8254,
    "Ġtransm": 8255,
    "Ġsamples": 8256,
    "Ġbehave": 8257,
    "Ġmerged": 8258,
    "ĠLuxembourg": 8259,
    "ĠPrussian": 8260,
    "Ġlandsc": 8261,
    "Ġlandscape": 8262,
    "Ġ1860": 8263,
    "Ġmusician": 8264,
    "Ġanymore": 8265,
    "ĠFI": 8266,
    "ĠFIFA": 8267,
    "ĠCopper": 8268,
    "Ġmasses": 8269,
    "Comput": 8270,
    "Ġcompil": 8271,
    "Ġargue": 8272,
    "Ġcheap": 8273,
    "Ġbare": 8274,
    "ded": 8275,
    "Ġcarries": 8276,
    "ĠEurasia": 8277,
    "Ġbrief": 8278,
    "RC": 8279,
    "Ġrebellion": 8280,
    "Ġcreator": 8281,
    "Ġmild": 8282,
    "Ġexception": 8283,
    "ynes": 8284,
    "Ġcurve": 8285,
    "ĠPythag": 8286,
    "without": 8287,
    "Ġcomic": 8288,
    "Ġvision": 8289,
    "Old": 8290,
    "orld": 8291,
    "ĠWide": 8292,
    "Ġdimension": 8293,
    "ĠAdvent": 8294,
    "Ġconnection": 8295,
    "assium": 8296,
    "Ġpotassium": 8297,
    "this": 8298,
    "rection": 8299,
    "uma": 8300,
    "ĠEurop": 8301,
    "ĠEuropa": 8302,
    "Ġhired": 8303,
    "Ġexperimental": 8304,
    "Ġstorm": 8305,
    "aration": 8306,
    "Ġ1971": 8307,
    "Ġcarbohydrates": 8308,
    "Ġcircles": 8309,
    "ĠAndorra": 8310,
    "ĠBon": 8311,
    "Ġassociation": 8312,
    "!\"": 8313,
    "Ġcriticized": 8314,
    "Ġspiral": 8315,
    "Ġtrillion": 8316,
    "Ġprogrammes": 8317,
    "Ġreserves": 8318,
    "Ġreacts": 8319,
    "Ġ1921": 8320,
    "ĠAg": 8321,
    "Ġ43": 8322,
    "ĠDef": 8323,
    "owers": 8324,
    "irect": 8325,
    "Ġindirect": 8326,
    "Ġlingu": 8327,
    "Ġweapon": 8328,
    "ĠAIDS": 8329,
    "ĠWal": 8330,
    "ĠWalter": 8331,
    "Ġcrew": 8332,
    "ĠStock": 8333,
    "Ġcrus": 8334,
    "Ġplanes": 8335,
    "Ġchromosomes": 8336,
    "Ġneur": 8337,
    "Ġneurons": 8338,
    "Ġprinciples": 8339,
    "vention": 8340,
    "ĠConvention": 8341,
    "ĠCir": 8342,
    "Ġcourses": 8343,
    "Ġskins": 8344,
    "Ġsn": 8345,
    "Ġbag": 8346,
    "66": 8347,
    "Ġpitch": 8348,
    "Ġtone": 8349,
    "Ġstood": 8350,
    "Ġcras": 8351,
    "Ġcrashed": 8352,
    "auru": 8353,
    "Ġdrawings": 8354,
    "alia": 8355,
    "Ġeducational": 8356,
    "antum": 8357,
    "Once": 8358,
    "Ġarmed": 8359,
    "level": 8360,
    "Ġtruck": 8361,
    "ĠVist": 8362,
    "Ġcommandments": 8363,
    "hand": 8364,
    "Ġ1923": 8365,
    "ĠBasil": 8366,
    "Ġbrowsers": 8367,
    "ĠZinc": 8368,
    "och": 8369,
    "Ġrecommended": 8370,
    "ĠBolsheviks": 8371,
    "ĠGorb": 8372,
    "ĠGorbac": 8373,
    "ĠGorbachev": 8374,
    "ammers": 8375,
    "onia": 8376,
    "eo": 8377,
    "Ġpropaganda": 8378,
    "ologne": 8379,
    "utt": 8380,
    "Ġdiagram": 8381,
    "atson": 8382,
    "ĠWatson": 8383,
    "Ġhammer": 8384,
    "Ġtum": 8385,
    "ĠDante": 8386,
    "ĠAugustus": 8387,
    "Ġvisual": 8388,
    "Ġthoughts": 8389,
    "ĠVinci": 8390,
    "ĠHumans": 8391,
    "Ġinfluences": 8392,
    "Ġ1978": 8393,
    "Ġeducated": 8394,
    "Ġproducing": 8395,
    "Ġcitizen": 8396,
    "80": 8397,
    "ĠLarge": 8398,
    "Ġgolden": 8399,
    "ĠVan": 8400,
    "Ġbrick": 8401,
    "ĠLud": 8402,
    "Ġtravelled": 8403,
    "Ġ1914": 8404,
    "olm": 8405,
    "language": 8406,
    "ĠOpen": 8407,
    "Ġneighbour": 8408,
    "Ġoriginated": 8409,
    "Ġhabit": 8410,
    "Ġoccasionally": 8411,
    "ĠCommand": 8412,
    "ĠCommandments": 8413,
    "Ġprepared": 8414,
    "Ġflew": 8415,
    "Ġfaced": 8416,
    "Ġrates": 8417,
    "Ġsomewhere": 8418,
    "uice": 8419,
    "Ġjuice": 8420,
    "Ġsynag": 8421,
    "Ġgraphs": 8422,
    "Ġlin": 8423,
    "ependent": 8424,
    "verse": 8425,
    "Ġpollen": 8426,
    "Ġattraction": 8427,
    "Ġrelation": 8428,
    "Ġdefines": 8429,
    "Ġstays": 8430,
    "Ġturning": 8431,
    "Ġsample": 8432,
    "ĠEgyptians": 8433,
    "ĠMauna": 8434,
    "ĠLow": 8435,
    "ĠVoyager": 8436,
    "iffel": 8437,
    "ĠEiffel": 8438,
    "Ġsummers": 8439,
    "ĠIndus": 8440,
    "Ġgeology": 8441,
    "Ġaccused": 8442,
    "ĠCountries": 8443,
    "Ġminorities": 8444,
    "ĠAndes": 8445,
    "Ġrestored": 8446,
    "ĠPolo": 8447,
    "ĠSloven": 8448,
    "urrent": 8449,
    "dn": 8450,
    "ĠHay": 8451,
    "ĠHaydn": 8452,
    "ĠYoung": 8453,
    "Ġsubd": 8454,
    "Ġinterpretation": 8455,
    "Ġmode": 8456,
    "Ġusage": 8457,
    "Ġingredients": 8458,
    "ĠCups": 8459,
    "Ġeats": 8460,
    "Ġhoney": 8461,
    "ĠMen": 8462,
    "Ġhistoric": 8463,
    "atoes": 8464,
    "Ġmixing": 8465,
    "Ġenters": 8466,
    "?\"": 8467,
    "etics": 8468,
    "Ġgenetics": 8469,
    "Ġshift": 8470,
    "Ġtip": 8471,
    "Ġsmo": 8472,
    "Ġsmooth": 8473,
    "Ġfertile": 8474,
    "aval": 8475,
    "Ġcart": 8476,
    "antic": 8477,
    "Ġ1889": 8478,
    "Ġimprisoned": 8479,
    "orage": 8480,
    "tons": 8481,
    "Ġtheater": 8482,
    "Ġanalog": 8483,
    "poration": 8484,
    "Ġprojects": 8485,
    "Ġfing": 8486,
    "Ġterre": 8487,
    "Ġterrestr": 8488,
    "Ġterrestrial": 8489,
    "ĠMao": 8490,
    "Ġprogress": 8491,
    "Ġalliance": 8492,
    "scale": 8493,
    "Ġchoir": 8494,
    "ĠRichmond": 8495,
    "Ġcrow": 8496,
    "Ġmeetings": 8497,
    "ĠLabour": 8498,
    "Ġmarine": 8499,
    "Ġspecialized": 8500,
    "group": 8501,
    "Ġradius": 8502,
    "Ġcircumference": 8503,
    "Ġfriendly": 8504,
    "Ġrhythm": 8505,
    "Ġprimitive": 8506,
    "Ġthrowing": 8507,
    "Ġorange": 8508,
    "Ġneighb": 8509,
    "Ġfeast": 8510,
    "undant": 8511,
    "Ġabundant": 8512,
    "lan": 8513,
    "Ġsheets": 8514,
    "Ġmethane": 8515,
    "Ġhotter": 8516,
    "ĠCont": 8517,
    "rol": 8518,
    "Ġsurfaces": 8519,
    "roat": 8520,
    "Ġcandidates": 8521,
    "ĠVice": 8522,
    "ilty": 8523,
    "Ġguilty": 8524,
    "fin": 8525,
    "Ġdescended": 8526,
    "Ġnose": 8527,
    "Ġsells": 8528,
    "ĠDoctors": 8529,
    "ees": 8530,
    "clus": 8531,
    "Ġunified": 8532,
    "Ġaffairs": 8533,
    "Ġ1870": 8534,
    "nost": 8535,
    "Ġagnost": 8536,
    "Ġsales": 8537,
    "aters": 8538,
    "ucation": 8539,
    "Ġestimates": 8540,
    "\"\"": 8541,
    "ĠFather": 8542,
    "Ġfeeling": 8543,
    "ĠDomin": 8544,
    "Ġclust": 8545,
    "Ġclusters": 8546,
    "Haw": 8547,
    "Ġcarved": 8548,
    "ĠBuddhists": 8549,
    "ĠBen": 8550,
    "ĠDom": 8551,
    "Ġlifetime": 8552,
    "cell": 8553,
    "hu": 8554,
    "ima": 8555,
    "ĠHir": 8556,
    "oshima": 8557,
    "ĠHiroshima": 8558,
    "aka": 8559,
    "ĠOsaka": 8560,
    "ĠMalta": 8561,
    "ĠJim": 8562,
    "uesday": 8563,
    "resp": 8564,
    "Ġcorresp": 8565,
    "Ġmagazines": 8566,
    "ĠNowadays": 8567,
    "ĠÃĹ": 8568,
    "Ġscur": 8569,
    "vy": 8570,
    "Ġscurvy": 8571,
    "Ġacidic": 8572,
    "Ġrely": 8573,
    "Ġvaried": 8574,
    "ĠBlues": 8575,
    "Ġmarch": 8576,
    "asure": 8577,
    "18": 8578,
    "ĠTitan": 8579,
    "Ġstreams": 8580,
    "Ġgluc": 8581,
    "Ġglucose": 8582,
    "Ġcandle": 8583,
    "zantine": 8584,
    "ĠByzantine": 8585,
    "cca": 8586,
    "ĠMecca": 8587,
    "Ġchains": 8588,
    "Ġratio": 8589,
    "Ġcot": 8590,
    "Ġcotton": 8591,
    "fix": 8592,
    "ĠBro": 8593,
    "ĠBrook": 8594,
    "ico": 8595,
    "Ġvowels": 8596,
    "Ġtank": 8597,
    "isdom": 8598,
    "Ġwisdom": 8599,
    "ĠMod": 8600,
    "ĠModel": 8601,
    "party": 8602,
    "making": 8603,
    "Ġ1966": 8604,
    "Ġinjured": 8605,
    "Ġjournal": 8606,
    "Ġintended": 8607,
    "TP": 8608,
    "Ġtribut": 8609,
    "Ġmaster": 8610,
    "Ġprisoners": 8611,
    "Ġsaint": 8612,
    "ĠCommons": 8613,
    "Ġgrey": 8614,
    "Ġpope": 8615,
    "tt": 8616,
    "Ġcorros": 8617,
    "ĠProject": 8618,
    "ĠCort": 8619,
    "Ġ1848": 8620,
    "oslovakia": 8621,
    "ĠCzechoslovakia": 8622,
    "ĠUTC": 8623,
    "ĠServer": 8624,
    "Ġunable": 8625,
    "ĠPrinci": 8626,
    "ĠPrincip": 8627,
    "Ġdivorced": 8628,
    "Ġcircumc": 8629,
    "Leonardo": 8630,
    "Ġpatron": 8631,
    "Ġreleg": 8632,
    "Ġrelegated": 8633,
    "burn": 8634,
    "Ġvault": 8635,
    "flies": 8636,
    "kers": 8637,
    "ĠWorkers": 8638,
    "Ġerect": 8639,
    "ÃŃv": 8640,
    "ĠBolÃŃv": 8641,
    "ĠBolÃŃvar": 8642,
    "Hindu": 8643,
    "oolidge": 8644,
    "Singapore": 8645,
    "ĠTrevi": 8646,
    "Ġtoads": 8647,
    "rodite": 8648,
    "Ġ700": 8649,
    "Ġtwentiet": 8650,
    "Ġtwentieth": 8651,
    "Ġoccasions": 8652,
    "ĠCarbon": 8653,
    "ublin": 8654,
    "ĠDublin": 8655,
    "Ġsaved": 8656,
    "Ġcommitted": 8657,
    "Her": 8658,
    "Ġtechnical": 8659,
    "Ġ120": 8660,
    "300": 8661,
    "Ġ1901": 8662,
    "ĠNewc": 8663,
    "ĠNewcastle": 8664,
    "ĠStrait": 8665,
    "Ġthrown": 8666,
    "Ġescaped": 8667,
    "ĠWomen": 8668,
    "Ġrichest": 8669,
    "Ġsingers": 8670,
    "Ġeconomies": 8671,
    "Ġencouraged": 8672,
    "ĠPatrick": 8673,
    "ĠHolly": 8674,
    "ĠHollywood": 8675,
    "ĠDund": 8676,
    "ĠDundee": 8677,
    "ĠNic": 8678,
    "Ġoils": 8679,
    "Ġfrequently": 8680,
    "Ġfrequent": 8681,
    "archy": 8682,
    "Ġspirits": 8683,
    "Ġtasks": 8684,
    "Ġhero": 8685,
    "kes": 8686,
    "Ġneare": 8687,
    "ĠChristop": 8688,
    "ĠChristopher": 8689,
    "ĠNorse": 8690,
    "Ġforever": 8691,
    "Ġslope": 8692,
    "Ġdependent": 8693,
    "Note": 8694,
    "Ġreci": 8695,
    "Ġabstr": 8696,
    "Ġabstract": 8697,
    "ĠTogether": 8698,
    "ĠFred": 8699,
    "Ġquark": 8700,
    "Ġmetallic": 8701,
    "Ġpriest": 8702,
    "Ġasteroid": 8703,
    "Ġconquest": 8704,
    "continent": 8705,
    "Ġthreatened": 8706,
    "Ġ1880": 8707,
    "Ġoverthrow": 8708,
    "Ġrestric": 8709,
    "Ġrestricted": 8710,
    "ĠList": 8711,
    "Ġbordered": 8712,
    "Ġrainy": 8713,
    "pop": 8714,
    "ĠHabs": 8715,
    "ĠAnton": 8716,
    "Ġce": 8717,
    "itu": 8718,
    "Ġconstitu": 8719,
    "ĠAre": 8720,
    "ĠArea": 8721,
    "Ġenvironments": 8722,
    "Ġdrunk": 8723,
    "Ġoperate": 8724,
    "Ġapplication": 8725,
    "Ġjourney": 8726,
    "Ġens": 8727,
    "Hum": 8728,
    "Ġinfected": 8729,
    "Ġextensive": 8730,
    "ĠYears": 8731,
    "ĠPierre": 8732,
    "Ġscene": 8733,
    "Ġ1911": 8734,
    "Ġfights": 8735,
    "Ġrainfore": 8736,
    "ĠPolice": 8737,
    "Ġplastics": 8738,
    "Ġlighter": 8739,
    "Ġburns": 8740,
    "Ġcontained": 8741,
    "Ġadjust": 8742,
    "Ġautomatically": 8743,
    "ĠCor": 8744,
    "Ġmechanism": 8745,
    "Ġopinions": 8746,
    "Ġcoldest": 8747,
    "quatic": 8748,
    "aoism": 8749,
    "Chinese": 8750,
    "ĠPeriod": 8751,
    "Ġchor": 8752,
    "izo": 8753,
    "Ġchorizo": 8754,
    "Ġspices": 8755,
    "Ġentrance": 8756,
    "Ġmonks": 8757,
    "ĠChurches": 8758,
    "Ġsuburbs": 8759,
    "ucks": 8760,
    "Ġconsequ": 8761,
    "Ġworst": 8762,
    "ĠRay": 8763,
    "Ġsurvey": 8764,
    "Ġdoll": 8765,
    "Ġdollars": 8766,
    "ĠBarb": 8767,
    "ĠLeibn": 8768,
    "ĠLeibniz": 8769,
    "Ġequally": 8770,
    "Ġdivide": 8771,
    "Ġrectangle": 8772,
    ")\"": 8773,
    "some": 8774,
    "Ġcogn": 8775,
    "Ġcognitive": 8776,
    "ĠJohnson": 8777,
    "Ġsouls": 8778,
    "Ġ1898": 8779,
    "idel": 8780,
    "Ġsale": 8781,
    "Ġsolst": 8782,
    "Ġfeelings": 8783,
    "Ġwhate": 8784,
    "Ġwhatever": 8785,
    "Ġple": 8786,
    "arthest": 8787,
    "Ġfarthest": 8788,
    "Ġsalts": 8789,
    "ĠDanes": 8790,
    "Ġ1943": 8791,
    "Ġsurrender": 8792,
    "head": 8793,
    "Ġefficient": 8794,
    "aditional": 8795,
    "ders": 8796,
    "edias": 8797,
    "Ġencyclopedias": 8798,
    "Ġshock": 8799,
    "Ġsq": 8800,
    "Ġprior": 8801,
    "Ġapproved": 8802,
    "Ġoffs": 8803,
    "pring": 8804,
    "Ġoffspring": 8805,
    "Ġsector": 8806,
    "Ġrebuilt": 8807,
    "Ġauthorities": 8808,
    "Ġstroke": 8809,
    "Ġcompare": 8810,
    "Ġindo": 8811,
    "enment": 8812,
    "lightenment": 8813,
    "Ġcriticism": 8814,
    "Russia": 8815,
    "rence": 8816,
    "ĠLawrence": 8817,
    "Ġpersonality": 8818,
    "igious": 8819,
    "ĠGosp": 8820,
    "Ġghosts": 8821,
    "Ġorganize": 8822,
    "ĠLas": 8823,
    "Ġports": 8824,
    "Ġ1795": 8825,
    "Col": 8826,
    "Ġmanus": 8827,
    "Ġmanuscript": 8828,
    "istorians": 8829,
    "Ġammon": 8830,
    "Ġammonia": 8831,
    "Ġdy": 8832,
    "ĠGael": 8833,
    "ĠGaelic": 8834,
    "Ġyoga": 8835,
    "Ġsailing": 8836,
    "Ġ1861": 8837,
    "mm": 8838,
    "ĠIS": 8839,
    "ĠISO": 8840,
    "ĠSri": 8841,
    "ĠHIV": 8842,
    "uses": 8843,
    "ancer": 8844,
    "ji": 8845,
    "Ġsuffered": 8846,
    "ĠInter": 8847,
    "Ġmaintain": 8848,
    "Â£": 8849,
    "ĠÂ£": 8850,
    "ĠCross": 8851,
    "engers": 8852,
    "Ġpassengers": 8853,
    "ĠSnow": 8854,
    "cm": 8855,
    "IP": 8856,
    "vince": 8857,
    "ĠProvince": 8858,
    "Ġloud": 8859,
    "ynam": 8860,
    "aming": 8861,
    "Ġconso": 8862,
    "Ġconsole": 8863,
    ".).": 8864,
    "Ġdrops": 8865,
    "ĠPython": 8866,
    "count": 8867,
    "Mercury": 8868,
    "Ġintelligent": 8869,
    "Ġcanals": 8870,
    "ĠWells": 8871,
    "ĠPower": 8872,
    "Ġfurn": 8873,
    "Ġdecorated": 8874,
    "Ġtemple": 8875,
    "ollowing": 8876,
    "Ġjaw": 8877,
    "ooks": 8878,
    "ĠVer": 8879,
    "ĠTimes": 8880,
    "Ġbusiest": 8881,
    "Ġcargo": 8882,
    "More": 8883,
    "Ġprofan": 8884,
    "Ġprofanity": 8885,
    "ĠAlong": 8886,
    "ĠCommittee": 8887,
    "Ġtheme": 8888,
    "53": 8889,
    ")+": 8890,
    "Ġexped": 8891,
    "White": 8892,
    "Ġ55": 8893,
    "Ġliberals": 8894,
    "ĠWarsaw": 8895,
    "Ġsilt": 8896,
    "ĠAthlet": 8897,
    "Ġannivers": 8898,
    "Ġanniversary": 8899,
    "Ġassistant": 8900,
    "fecture": 8901,
    "ĠCarter": 8902,
    "Ġbishop": 8903,
    "lets": 8904,
    "Ġreind": 8905,
    "Ġreindeer": 8906,
    "ĠHawking": 8907,
    "quit": 8908,
    "monton": 8909,
    "Ġpartners": 8910,
    "Ġshutter": 8911,
    "ĠSagan": 8912,
    "Ġpitcher": 8913,
    "ĠPompe": 8914,
    "ĠPompey": 8915,
    "ĠVisual": 8916,
    "Ġhope": 8917,
    "Ġartistic": 8918,
    "pired": 8919,
    "Ġinspired": 8920,
    "Ġcivilizations": 8921,
    "Ġalpha": 8922,
    "Ġhydrocar": 8923,
    "utonomous": 8924,
    "ĠCambridge": 8925,
    "raction": 8926,
    "ĠComputers": 8927,
    "Ġconcepts": 8928,
    "Australia": 8929,
    "ĠHead": 8930,
    "Ġsuitable": 8931,
    "Ġexplored": 8932,
    "Ġstarvation": 8933,
    "acks": 8934,
    "wig": 8935,
    "Ġsurprise": 8936,
    "Ġ1840": 8937,
    "Ġdemocrac": 8938,
    "Ġdemocracies": 8939,
    "ĠTurks": 8940,
    "Ġtrouble": 8941,
    "Ġroll": 8942,
    "Ġdirected": 8943,
    "inations": 8944,
    "Ġaccent": 8945,
    "Ġpracticed": 8946,
    "ologies": 8947,
    "ĠIndies": 8948,
    "Ġglac": 8949,
    "Ġgrouped": 8950,
    "Ġtemperate": 8951,
    "Ġdedicated": 8952,
    "ogues": 8953,
    "Ġflour": 8954,
    "55": 8955,
    "going": 8956,
    "atomic": 8957,
    "Ġinvestig": 8958,
    "Ġballs": 8959,
    "enon": 8960,
    "udding": 8961,
    "Ġpudding": 8962,
    "Scientists": 8963,
    "Ġforth": 8964,
    "Ġnic": 8965,
    "energy": 8966,
    "Ġcosmology": 8967,
    "ĠCopern": 8968,
    "ĠCopernic": 8969,
    "ĠCopernicus": 8970,
    "Ġradar": 8971,
    "Ġtechnique": 8972,
    "Ġrotation": 8973,
    "ĠCassini": 8974,
    "Sat": 8975,
    "Saturn": 8976,
    "Ġtransparent": 8977,
    "hemistry": 8978,
    "United": 8979,
    "ĠIranian": 8980,
    "Ġalongside": 8981,
    "Ġemperors": 8982,
    "ĠZor": 8983,
    "ĠZoro": 8984,
    "ĠZoroast": 8985,
    "Ġdynast": 8986,
    "Ġbin": 8987,
    "Ġsuccessor": 8988,
    "Ġterrorists": 8989,
    "November": 8990,
    "Ġslang": 8991,
    "Ġincorrect": 8992,
    "ĠArmenia": 8993,
    "ĠAnimals": 8994,
    "ukary": 8995,
    "Ġeukary": 8996,
    "Ġeukaryot": 8997,
    "black": 8998,
    "ĠThough": 8999,
    "Ġroast": 9000,
    "Often": 9001,
    "Ġdivisions": 9002,
    "Ġvegetable": 9003,
    "Ġlemon": 9004,
    "Ġbottles": 9005,
    "').": 9006,
    "Ġkills": 9007,
    "Ġsuffix": 9008,
    "Ġecology": 9009,
    "Ġwealthy": 9010,
    "Ġcomics": 9011,
    "ĠTenn": 9012,
    "Ġcircuit": 9013,
    "Ġraces": 9014,
    "Ġlegally": 9015,
    "uador": 9016,
    "ĠEcuador": 9017,
    "ulas": 9018,
    "Ġcalculations": 9019,
    "Ġmice": 9020,
    "ĠWilhel": 9021,
    "ĠWilhelm": 9022,
    "Ġindex": 9023,
    "Ġafterwards": 9024,
    "Ġrecycl": 9025,
    "Ġears": 9026,
    "ĠDespite": 9027,
    "Ġdated": 9028,
    "ordinate": 9029,
    "ĠCommunists": 9030,
    "Ġjumping": 9031,
    "Ġbelieves": 9032,
    "Ġfires": 9033,
    "Tr": 9034,
    "ĠDemocrat": 9035,
    "etts": 9036,
    "usetts": 9037,
    "achusetts": 9038,
    "ĠMassachusetts": 9039,
    "Ġmeter": 9040,
    "Ġrectang": 9041,
    "Ġdefault": 9042,
    "ĠProtestants": 9043,
    "Ġdair": 9044,
    "Ġdairy": 9045,
    "ĠCart": 9046,
    "Ġ1958": 9047,
    "isen": 9048,
    "Ġdice": 9049,
    "Ġcosts": 9050,
    "Ġprepar": 9051,
    "ĠReformation": 9052,
    "Ġopponent": 9053,
    "Ġtopic": 9054,
    "Ġ1814": 9055,
    "Ġ170": 9056,
    "ĠChildren": 9057,
    "Ġnicknamed": 9058,
    "ĠEarl": 9059,
    "outheastern": 9060,
    "ĠYet": 9061,
    "enty": 9062,
    "Ġthinks": 9063,
    "Ġtouching": 9064,
    "Ġvessels": 9065,
    "Ġaspect": 9066,
    "Ġalloys": 9067,
    "Ġmonuments": 9068,
    "Ġprisoner": 9069,
    "Ġskill": 9070,
    "Ġweigh": 9071,
    "Ġstock": 9072,
    "ĠHot": 9073,
    "40": 9074,
    "Ġseemed": 9075,
    "Ġrapidly": 9076,
    "Ġmanufacturing": 9077,
    "ĠFound": 9078,
    "ĠFoundation": 9079,
    "da": 9080,
    "Ġgift": 9081,
    "phe": 9082,
    "ochet": 9083,
    "inochet": 9084,
    "ĠRepublics": 9085,
    "Ġelli": 9086,
    "ptical": 9087,
    "Ġelliptical": 9088,
    "abi": 9089,
    "June": 9090,
    "Ġserves": 9091,
    "Ġcritical": 9092,
    "Ġfreeze": 9093,
    "ĠMembers": 9094,
    "Ġdepartment": 9095,
    "Ġ<": 9096,
    "Ġrecre": 9097,
    "ĠBroad": 9098,
    "Ġfashion": 9099,
    "Ġputs": 9100,
    "ios": 9101,
    "obile": 9102,
    "Ġcomfort": 9103,
    "ifteen": 9104,
    "Ġfifteen": 9105,
    "Mic": 9106,
    "ĠOffice": 9107,
    "ĠWord": 9108,
    "Ġconflicts": 9109,
    "Ġinvited": 9110,
    "Ġformat": 9111,
    "Jane": 9112,
    "Ġdiffer": 9113,
    "Ġbehaviour": 9114,
    "Ġrod": 9115,
    "rors": 9116,
    "Neptune": 9117,
    "ĠHud": 9118,
    "ĠHudson": 9119,
    "ĠEnt": 9120,
    "ĠFore": 9121,
    "Ġtraders": 9122,
    "ĠMarxism": 9123,
    "Ġagencies": 9124,
    "Ġpolymers": 9125,
    "van": 9126,
    "Ġgerm": 9127,
    "Ġgerms": 9128,
    "ĠConserv": 9129,
    "ĠSher": 9130,
    "otten": 9131,
    "Ġbubbles": 9132,
    "ushchev": 9133,
    "rushchev": 9134,
    "cC": 9135,
    "ĠMcC": 9136,
    "pur": 9137,
    "Ġcaptain": 9138,
    "ĠAmu": 9139,
    "ĠAmunds": 9140,
    "ĠAmundsen": 9141,
    "Ġ\"\",": 9142,
    "ukov": 9143,
    "ĠGallen": 9144,
    "Ġcardboard": 9145,
    "ĠAnk": 9146,
    "ĠAnkara": 9147,
    "ĠSaxony": 9148,
    "Ġchamber": 9149,
    "Ġherself": 9150,
    "cott": 9151,
    "Ġfired": 9152,
    "nesday": 9153,
    "ednesday": 9154,
    "ĠWednesday": 9155,
    "Ġaged": 9156,
    "uar": 9157,
    "aguar": 9158,
    "ĠJaguar": 9159,
    "Ġpressed": 9160,
    "Ġsignature": 9161,
    "ĠActive": 9162,
    "agle": 9163,
    "ĠPresidential": 9164,
    "artha": 9165,
    "hartha": 9166,
    "ĠSidd": 9167,
    "arma": 9168,
    "harma": 9169,
    "ĠJong": 9170,
    "igi": 9171,
    "ĠLuigi": 9172,
    "ĠYoshi": 9173,
    "ĠiP": 9174,
    "ingles": 9175,
    "Ġshingles": 9176,
    "ovil": 9177,
    "eovil": 9178,
    "ĠVas": 9179,
    "ĠVasari": 9180,
    "Ford": 9181,
    "iends": 9182,
    "ĠMargot": 9183,
    ")*": 9184,
    "Ġperforming": 9185,
    "olith": 9186,
    "olithic": 9187,
    "Ġdying": 9188,
    "ĠOxygen": 9189,
    "Ġselection": 9190,
    "Ġtonnes": 9191,
    "Ġ85": 9192,
    "Ġtraded": 9193,
    "ĠBlue": 9194,
    "Ġexplore": 9195,
    "test": 9196,
    "govern": 9197,
    "Ġunions": 9198,
    "ĠFront": 9199,
    "ession": 9200,
    "Ġchooses": 9201,
    "elly": 9202,
    "Ġoverseas": 9203,
    "ĠHome": 9204,
    "ĠGib": 9205,
    "ĠGibson": 9206,
    "Ġswimming": 9207,
    "Ġ1938": 9208,
    "Ġgum": 9209,
    "Ġcustomers": 9210,
    "Ġrockets": 9211,
    "Ġangel": 9212,
    "Ġcommands": 9213,
    "odus": 9214,
    "ĠExodus": 9215,
    "Ġprediction": 9216,
    "Ġpunished": 9217,
    "ĠKings": 9218,
    "Ġdiamond": 9219,
    "Ġwalked": 9220,
    "Ġservants": 9221,
    "ĠStill": 9222,
    "Ġtask": 9223,
    "Ġnice": 9224,
    "Ġjustice": 9225,
    "Ġattempted": 9226,
    "Ġhelpful": 9227,
    "ĠMatthe": 9228,
    "ĠMatthew": 9229,
    "cluded": 9230,
    "using": 9231,
    "iberia": 9232,
    "ĠSiberia": 9233,
    "ocolate": 9234,
    "Ġchocolate": 9235,
    "angered": 9236,
    "Ġendangered": 9237,
    "Ġancestry": 9238,
    "Ġhy": 9239,
    "Ġproducers": 9240,
    "Ã¡": 9241,
    "Ġsimplest": 9242,
    "Ġdividing": 9243,
    "Ġapplies": 9244,
    "llium": 9245,
    "eryllium": 9246,
    "Ġorbital": 9247,
    "Ġ1937": 9248,
    "Ġgrams": 9249,
    "Ġnuclei": 9250,
    "Ġchlorine": 9251,
    "Ġdwarfs": 9252,
    "ĠGalilei": 9253,
    "ĠBern": 9254,
    "acetime": 9255,
    "Ġspacetime": 9256,
    "ĠIndustrial": 9257,
    "Ġinventions": 9258,
    "ĠBruce": 9259,
    "Ġprin": 9260,
    "Between": 9261,
    "Ġdisputed": 9262,
    "Ġempires": 9263,
    "Ġcivilians": 9264,
    "Ġwithd": 9265,
    "Ġrejected": 9266,
    "Ġministers": 9267,
    "ovement": 9268,
    "ĠMovement": 9269,
    "ĠPlate": 9270,
    "ĠRoma": 9271,
    "ĠCatholicism": 9272,
    "ises": 9273,
    "Ġbackwards": 9274,
    "Black": 9275,
    "Ġdrives": 9276,
    "Ġarrangement": 9277,
    "Ġbreakfast": 9278,
    "Ġdish": 9279,
    "ubs": 9280,
    "apes": 9281,
    "Ġgrapes": 9282,
    "Ġspots": 9283,
    "Ġantibod": 9284,
    "Ġantibodies": 9285,
    "idem": 9286,
    "Ġepidem": 9287,
    "organ": 9288,
    "ussels": 9289,
    "ĠBrussels": 9290,
    "ĠGaul": 9291,
    "Ġsaxophone": 9292,
    "ĠMaur": 9293,
    "president": 9294,
    "ĠChemical": 9295,
    "Ġfoundation": 9296,
    "ĠComputer": 9297,
    "ĠSoft": 9298,
    "ĠSoftware": 9299,
    "Ġelectronics": 9300,
    "Ġscre": 9301,
    "Ġscreens": 9302,
    "Ġnewer": 9303,
    "Ġcorners": 9304,
    "ĠConfu": 9305,
    "ĠConfuci": 9306,
    "ĠHan": 9307,
    "ĠGengh": 9308,
    "ĠGenghis": 9309,
    "Ġuniform": 9310,
    "Ġexports": 9311,
    "Ġboundaries": 9312,
    "ĠKo": 9313,
    "Ġmeal": 9314,
    "Ġdir": 9315,
    "Ġnobles": 9316,
    "Ġdemanded": 9317,
    "Ġlessons": 9318,
    "Ġbuses": 9319,
    "Ġhoped": 9320,
    "ĠDictionary": 9321,
    "Ġcapable": 9322,
    "ĠTechn": 9323,
    "Ġinteg": 9324,
    "Ġtheorem": 9325,
    "Ġmatters": 9326,
    "Ġdarker": 9327,
    "Ġjudges": 9328,
    "Ġdisaster": 9329,
    "Ġdemonstrations": 9330,
    "room": 9331,
    "Ġdiar": 9332,
    "Ġdiarr": 9333,
    "Ġdiarrhe": 9334,
    "Ġdiarrhea": 9335,
    "Ġprevented": 9336,
    "Ġwelf": 9337,
    "Ġwelfare": 9338,
    "Ġcabinet": 9339,
    "Ġatheist": 9340,
    "Ġairplane": 9341,
    "ĠOur": 9342,
    "Ġcomparison": 9343,
    "Ġsomebody": 9344,
    "iva": 9345,
    "Ġsemen": 9346,
    "Ġvacc": 9347,
    "Ġscales": 9348,
    "Ġconservation": 9349,
    "Ġanthropology": 9350,
    "ĠSeven": 9351,
    "Ġedit": 9352,
    "Ġqueens": 9353,
    "January": 9354,
    "Ġgardening": 9355,
    "Ġdisorders": 9356,
    "Ġmature": 9357,
    "rate": 9358,
    "Ġwhales": 9359,
    "Ġgross": 9360,
    "billion": 9361,
    "sar": 9362,
    "ĠTsar": 9363,
    "Joh": 9364,
    "John": 9365,
    "Ġlenses": 9366,
    "Ġeld": 9367,
    "Ġopport": 9368,
    "Ġinfinity": 9369,
    "Ġwiki": 9370,
    "ĠMountain": 9371,
    "ĠAdolf": 9372,
    "Ġfictional": 9373,
    "Ġorbiting": 9374,
    "alaxy": 9375,
    "ĠGalaxy": 9376,
    "Ġ65": 9377,
    "ĠHume": 9378,
    "Ġuncommon": 9379,
    "Ġsynthetic": 9380,
    "Ġmined": 9381,
    "ĠAgency": 9382,
    "states": 9383,
    "Ġ350": 9384,
    "Ġexposure": 9385,
    "ĠMy": 9386,
    "ĠChief": 9387,
    "Ġimmunity": 9388,
    "type": 9389,
    "Ġ...": 9390,
    "ĠWind": 9391,
    "Ġmolecular": 9392,
    "Ġphos": 9393,
    "Ġphosph": 9394,
    "Ġferment": 9395,
    "Ġinnoc": 9396,
    "Ġ52": 9397,
    "Ġpreserve": 9398,
    "three": 9399,
    "Cf": 9400,
    "umes": 9401,
    "Ġpackage": 9402,
    "eenth": 9403,
    "Ġhardware": 9404,
    "Ġmonarchs": 9405,
    "ĠKÃ¶ppen": 9406,
    "ĠPal": 9407,
    "ĠPalest": 9408,
    "Ġtransformed": 9409,
    "ĠMartian": 9410,
    "Ġastron": 9411,
    "Ġastronaut": 9412,
    "ĠRel": 9413,
    "ĠDa": 9414,
    "Ġcharity": 9415,
    "Ġshirts": 9416,
    "aints": 9417,
    "Ġguest": 9418,
    "Ġ1821": 9419,
    "Ġshortly": 9420,
    "Ġexplanations": 9421,
    "Ġ42": 9422,
    "ĠCarolina": 9423,
    "ĠNews": 9424,
    "ĠStation": 9425,
    "Ġdifficulty": 9426,
    "Ġopponents": 9427,
    "agers": 9428,
    "ĠUNIX": 9429,
    "Ġharmful": 9430,
    "anck": 9431,
    "ĠPlanck": 9432,
    "iat": 9433,
    "Ġshif": 9434,
    "Ġevaporation": 9435,
    "Ġresc": 9436,
    "Ġbusy": 9437,
    "Ġreduces": 9438,
    "Ġfee": 9439,
    "ĠHeaven": 9440,
    "Ġwarning": 9441,
    "ĠSUVs": 9442,
    "Ġboxes": 9443,
    "Ġclient": 9444,
    "Ġperfectly": 9445,
    "Ġbath": 9446,
    "Ġindependently": 9447,
    "ĠGlobe": 9448,
    "ĠGoethe": 9449,
    "Ġfavorite": 9450,
    "ĠBrist": 9451,
    "ĠBristol": 9452,
    "Ed": 9453,
    "ĠAber": 9454,
    "ĠAberd": 9455,
    "ĠAberdeen": 9456,
    "Ġneutrinos": 9457,
    "mall": 9458,
    "ĠEuro": 9459,
    "eva": 9460,
    "ĠGeneva": 9461,
    "Ġcomponent": 9462,
    "Ã©s": 9463,
    "Ġoxidizing": 9464,
    "Ġabsorbed": 9465,
    "Ġagent": 9466,
    "ĠAlbania": 9467,
    "Ġmoist": 9468,
    "Ġlegit": 9469,
    "Ġlegitimate": 9470,
    "Ġpushing": 9471,
    "atars": 9472,
    "ĠBrandenburg": 9473,
    "bledon": 9474,
    "imbledon": 9475,
    "ĠWimbledon": 9476,
    "inux": 9477,
    "Linux": 9478,
    "Ġbullet": 9479,
    "ĠKyiv": 9480,
    "islava": 9481,
    "atislava": 9482,
    "Ġmedication": 9483,
    "aine": 9484,
    "Ġepisode": 9485,
    "ĠGut": 9486,
    "ĠGutenberg": 9487,
    "perm": 9488,
    "Ġsperm": 9489,
    "ĠAnn": 9490,
    "ĠActors": 9491,
    "ĠExeter": 9492,
    "ĠWatt": 9493,
    "vre": 9494,
    "ĠLouvre": 9495,
    "opper": 9496,
    "Copper": 9497,
    "ĠMores": 9498,
    "ĠMoresn": 9499,
    "ĠMoresnet": 9500,
    "Ġbreathe": 9501,
    "zone": 9502,
    "Ġcarbonate": 9503,
    "Ġfifty": 9504,
    "Ġshadow": 9505,
    "Ġ41": 9506,
    "Ġgranted": 9507,
    "Ġsuicide": 9508,
    "Ġepisodes": 9509,
    "ĠTele": 9510,
    "vin": 9511,
    "Ġtwin": 9512,
    "ĠPict": 9513,
    "Ġlatest": 9514,
    "ĠCels": 9515,
    "ĠCelsius": 9516,
    "Ġnom": 9517,
    "Ġresistant": 9518,
    "Ġcrop": 9519,
    "Ġmarkets": 9520,
    "Ġarchitects": 9521,
    "ĠFinally": 9522,
    "Ġeffectively": 9523,
    "Ġmaybe": 9524,
    "Ġgathering": 9525,
    "MS": 9526,
    "ahit": 9527,
    "ĠTahit": 9528,
    "Ġcollecting": 9529,
    "Ġ1700": 9530,
    "Ġharbour": 9531,
    "ĠMajor": 9532,
    "Ġcouncils": 9533,
    "acked": 9534,
    "Ġsacked": 9535,
    "Ġjoining": 9536,
    "ĠSteve": 9537,
    "idman": 9538,
    "ĠKidman": 9539,
    "Ġoutdo": 9540,
    "cling": 9541,
    "Ġcycling": 9542,
    "ĠLocal": 9543,
    "Ġmedal": 9544,
    "ĠOrle": 9545,
    "ĠOrleans": 9546,
    "Ġfunny": 9547,
    "Ġheaven": 9548,
    "Ġpipes": 9549,
    "Ġsin": 9550,
    "Ġspeaks": 9551,
    "Muslims": 9552,
    "Ġmistakes": 9553,
    "Ġdiplomacy": 9554,
    "Ġformally": 9555,
    "ivia": 9556,
    "ĠBolivia": 9557,
    "ĠEll": 9558,
    "Ġspecially": 9559,
    "Ġcelebrations": 9560,
    "ĠAlexand": 9561,
    "ĠCE": 9562,
    "down": 9563,
    "Ġcurved": 9564,
    "Ġwise": 9565,
    "Ġfraction": 9566,
    "Ġqualities": 9567,
    "Ġ1913": 9568,
    "Ġfission": 9569,
    "eper": 9570,
    "Usually": 9571,
    "sized": 9572,
    "Ġemit": 9573,
    "Ġweaker": 9574,
    "ĠStars": 9575,
    "pler": 9576,
    "Ġobserve": 9577,
    "Ġ92": 9578,
    "Ġtemples": 9579,
    "Ġtaller": 9580,
    "ĠCentury": 9581,
    "andoned": 9582,
    "Ġabandoned": 9583,
    "Ġ1890": 9584,
    "Ġglands": 9585,
    "Ġ1801": 9586,
    "ĠDesert": 9587,
    "Ġbuilders": 9588,
    "Ġbelieving": 9589,
    "Ġhistorian": 9590,
    "Ġrising": 9591,
    "Ġgrandfather": 9592,
    "Ġ1934": 9593,
    "irates": 9594,
    "Ġthirty": 9595,
    "four": 9596,
    "Ġaparthe": 9597,
    "Ġapartheid": 9598,
    "Ġnortheastern": 9599,
    "ĠSilver": 9600,
    "tenst": 9601,
    "tenstein": 9602,
    "ĠLiech": 9603,
    "ĠLiechtenstein": 9604,
    "Ġliterally": 9605,
    "East": 9606,
    "ĠCel": 9607,
    "ĠCelts": 9608,
    "Ġarchaeological": 9609,
    "ĠEverything": 9610,
    "ĠVikings": 9611,
    "Ġunderwater": 9612,
    "Ġpigs": 9613,
    "Ġbesides": 9614,
    "Ġdebts": 9615,
    "Ġorganisations": 9616,
    "Ġportion": 9617,
    "Ġlasts": 9618,
    "yle": 9619,
    "Ġflav": 9620,
    "Ġdaught": 9621,
    "Ġdaughters": 9622,
    "Ġattrib": 9623,
    "inyin": 9624,
    "ĠMongols": 9625,
    "Ġber": 9626,
    "Ġberries": 9627,
    "Ġlip": 9628,
    "Ġfear": 9629,
    "Ġ39": 9630,
    "ĠFranks": 9631,
    "ĠLeop": 9632,
    "Ġ1951": 9633,
    "Ġ1927": 9634,
    "Ġ1846": 9635,
    "Or": 9636,
    "Ġscen": 9637,
    "Ġscenes": 9638,
    "Ġpolymer": 9639,
    "Ġrecording": 9640,
    "Ġexperts": 9641,
    "ĠHard": 9642,
    "Ġcomparing": 9643,
    "Ġthicker": 9644,
    "Ġmant": 9645,
    "Ġmantle": 9646,
    "ĠWallace": 9647,
    "fire": 9648,
    "udal": 9649,
    "Ġfeudal": 9650,
    "Ġlatter": 9651,
    "ĠCult": 9652,
    "Ġdensely": 9653,
    "ĠSpring": 9654,
    "ĠThird": 9655,
    "aptist": 9656,
    "ĠBaptist": 9657,
    "Ġmonasteries": 9658,
    "Ġpatent": 9659,
    "ĠSomeone": 9660,
    "Ġtexture": 9661,
    "Ġdominated": 9662,
    "ĠKeynes": 9663,
    "Ġhousing": 9664,
    "ĠOriginally": 9665,
    "Ġcubic": 9666,
    "Ġdivides": 9667,
    "Ġknowing": 9668,
    "istance": 9669,
    "distance": 9670,
    "What": 9671,
    "Ġmembrane": 9672,
    "you": 9673,
    "Ġchoosing": 9674,
    "Ġ\"(": 9675,
    "ĠPythagore": 9676,
    "ĠPythagorean": 9677,
    "Ġ1492": 9678,
    "Ġbasketball": 9679,
    "rictions": 9680,
    "Ġrestrictions": 9681,
    "Ġamongst": 9682,
    "ricane": 9683,
    "Ġowns": 9684,
    "ĠHealth": 9685,
    "Ġhunted": 9686,
    "Ġ1935": 9687,
    "Ġneither": 9688,
    "Ġnobody": 9689,
    "Ġdiction": 9690,
    "Ġdictionaries": 9691,
    "Ġencyclopedia": 9692,
    "Ġevening": 9693,
    "Ġdiesel": 9694,
    "Ġembass": 9695,
    "Ġambass": 9696,
    "Ġambassador": 9697,
    "Ġrepresentatives": 9698,
    "stanb": 9699,
    "ĠIstanb": 9700,
    "ĠIstanbul": 9701,
    "Now": 9702,
    "anton": 9703,
    "ĠCanton": 9704,
    "ocy": 9705,
    "Ġlymphocy": 9706,
    "Also": 9707,
    "Ġconsumption": 9708,
    "Ġoccurring": 9709,
    "Ã©t": 9710,
    "Ġwinners": 9711,
    "uez": 9712,
    "Ġformerly": 9713,
    "February": 9714,
    "ĠSur": 9715,
    "Ġinflation": 9716,
    "Ġatheists": 9717,
    "Ġ2024": 9718,
    "Ġol": 9719,
    "Ġbear": 9720,
    "800": 9721,
    "Saxon": 9722,
    "Ġtense": 9723,
    "usc": 9724,
    "Ġmeets": 9725,
    "into": 9726,
    "ĠShinto": 9727,
    "Ġtheology": 9728,
    "ura": 9729,
    "ĠBrahman": 9730,
    "Go": 9731,
    "ĠNev": 9732,
    "Ġemotional": 9733,
    "ĠThrough": 9734,
    "Ġ1790": 9735,
    "Ġdisagreed": 9736,
    "Ġchest": 9737,
    "reement": 9738,
    "Ġid": 9739,
    "Ġidi": 9740,
    "ĠImperial": 9741,
    "Ġpride": 9742,
    "odia": 9743,
    "andhi": 9744,
    "ĠGandhi": 9745,
    "krit": 9746,
    "ĠSans": 9747,
    "ĠSanskrit": 9748,
    "Ġanime": 9749,
    "elescope": 9750,
    "ĠTelescope": 9751,
    "Greek": 9752,
    "anto": 9753,
    "ĠEsper": 9754,
    "ĠEsperanto": 9755,
    "Ġlawyer": 9756,
    "Ġceremonial": 9757,
    "Ġthirteen": 9758,
    "Ġshopping": 9759,
    "</": 9760,
    "those": 9761,
    "Ġpup": 9762,
    "Ġemph": 9763,
    "SS": 9764,
    "ĠCSS": 9765,
    "âĪĴ": 9766,
    "Ġcrude": 9767,
    "Ġbombings": 9768,
    "tained": 9769,
    "essor": 9770,
    "ĠRob": 9771,
    "Ġcapt": 9772,
    "ĠDark": 9773,
    "Dutch": 9774,
    "Ġstrateg": 9775,
    "iscons": 9776,
    "ĠWiscons": 9777,
    "ĠWisconsin": 9778,
    "Ġviewed": 9779,
    "Ġriding": 9780,
    "abilities": 9781,
    "Ġflies": 9782,
    "Ġnumerals": 9783,
    "Ġri": 9784,
    "Ġphases": 9785,
    "Ġdenomin": 9786,
    "ĠBalk": 9787,
    "oral": 9788,
    "illy": 9789,
    "Ġwebp": 9790,
    "Ġproced": 9791,
    "Ġscored": 9792,
    "ĠCret": 9793,
    "ĠCretace": 9794,
    "ĠCretaceous": 9795,
    "Ġstretched": 9796,
    "ĠScots": 9797,
    "Ġclause": 9798,
    "Ġadverb": 9799,
    "My": 9800,
    "Ġdisplays": 9801,
    "Zinc": 9802,
    "ĠNahu": 9803,
    "ĠNahuatl": 9804,
    "Ġwait": 9805,
    "Ġclocks": 9806,
    "ĠKansas": 9807,
    "ĠIPv": 9808,
    "Ġwins": 9809,
    "atra": 9810,
    "ĠMold": 9811,
    "Hungarian": 9812,
    "Ġreferend": 9813,
    "Ġreferendum": 9814,
    "ĠCentre": 9815,
    "Ġbrush": 9816,
    "ĠKur": 9817,
    "Ġmarble": 9818,
    "ĠCologne": 9819,
    "ĠIV": 9820,
    "Ġduke": 9821,
    "otsky": 9822,
    "ĠTrotsky": 9823,
    "Ġemergency": 9824,
    "Ġrunner": 9825,
    "Ġshirt": 9826,
    "Ġconductor": 9827,
    "ĠAlberta": 9828,
    "elson": 9829,
    "ĠNelson": 9830,
    "Ġwarship": 9831,
    "ĠMov": 9832,
    "Ġplot": 9833,
    "Ġmaternal": 9834,
    "Ġgran": 9835,
    "ĠLore": 9836,
    "ĠLoren": 9837,
    "ĠLorenz": 9838,
    "Ġtoxins": 9839,
    "ĠPlaySt": 9840,
    "ĠPlayStation": 9841,
    "ĠJeff": 9842,
    "Ġorchestra": 9843,
    "Ġ1862": 9844,
    "Ġdeaf": 9845,
    "Ġcaf": 9846,
    "Pakistan": 9847,
    "Anne": 9848,
    "Bounty": 9849,
    "ĠConfederates": 9850,
    "ĠArnhem": 9851,
    "iggy": 9852,
    "Ġexponent": 9853,
    "Ġreferring": 9854,
    "ĠEaster": 9855,
    "Ġdriven": 9856,
    "Ġfloors": 9857,
    "ĠPhoenician": 9858,
    "Ġargon": 9859,
    "Ġbreathing": 9860,
    "Ġwarming": 9861,
    "Ġ1907": 9862,
    "Under": 9863,
    "Ġgoats": 9864,
    "Ġexplorers": 9865,
    "Ġyield": 9866,
    "Ġgrassland": 9867,
    "berra": 9868,
    "ĠCanberra": 9869,
    "Ġcrystals": 9870,
    "Ġwool": 9871,
    "Ġ1850": 9872,
    "ĠTerritory": 9873,
    "Ġflooding": 9874,
    "app": 9875,
    "Ġsits": 9876,
    "ugh": 9877,
    "Ġsporting": 9878,
    "Ġracing": 9879,
    "ormula": 9880,
    "ĠFormula": 9881,
    "soccer": 9882,
    "Ġsurviving": 9883,
    "ĠBost": 9884,
    "ĠBoston": 9885,
    "gae": 9886,
    "Ġalgae": 9887,
    "adio": 9888,
    "ĠAngels": 9889,
    "Ġasks": 9890,
    "ĠLast": 9891,
    "Ġmelted": 9892,
    "ĠMaya": 9893,
    "igs": 9894,
    "ĠMinor": 9895,
    "ĠAbrahamic": 9896,
    "Ġoutput": 9897,
    "except": 9898,
    "ĠEnergy": 9899,
    "Ġchemist": 9900,
    "Ġgrains": 9901,
    "how": 9902,
    "Ġstuck": 9903,
    "ĠEr": 9904,
    "Ġelementary": 9905,
    "Ġremoving": 9906,
    "pending": 9907,
    "ĠDepending": 9908,
    "Ġkinetic": 9909,
    "andom": 9910,
    "Ġrandom": 9911,
    "Ġdiscoveries": 9912,
    "ĠSimilarly": 9913,
    "Ġthanks": 9914,
    "Ġboun": 9915,
    "Ġinstitution": 9916,
    "Cl": 9917,
    "Classical": 9918,
    "ĠJones": 9919,
    "yscr": 9920,
    "yscrapers": 9921,
    "Ġskyscrapers": 9922,
    "Ġemployed": 9923,
    "Ġskeleton": 9924,
    "Ġextinction": 9925,
    "Af": 9926,
    "Ġdeserts": 9927,
    "Ġroutes": 9928,
    "Ġgeographic": 9929,
    "Ġpoets": 9930,
    "ĠDelhi": 9931,
    "Ġ1878": 9932,
    "Ġrecognition": 9933,
    "Ġneighboring": 9934,
    "Ġcru": 9935,
    "reedom": 9936,
    "ĠFreedom": 9937,
    "ĠAngola": 9938,
    "Spanish": 9939,
    "Ġcitizenship": 9940,
    "Ġorig": 9941,
    "Ġorigins": 9942,
    "Ġpotato": 9943,
    "Ġdisappeared": 9944,
    "ĠSlovenia": 9945,
    "Ġnin": 9946,
    "Ġninth": 9947,
    "ĠArmenian": 9948,
    "Russian": 9949,
    "asian": 9950,
    "Ġrevealed": 9951,
    "Ġmetabolism": 9952,
    "Ġchips": 9953,
    "wear": 9954,
    "Ġfootwear": 9955,
    "Ġpurchased": 9956,
    "free": 9957,
    "Ġchoices": 9958,
    "orous": 9959,
    "ivorous": 9960,
    "Ġmillenn": 9961,
    "Ġmillennium": 9962,
    "Ġdistinguish": 9963,
    "Ġdepart": 9964,
    "Ġdepartments": 9965,
    "ĠEight": 9966,
    "Ġ1908": 9967,
    "andal": 9968,
    "Ġscandal": 9969,
    "Ġrocky": 9970,
    "udget": 9971,
    "Ġbudget": 9972,
    "ograp": 9973,
    "reas": 9974,
    "ĠAlz": 9975,
    "heim": 9976,
    "heimer": 9977,
    "ĠAlzheimer": 9978,
    "Ġclassic": 9979,
    "Ġbringing": 9980,
    "Ġ1888": 9981,
    "azon": 9982,
    "ĠAmazon": 9983,
    "Ġisol": 9984,
    "Ġisolated": 9985,
    "Ġpoisons": 9986,
    "Ġstorage": 9987,
    "Ġsmart": 9988,
    "utive": 9989,
    "Ġhousehold": 9990,
    "Phone": 9991,
    "ĠiPhone": 9992,
    "lying": 9993,
    "Ġdecorations": 9994,
    "Ġloyal": 9995,
    "Ġtied": 9996,
    "Ġfled": 9997,
    "kil": 9998,
    "kilomet": 9999,
    "Ġreserve": 10000,
    "vo": 10001,
    "stances": 10002,
    "Ġinterests": 10003,
    "ĠChapel": 10004,
    "ĠMilton": 10005,
    "ĠFamous": 10006,
    "ĠMedieval": 10007,
    "Ġsumm": 10008,
    "Ġmaize": 10009,
    "Ġunderne": 10010,
    "Ġunderneath": 10011,
    "Ġcomed": 10012,
    "Ġsecular": 10013,
    "ĠBill": 10014,
    "ĠActs": 10015,
    "ĠMathem": 10016,
    "case": 10017,
    "ĠHait": 10018,
    "ĠHaiti": 10019,
    "ĠCubans": 10020,
    "endment": 10021,
    "Ġrailways": 10022,
    "ĠObama": 10023,
    "ĠSee": 10024,
    "avian": 10025,
    "ĠScandinavian": 10026,
    "Ġarrive": 10027,
    "Fin": 10028,
    "Ġpotatoes": 10029,
    "Ġresurrection": 10030,
    "Ġfocuses": 10031,
    "electric": 10032,
    "ustion": 10033,
    "Ġcombustion": 10034,
    "ewable": 10035,
    "ĠZeus": 10036,
    "avity": 10037,
    "iction": 10038,
    "Ġresource": 10039,
    "Ġteaches": 10040,
    "Ġcleaning": 10041,
    "Ġ1789": 10042,
    "Ġproviding": 10043,
    "ĠMetro": 10044,
    "Ġswing": 10045,
    "ĠThur": 10046,
    "sday": 10047,
    "ĠThursday": 10048,
    "Ġbuying": 10049,
    "Ġrestaurant": 10050,
    "Ġfeeding": 10051,
    "oufl": 10052,
    "Ġcamoufl": 10053,
    "Ġtoes": 10054,
    "aco": 10055,
    "ĠMonaco": 10056,
    "Ġexclus": 10057,
    "ĠDecl": 10058,
    "ĠDeclaration": 10059,
    "Ġresort": 10060,
    "ĠFinns": 10061,
[...]
